{
  "version": "1.0",
  "truncation": {
    "direction": "Right",
    "max_length": 30,
    "strategy": "LongestFirst",
    "stride": 0
  },
  "padding": {
    "strategy": {
      "Fixed": 30
    },
    "direction": "Right",
    "pad_to_multiple_of": null,
    "pad_id": 0,
    "pad_type_id": 0,
    "pad_token": "<pad>"
  },
  "added_tokens": [
    {
      "id": 0,
      "content": "<pad>",
      "single_word": false,
      "lstrip": false,
      "rstrip": false,
      "normalized": false,
      "special": true
    },
    {
      "id": 1,
      "content": "<unk>",
      "single_word": false,
      "lstrip": false,
      "rstrip": false,
      "normalized": false,
      "special": true
    },
    {
      "id": 2,
      "content": "<start>",
      "single_word": false,
      "lstrip": false,
      "rstrip": false,
      "normalized": false,
      "special": true
    },
    {
      "id": 3,
      "content": "<end>",
      "single_word": false,
      "lstrip": false,
      "rstrip": false,
      "normalized": false,
      "special": true
    }
  ],
  "normalizer": {
    "type": "Sequence",
    "normalizers": [
      {
        "type": "NFKC"
      },
      {
        "type": "Lowercase"
      }
    ]
  },
  "pre_tokenizer": {
    "type": "Whitespace"
  },
  "post_processor": {
    "type": "TemplateProcessing",
    "single": [
      {
        "SpecialToken": {
          "id": "<start>",
          "type_id": 0
        }
      },
      {
        "Sequence": {
          "id": "A",
          "type_id": 0
        }
      },
      {
        "SpecialToken": {
          "id": "<end>",
          "type_id": 0
        }
      }
    ],
    "pair": [
      {
        "Sequence": {
          "id": "A",
          "type_id": 0
        }
      },
      {
        "Sequence": {
          "id": "B",
          "type_id": 1
        }
      }
    ],
    "special_tokens": {
      "<end>": {
        "id": "<end>",
        "ids": [
          3
        ],
        "tokens": [
          "<end>"
        ]
      },
      "<start>": {
        "id": "<start>",
        "ids": [
          2
        ],
        "tokens": [
          "<start>"
        ]
      }
    }
  },
  "decoder": null,
  "model": {
    "type": "BPE",
    "dropout": null,
    "unk_token": "<unk>",
    "continuing_subword_prefix": null,
    "end_of_word_suffix": null,
    "fuse_unk": false,
    "byte_fallback": false,
    "ignore_merges": false,
    "vocab": {
      "<pad>": 0,
      "<unk>": 1,
      "<start>": 2,
      "<end>": 3,
      "!": 4,
      "\"": 5,
      "#": 6,
      "$": 7,
      "%": 8,
      "&": 9,
      "'": 10,
      "(": 11,
      ")": 12,
      "*": 13,
      "+": 14,
      ",": 15,
      "-": 16,
      ".": 17,
      "/": 18,
      "0": 19,
      "1": 20,
      "2": 21,
      "3": 22,
      "4": 23,
      "5": 24,
      "6": 25,
      "7": 26,
      "8": 27,
      "9": 28,
      ":": 29,
      ";": 30,
      "<": 31,
      "=": 32,
      "?": 33,
      "[": 34,
      "\\": 35,
      "]": 36,
      "`": 37,
      "a": 38,
      "b": 39,
      "c": 40,
      "d": 41,
      "e": 42,
      "f": 43,
      "g": 44,
      "h": 45,
      "i": 46,
      "j": 47,
      "k": 48,
      "l": 49,
      "m": 50,
      "n": 51,
      "o": 52,
      "p": 53,
      "q": 54,
      "r": 55,
      "s": 56,
      "t": 57,
      "u": 58,
      "v": 59,
      "w": 60,
      "x": 61,
      "y": 62,
      "z": 63,
      "{": 64,
      "}": 65,
      "è": 66,
      "é": 67,
      "́": 68,
      "ה": 69,
      "ו": 70,
      "ק": 71,
      "ת": 72,
      "–": 73,
      "—": 74,
      "‘": 75,
      "’": 76,
      "“": 77,
      "”": 78,
      "th": 79,
      "in": 80,
      "the": 81,
      "an": 82,
      "re": 83,
      "is": 84,
      "ing": 85,
      "lo": 86,
      "and": 87,
      "er": 88,
      "on": 89,
      "es": 90,
      "it": 91,
      "of": 92,
      "at": 93,
      "me": 94,
      "to": 95,
      "se": 96,
      "li": 97,
      "ar": 98,
      "ke": 99,
      "ou": 100,
      "ok": 101,
      "al": 102,
      "st": 103,
      "look": 104,
      "le": 105,
      "or": 106,
      "el": 107,
      "en": 108,
      "ac": 109,
      "co": 110,
      "this": 111,
      "like": 112,
      "be": 113,
      "ma": 114,
      "fe": 115,
      "ic": 116,
      "ha": 117,
      "int": 118,
      "looks": 119,
      "are": 120,
      "ed": 121,
      "colo": 122,
      "man": 123,
      "wh": 124,
      "color": 125,
      "pe": 126,
      "ver": 127,
      "pa": 128,
      "so": 129,
      "he": 130,
      "il": 131,
      "gh": 132,
      "feel": 133,
      "as": 134,
      "de": 135,
      "fu": 136,
      "ow": 137,
      "paint": 138,
      "ve": 139,
      "ut": 140,
      "ure": 141,
      "ly": 142,
      "ch": 143,
      "wi": 144,
      "ad": 145,
      "with": 146,
      "ion": 147,
      "colors": 148,
      "very": 149,
      "ra": 150,
      "painting": 151,
      "ge": 152,
      "ri": 153,
      "ro": 154,
      "mak": 155,
      "wo": 156,
      "ght": 157,
      "makes": 158,
      "see": 159,
      "ir": 160,
      "nt": 161,
      "ab": 162,
      "ple": 163,
      "ful": 164,
      "con": 165,
      "ay": 166,
      "that": 167,
      "ace": 168,
      "no": 169,
      "ld": 170,
      "ind": 171,
      "mo": 172,
      "un": 173,
      "bl": 174,
      "for": 175,
      "out": 176,
      "ex": 177,
      "im": 178,
      "use": 179,
      "sc": 180,
      "ack": 181,
      "some": 182,
      "bo": 183,
      "thing": 184,
      "woman": 185,
      "am": 186,
      "res": 187,
      "ent": 188,
      "seem": 189,
      "her": 190,
      "ther": 191,
      "oun": 192,
      "red": 193,
      "all": 194,
      "ur": 195,
      "ce": 196,
      "sh": 197,
      "ct": 198,
      "ca": 199,
      "one": 200,
      "but": 201,
      "ers": 202,
      "pic": 203,
      "pp": 204,
      "art": 205,
      "ta": 206,
      "go": 207,
      "ess": 208,
      "ture": 209,
      "ound": 210,
      "gr": 211,
      "ust": 212,
      "low": 213,
      "ant": 214,
      "ig": 215,
      "what": 216,
      "su": 217,
      "pl": 218,
      "ite": 219,
      "do": 220,
      "we": 221,
      "if": 222,
      "ark": 223,
      "not": 224,
      "ous": 225,
      "ist": 226,
      "ue": 227,
      "peo": 228,
      "they": 229,
      "his": 230,
      "people": 231,
      "po": 232,
      "ress": 233,
      "make": 234,
      "there": 235,
      "she": 236,
      "cont": 237,
      "id": 238,
      "sha": 239,
      "com": 240,
      "ho": 241,
      "us": 242,
      "ally": 243,
      "right": 244,
      "dark": 245,
      "ie": 246,
      "cause": 247,
      "has": 248,
      "seems": 249,
      "face": 250,
      "la": 251,
      "because": 252,
      "way": 253,
      "od": 254,
      "picture": 255,
      "mind": 256,
      "ap": 257,
      "sad": 258,
      "gi": 259,
      "ne": 260,
      "ment": 261,
      "ink": 262,
      "gre": 263,
      "br": 264,
      "ild": 265,
      "wor": 266,
      "act": 267,
      "remind": 268,
      "aut": 269,
      "scen": 270,
      "str": 271,
      "happ": 272,
      "beaut": 273,
      "ima": 274,
      "ell": 275,
      "looking": 276,
      "deta": 277,
      "just": 278,
      "back": 279,
      "press": 280,
      "cal": 281,
      "ere": 282,
      "der": 283,
      "my": 284,
      "sed": 285,
      "bright": 286,
      "rom": 287,
      "by": 288,
      "ould": 289,
      "appe": 290,
      "scene": 291,
      "love": 292,
      "can": 293,
      "ry": 294,
      "own": 295,
      "ground": 296,
      "blue": 297,
      "iful": 298,
      "ang": 299,
      "from": 300,
      "beautiful": 301,
      "men": 302,
      "qu": 303,
      "ting": 304,
      "sk": 305,
      "ves": 306,
      "ort": 307,
      "calm": 308,
      "wat": 309,
      "att": 310,
      "ness": 311,
      "up": 312,
      "ill": 313,
      "ul": 314,
      "ough": 315,
      "si": 316,
      "something": 317,
      "appear": 318,
      "detail": 319,
      "about": 320,
      "fig": 321,
      "light": 322,
      "figure": 323,
      "you": 324,
      "reminds": 325,
      "ile": 326,
      "think": 327,
      "ard": 328,
      "peace": 329,
      "have": 330,
      "fo": 331,
      "how": 332,
      "lin": 333,
      "pers": 334,
      "white": 335,
      "ti": 336,
      "ity": 337,
      "pression": 338,
      "ice": 339,
      "sp": 340,
      "really": 341,
      "ation": 342,
      "ate": 343,
      "black": 344,
      "ey": 345,
      "clo": 346,
      "image": 347,
      "other": 348,
      "child": 349,
      "happy": 350,
      "ain": 351,
      "cre": 352,
      "ich": 353,
      "feeling": 354,
      "pre": 355,
      "background": 356,
      "its": 357,
      "person": 358,
      "over": 359,
      "tre": 360,
      "ty": 361,
      "fun": 362,
      "expression": 363,
      "well": 364,
      "intere": 365,
      "interest": 366,
      "dis": 367,
      "ely": 368,
      "king": 369,
      "water": 370,
      "ect": 371,
      "ev": 372,
      "dra": 373,
      "exc": 374,
      "port": 375,
      "their": 376,
      "per": 377,
      "now": 378,
      "don": 379,
      "sen": 380,
      "content": 381,
      "vi": 382,
      "day": 383,
      "ject": 384,
      "which": 385,
      "peaceful": 386,
      "des": 387,
      "ach": 388,
      "pes": 389,
      "sm": 390,
      "sim": 391,
      "ary": 392,
      "arm": 393,
      "jo": 394,
      "able": 395,
      "lit": 396,
      "lon": 397,
      "flow": 398,
      "bject": 399,
      "tle": 400,
      "confu": 401,
      "lax": 402,
      "relax": 403,
      "green": 404,
      "ts": 405,
      "ive": 406,
      "being": 407,
      "ds": 408,
      "ag": 409,
      "nice": 410,
      "ving": 411,
      "ep": 412,
      "was": 413,
      "ble": 414,
      "om": 415,
      "appears": 416,
      "sky": 417,
      "dy": 418,
      "going": 419,
      "contra": 420,
      "fac": 421,
      "pie": 422,
      "contrast": 423,
      "work": 424,
      "ish": 425,
      "ellow": 426,
      "lines": 427,
      "interesting": 428,
      "show": 429,
      "most": 430,
      "yellow": 431,
      "mu": 432,
      "life": 433,
      "eyes": 434,
      "ange": 435,
      "shapes": 436,
      "used": 437,
      "ature": 438,
      "sit": 439,
      "ount": 440,
      "sense": 441,
      "iting": 442,
      "who": 443,
      "fere": 444,
      "would": 445,
      "dif": 446,
      "little": 447,
      "draw": 448,
      "et": 449,
      "ight": 450,
      "ck": 451,
      "these": 452,
      "set": 453,
      "every": 454,
      "ru": 455,
      "ked": 456,
      "time": 457,
      "pro": 458,
      "gu": 459,
      "joy": 460,
      "stand": 461,
      "head": 462,
      "piece": 463,
      "ferent": 464,
      "na": 465,
      "side": 466,
      "tion": 467,
      "won": 468,
      "him": 469,
      "them": 470,
      "bu": 471,
      "ady": 472,
      "artist": 473,
      "too": 474,
      "does": 475,
      "ings": 476,
      "here": 477,
      "ter": 478,
      "want": 479,
      "feels": 480,
      "ious": 481,
      "te": 482,
      "hu": 483,
      "different": 484,
      "lot": 485,
      "good": 486,
      "wonder": 487,
      "women": 488,
      "two": 489,
      "gives": 490,
      "ray": 491,
      "off": 492,
      "real": 493,
      "play": 494,
      "bab": 495,
      "gether": 496,
      "know": 497,
      "together": 498,
      "much": 499,
      "someone": 500,
      "sa": 501,
      "though": 502,
      "sun": 503,
      "any": 504,
      "long": 505,
      "into": 506,
      "old": 507,
      "more": 508,
      "subject": 509,
      "flowers": 510,
      "sto": 511,
      "ance": 512,
      "trees": 513,
      "ny": 514,
      "hor": 515,
      "almost": 516,
      "di": 517,
      "down": 518,
      "ol": 519,
      "get": 520,
      "ss": 521,
      "simple": 522,
      "ges": 523,
      "ating": 524,
      "great": 525,
      "ci": 526,
      "fore": 527,
      "thr": 528,
      "ine": 529,
      "table": 530,
      "rying": 531,
      "around": 532,
      "while": 533,
      "vie": 534,
      "ding": 535,
      "ated": 536,
      "part": 537,
      "depic": 538,
      "em": 539,
      "sing": 540,
      "tow": 541,
      "kind": 542,
      "body": 543,
      "sty": 544,
      "awe": 545,
      "angel": 546,
      "enjoy": 547,
      "blo": 548,
      "aring": 549,
      "place": 550,
      "land": 551,
      "..": 552,
      "when": 553,
      "figures": 554,
      "cle": 555,
      "ical": 556,
      "hair": 557,
      "tr": 558,
      "even": 559,
      "sel": 560,
      "also": 561,
      "stract": 562,
      "abstract": 563,
      "cu": 564,
      "ern": 565,
      "ird": 566,
      "ps": 567,
      "ass": 568,
      "hold": 569,
      "could": 570,
      "imal": 571,
      "fi": 572,
      "les": 573,
      "ren": 574,
      "warm": 575,
      "pho": 576,
      "fear": 577,
      "cent": 578,
      "dist": 579,
      "um": 580,
      "ign": 581,
      "hand": 582,
      "lic": 583,
      "view": 584,
      "zing": 585,
      "ountain": 586,
      "mon": 587,
      "dress": 588,
      "sure": 589,
      "calming": 590,
      "photo": 591,
      "comfor": 592,
      "baby": 593,
      "quite": 594,
      "confused": 595,
      "bit": 596,
      "mountain": 597,
      "style": 598,
      "wa": 599,
      "bor": 600,
      "jes": 601,
      "build": 602,
      "ted": 603,
      "where": 604,
      "car": 605,
      "animal": 606,
      "faces": 607,
      "led": 608,
      "pleas": 609,
      "ama": 610,
      "relaxing": 611,
      "scary": 612,
      "lady": 613,
      "funny": 614,
      "through": 615,
      "ning": 616,
      "sur": 617,
      "irl": 618,
      "under": 619,
      "portra": 620,
      "trying": 621,
      "okes": 622,
      "many": 623,
      "girl": 624,
      "nothing": 625,
      "pret": 626,
      "each": 627,
      "mother": 628,
      "ial": 629,
      "sent": 630,
      "using": 631,
      "cl": 632,
      "ies": 633,
      "tic": 634,
      "details": 635,
      "istic": 636,
      "naked": 637,
      "nature": 638,
      "shows": 639,
      "give": 640,
      "portrait": 641,
      "ling": 642,
      "may": 643,
      "holding": 644,
      "ath": 645,
      "pr": 646,
      "ressed": 647,
      "ale": 648,
      "exciting": 649,
      "af": 650,
      "vely": 651,
      "boat": 652,
      "end": 653,
      "small": 654,
      "ga": 655,
      "self": 656,
      "curi": 657,
      "reli": 658,
      "bet": 659,
      "ery": 660,
      "shad": 661,
      "again": 662,
      "idd": 663,
      "cho": 664,
      "cr": 665,
      "ones": 666,
      "lar": 667,
      "orange": 668,
      "present": 669,
      "ily": 670,
      "ong": 671,
      "fect": 672,
      "oung": 673,
      "av": 674,
      "motion": 675,
      "pen": 676,
      "ket": 677,
      "young": 678,
      "ited": 679,
      "ross": 680,
      "sadness": 681,
      "pretty": 682,
      "made": 683,
      "shadow": 684,
      "clou": 685,
      "ft": 686,
      "que": 687,
      "brown": 688,
      "sion": 689,
      "ull": 690,
      "our": 691,
      "ser": 692,
      "ast": 693,
      "hi": 694,
      "ouse": 695,
      "having": 696,
      "why": 697,
      "amazing": 698,
      "hard": 699,
      "bre": 700,
      "ick": 701,
      "tell": 702,
      "anc": 703,
      "jesus": 704,
      "done": 705,
      "form": 706,
      "eye": 707,
      "relaxed": 708,
      "lect": 709,
      "lack": 710,
      "painted": 711,
      "gry": 712,
      "sin": 713,
      "top": 714,
      "ening": 715,
      "against": 716,
      "such": 717,
      "drawing": 718,
      "find": 719,
      "still": 720,
      "doesn": 721,
      "round": 722,
      "boring": 723,
      "vibr": 724,
      "ape": 725,
      "tor": 726,
      "age": 727,
      "been": 728,
      "oft": 729,
      "colorful": 730,
      "fin": 731,
      "iled": 732,
      "guy": 733,
      "scape": 734,
      "amusing": 735,
      "human": 736,
      "pur": 737,
      "gious": 738,
      "wind": 739,
      "left": 740,
      "pect": 741,
      "pink": 742,
      "ual": 743,
      "vid": 744,
      "ching": 745,
      "iness": 746,
      "fr": 747,
      "ear": 748,
      "ze": 749,
      "ush": 750,
      "sitting": 751,
      "bored": 752,
      "religious": 753,
      "facial": 754,
      "stru": 755,
      "hind": 756,
      "creep": 757,
      "town": 758,
      "excited": 759,
      "curious": 760,
      "landscape": 761,
      "coming": 762,
      "patt": 763,
      "soft": 764,
      "rain": 765,
      "behind": 766,
      "pattern": 767,
      "iddle": 768,
      "wal": 769,
      "lea": 770,
      "mean": 771,
      "middle": 772,
      "imag": 773,
      "vibrant": 774,
      "shi": 775,
      "fam": 776,
      "house": 777,
      "emotion": 778,
      "put": 779,
      "sy": 780,
      "insp": 781,
      "big": 782,
      "emp": 783,
      "large": 784,
      "posit": 785,
      "ose": 786,
      "angry": 787,
      "ak": 788,
      "things": 789,
      "ses": 790,
      "ches": 791,
      "ref": 792,
      "ph": 793,
      "than": 794,
      "setting": 795,
      "betwe": 796,
      "app": 797,
      "char": 798,
      "detailed": 799,
      "between": 800,
      "cool": 801,
      "tree": 802,
      "clear": 803,
      "animals": 804,
      "che": 805,
      "ways": 806,
      "ner": 807,
      "dog": 808,
      "mi": 809,
      "weird": 810,
      "hel": 811,
      "object": 812,
      "sug": 813,
      "inv": 814,
      "tur": 815,
      "colour": 816,
      "will": 817,
      "horse": 818,
      "nu": 819,
      "peci": 820,
      "shape": 821,
      "realistic": 822,
      "min": 823,
      "ash": 824,
      "everyone": 825,
      "ought": 826,
      "comfortable": 827,
      "sugges": 828,
      "gra": 829,
      "ree": 830,
      "war": 831,
      "represent": 832,
      "inter": 833,
      "making": 834,
      "wearing": 835,
      "away": 836,
      "lovely": 837,
      "ates": 838,
      "room": 839,
      "bot": 840,
      "creepy": 841,
      "world": 842,
      "ext": 843,
      "cut": 844,
      "another": 845,
      "book": 846,
      "cha": 847,
      "blood": 848,
      "pture": 849,
      "since": 850,
      "take": 851,
      "strokes": 852,
      "clouds": 853,
      "ff": 854,
      "bad": 855,
      "less": 856,
      "dre": 857,
      "night": 858,
      "pow": 859,
      "med": 860,
      "darkness": 861,
      "line": 862,
      "angels": 863,
      "snow": 864,
      "ener": 865,
      "building": 866,
      "air": 867,
      "wall": 868,
      "ions": 869,
      "surround": 870,
      "loo": 871,
      "reflect": 872,
      "tal": 873,
      "odd": 874,
      "ues": 875,
      "doing": 876,
      "flo": 877,
      "rest": 878,
      "brings": 879,
      "tom": 880,
      "death": 881,
      "vis": 882,
      "heav": 883,
      "bold": 884,
      "sho": 885,
      "gold": 886,
      "ster": 887,
      "clothing": 888,
      "yet": 889,
      "seeing": 890,
      "ise": 891,
      "supp": 892,
      "everything": 893,
      "mountains": 894,
      "design": 895,
      "aw": 896,
      "deep": 897,
      "home": 898,
      "power": 899,
      "thought": 900,
      "high": 901,
      "disg": 902,
      "pleasant": 903,
      "cur": 904,
      "mor": 905,
      "disgust": 906,
      "mer": 907,
      "only": 908,
      "contentment": 909,
      "iz": 910,
      "sort": 911,
      "stri": 912,
      "tones": 913,
      "comp": 914,
      "bus": 915,
      "standing": 916,
      "cor": 917,
      "anger": 918,
      "charact": 919,
      "drawn": 920,
      "enjoying": 921,
      "smile": 922,
      "anything": 923,
      "children": 924,
      "city": 925,
      "ared": 926,
      "gy": 927,
      "ence": 928,
      "beach": 929,
      "new": 930,
      "fru": 931,
      "mat": 932,
      "playing": 933,
      "always": 934,
      "sym": 935,
      "cat": 936,
      "rene": 937,
      "amused": 938,
      "ide": 939,
      "ali": 940,
      "ase": 941,
      "vil": 942,
      "ele": 943,
      "stre": 944,
      "family": 945,
      "position": 946,
      "ome": 947,
      "brush": 948,
      "serene": 949,
      "blen": 950,
      "squ": 951,
      "maybe": 952,
      "ber": 953,
      "gl": 954,
      "pri": 955,
      "full": 956,
      "bird": 957,
      "nat": 958,
      "tex": 959,
      "ian": 960,
      "strange": 961,
      "comple": 962,
      "tra": 963,
      "dead": 964,
      "ef": 965,
      "ved": 966,
      "import": 967,
      "hat": 968,
      "vel": 969,
      "read": 970,
      "ention": 971,
      "along": 972,
      "dressed": 973,
      "ique": 974,
      "story": 975,
      "ular": 976,
      "excite": 977,
      "ready": 978,
      "texture": 979,
      "those": 980,
      "boy": 981,
      "were": 982,
      "leaves": 983,
      "come": 984,
      "cou": 985,
      "clothe": 986,
      "bow": 987,
      "rist": 988,
      "sket": 989,
      "ural": 990,
      "tain": 991,
      "pose": 992,
      "bottom": 993,
      "fish": 994,
      "sea": 995,
      "ll": 996,
      "ral": 997,
      "bes": 998,
      "ste": 999,
      "move": 1000,
      "both": 1001,
      "gg": 1002,
      "gray": 1003,
      "strong": 1004,
      "oce": 1005,
      "abo": 1006,
      "ments": 1007,
      "skin": 1008,
      "expressions": 1009,
      "ocean": 1010,
      "ric": 1011,
      "point": 1012,
      "beauty": 1013,
      "mix": 1014,
      "confusing": 1015,
      "excitement": 1016,
      "should": 1017,
      "mut": 1018,
      "christ": 1019,
      "perfect": 1020,
      "cks": 1021,
      "pecially": 1022,
      "ever": 1023,
      "ering": 1024,
      "same": 1025,
      "blues": 1026,
      "shadows": 1027,
      "ination": 1028,
      "fall": 1029,
      "bir": 1030,
      "cus": 1031,
      "cold": 1032,
      "mus": 1033,
      "especially": 1034,
      "stu": 1035,
      "chao": 1036,
      "fiel": 1037,
      "mis": 1038,
      "zy": 1039,
      "wood": 1040,
      "past": 1041,
      "dep": 1042,
      "ont": 1043,
      "bed": 1044,
      "mess": 1045,
      "must": 1046,
      "let": 1047,
      "above": 1048,
      "shades": 1049,
      "window": 1050,
      "purple": 1051,
      "center": 1052,
      "intri": 1053,
      "colored": 1054,
      "wr": 1055,
      "soo": 1056,
      "iling": 1057,
      "after": 1058,
      "nude": 1059,
      "lay": 1060,
      "taking": 1061,
      "busy": 1062,
      "var": 1063,
      "iring": 1064,
      "ring": 1065,
      "comb": 1066,
      "muted": 1067,
      "len": 1068,
      "lau": 1069,
      "stor": 1070,
      "male": 1071,
      "hands": 1072,
      "ards": 1073,
      "care": 1074,
      "front": 1075,
      "dull": 1076,
      "ying": 1077,
      "atures": 1078,
      "fruit": 1079,
      "clothes": 1080,
      "tim": 1081,
      "had": 1082,
      "pain": 1083,
      "cture": 1084,
      "need": 1085,
      "asy": 1086,
      "gloo": 1087,
      "say": 1088,
      "gloomy": 1089,
      "confusion": 1090,
      "serious": 1091,
      "ob": 1092,
      "create": 1093,
      "portray": 1094,
      "help": 1095,
      "soothing": 1096,
      "ces": 1097,
      "ken": 1098,
      "pleasing": 1099,
      "important": 1100,
      "fl": 1101,
      "ship": 1102,
      "lonely": 1103,
      "cir": 1104,
      "fri": 1105,
      "rather": 1106,
      "kid": 1107,
      "batt": 1108,
      "cross": 1109,
      "har": 1110,
      "lage": 1111,
      "buildings": 1112,
      "ative": 1113,
      "sum": 1114,
      "count": 1115,
      "river": 1116,
      "iet": 1117,
      "bring": 1118,
      "simp": 1119,
      "ished": 1120,
      "iv": 1121,
      "attention": 1122,
      "sketch": 1123,
      "fir": 1124,
      "kes": 1125,
      "tri": 1126,
      "colours": 1127,
      "quiet": 1128,
      "atter": 1129,
      "col": 1130,
      "pu": 1131,
      "rand": 1132,
      "run": 1133,
      "slight": 1134,
      "rect": 1135,
      "ssi": 1136,
      "ped": 1137,
      "random": 1138,
      "fa": 1139,
      "ars": 1140,
      "plain": 1141,
      "couple": 1142,
      "intrigu": 1143,
      "bing": 1144,
      "ks": 1145,
      "happen": 1146,
      "open": 1147,
      "depiction": 1148,
      "first": 1149,
      "bal": 1150,
      "ms": 1151,
      "paper": 1152,
      "objects": 1153,
      "fra": 1154,
      "vas": 1155,
      "osed": 1156,
      "capture": 1157,
      "natural": 1158,
      "paintings": 1159,
      "artwork": 1160,
      "grey": 1161,
      "getting": 1162,
      "...": 1163,
      "fight": 1164,
      "spl": 1165,
      "god": 1166,
      "ract": 1167,
      "illed": 1168,
      "hill": 1169,
      "hope": 1170,
      "boats": 1171,
      "ually": 1172,
      "unch": 1173,
      "happening": 1174,
      "might": 1175,
      "lone": 1176,
      "grass": 1177,
      "pop": 1178,
      "nic": 1179,
      "supposed": 1180,
      "appeal": 1181,
      "your": 1182,
      "square": 1183,
      "post": 1184,
      "fire": 1185,
      "laugh": 1186,
      "pal": 1187,
      "forest": 1188,
      "gent": 1189,
      "cru": 1190,
      "ire": 1191,
      "ug": 1192,
      "ward": 1193,
      "ank": 1194,
      "understand": 1195,
      "ven": 1196,
      "ism": 1197,
      "movement": 1198,
      "cast": 1199,
      "field": 1200,
      "battle": 1201,
      "shar": 1202,
      "crow": 1203,
      "stat": 1204,
      "pressive": 1205,
      "blend": 1206,
      "spe": 1207,
      "mary": 1208,
      "viewer": 1209,
      "sign": 1210,
      "lying": 1211,
      "canvas": 1212,
      "did": 1213,
      "arr": 1214,
      "est": 1215,
      "music": 1216,
      "bas": 1217,
      "next": 1218,
      "rich": 1219,
      "symbo": 1220,
      "three": 1221,
      "uncomfortable": 1222,
      "sharp": 1223,
      "seen": 1224,
      "rid": 1225,
      "omin": 1226,
      "au": 1227,
      "pt": 1228,
      "inspiring": 1229,
      "storm": 1230,
      "pray": 1231,
      "lost": 1232,
      "vivid": 1233,
      "then": 1234,
      "conf": 1235,
      "door": 1236,
      "tran": 1237,
      "empty": 1238,
      "heaven": 1239,
      "due": 1240,
      "danc": 1241,
      "tone": 1242,
      "ud": 1243,
      "distur": 1244,
      "evil": 1245,
      "showing": 1246,
      "mar": 1247,
      "oup": 1248,
      "inside": 1249,
      "although": 1250,
      "mans": 1251,
      "depicted": 1252,
      "fit": 1253,
      "vio": 1254,
      "walking": 1255,
      "birds": 1256,
      "spo": 1257,
      "ason": 1258,
      "bro": 1259,
      "ger": 1260,
      "unique": 1261,
      "ten": 1262,
      "toon": 1263,
      "pping": 1264,
      "pped": 1265,
      "peri": 1266,
      "near": 1267,
      "cartoon": 1268,
      "class": 1269,
      "inc": 1270,
      "val": 1271,
      "ese": 1272,
      "action": 1273,
      "whole": 1274,
      "village": 1275,
      "sil": 1276,
      "moment": 1277,
      "times": 1278,
      "bly": 1279,
      "vey": 1280,
      "waiting": 1281,
      "easy": 1282,
      "arch": 1283,
      "mel": 1284,
      "sex": 1285,
      "before": 1286,
      "meaning": 1287,
      "sat": 1288,
      "sight": 1289,
      "gard": 1290,
      "du": 1291,
      "zed": 1292,
      "ond": 1293,
      "dies": 1294,
      "ident": 1295,
      "feelings": 1296,
      "dont": 1297,
      "ominous": 1298,
      "without": 1299,
      "exp": 1300,
      "somewhat": 1301,
      "cif": 1302,
      "lead": 1303,
      "working": 1304,
      "images": 1305,
      "ality": 1306,
      "heart": 1307,
      "ither": 1308,
      "playful": 1309,
      "sunset": 1310,
      "smo": 1311,
      "watching": 1312,
      "thinking": 1313,
      "flower": 1314,
      "alone": 1315,
      "lots": 1316,
      "bles": 1317,
      "space": 1318,
      "imagine": 1319,
      "hal": 1320,
      "outside": 1321,
      "ult": 1322,
      "patterns": 1323,
      "summer": 1324,
      "powerful": 1325,
      "impressive": 1326,
      "food": 1327,
      "wonderful": 1328,
      "subjects": 1329,
      "crowd": 1330,
      "ants": 1331,
      "sub": 1332,
      "shading": 1333,
      "convey": 1334,
      "close": 1335,
      "country": 1336,
      "hang": 1337,
      "sle": 1338,
      "tou": 1339,
      "bodies": 1340,
      "waves": 1341,
      "appealing": 1342,
      "gs": 1343,
      "mber": 1344,
      "sche": 1345,
      "enough": 1346,
      "others": 1347,
      "thy": 1348,
      "party": 1349,
      "posing": 1350,
      "foreground": 1351,
      "cute": 1352,
      "possi": 1353,
      "try": 1354,
      "sem": 1355,
      "female": 1356,
      "roy": 1357,
      "stands": 1358,
      "ible": 1359,
      "else": 1360,
      "features": 1361,
      "contrasts": 1362,
      "lowing": 1363,
      "horses": 1364,
      "effect": 1365,
      "demon": 1366,
      "cra": 1367,
      "ror": 1368,
      "scul": 1369,
      "overall": 1370,
      "bur": 1371,
      "add": 1372,
      "reds": 1373,
      "pressing": 1374,
      "interested": 1375,
      "slightly": 1376,
      "bunch": 1377,
      "moder": 1378,
      "grand": 1379,
      "uses": 1380,
      "type": 1381,
      "energy": 1382,
      "reg": 1383,
      "group": 1384,
      "dr": 1385,
      "hur": 1386,
      "matter": 1387,
      "isn": 1388,
      "ons": 1389,
      "bland": 1390,
      "happiness": 1391,
      "combination": 1392,
      "disturbing": 1393,
      "bar": 1394,
      "gor": 1395,
      "ertain": 1396,
      "scheme": 1397,
      "either": 1398,
      "iety": 1399,
      "characters": 1400,
      "chaotic": 1401,
      "inten": 1402,
      "angles": 1403,
      "lent": 1404,
      "area": 1405,
      "defin": 1406,
      "blur": 1407,
      "got": 1408,
      "inviting": 1409,
      "ned": 1410,
      "focus": 1411,
      "creates": 1412,
      "dancing": 1413,
      "modern": 1414,
      "par": 1415,
      "depth": 1416,
      "ition": 1417,
      "geous": 1418,
      "attract": 1419,
      "graph": 1420,
      "dream": 1421,
      "reason": 1422,
      "coloring": 1423,
      "os": 1424,
      "resem": 1425,
      "haps": 1426,
      "perhaps": 1427,
      "dying": 1428,
      "character": 1429,
      "nicely": 1430,
      "garden": 1431,
      "lake": 1432,
      "clean": 1433,
      "far": 1434,
      "mes": 1435,
      "op": 1436,
      "distance": 1437,
      "half": 1438,
      "ost": 1439,
      "cover": 1440,
      "iding": 1441,
      "word": 1442,
      "proport": 1443,
      "structure": 1444,
      "pictures": 1445,
      "probab": 1446,
      "licity": 1447,
      "uring": 1448,
      "poor": 1449,
      "glass": 1450,
      "reading": 1451,
      "gentle": 1452,
      "probably": 1453,
      "sand": 1454,
      "sick": 1455,
      "pieces": 1456,
      "simplicity": 1457,
      "fan": 1458,
      "rol": 1459,
      "irt": 1460,
      "blank": 1461,
      "giant": 1462,
      "walk": 1463,
      "fact": 1464,
      "ot": 1465,
      "stra": 1466,
      "depressing": 1467,
      "adds": 1468,
      "imp": 1469,
      "bs": 1470,
      "chair": 1471,
      "start": 1472,
      "geome": 1473,
      "scared": 1474,
      "sunny": 1475,
      "depicts": 1476,
      "ilar": 1477,
      "chur": 1478,
      "spring": 1479,
      "towards": 1480,
      "mal": 1481,
      "cow": 1482,
      "ghost": 1483,
      "posture": 1484,
      "ugly": 1485,
      "gorgeous": 1486,
      "greens": 1487,
      "fearful": 1488,
      "finished": 1489,
      "evokes": 1490,
      "farm": 1491,
      "lif": 1492,
      "giving": 1493,
      "contrasting": 1494,
      "suggest": 1495,
      "pale": 1496,
      "comm": 1497,
      "smiling": 1498,
      "comforting": 1499,
      "suggests": 1500,
      "incred": 1501,
      "kn": 1502,
      "ched": 1503,
      "lighting": 1504,
      "ls": 1505,
      "swe": 1506,
      "whim": 1507,
      "dro": 1508,
      "zz": 1509,
      "ased": 1510,
      "ged": 1511,
      "ient": 1512,
      "oke": 1513,
      "live": 1514,
      "eng": 1515,
      "rif": 1516,
      "utral": 1517,
      "ried": 1518,
      "neutral": 1519,
      "basic": 1520,
      "gic": 1521,
      "ming": 1522,
      "stal": 1523,
      "sold": 1524,
      "spir": 1525,
      "idea": 1526,
      "friend": 1527,
      "sleep": 1528,
      "fla": 1529,
      "extre": 1530,
      "plac": 1531,
      "partic": 1532,
      "pastel": 1533,
      "church": 1534,
      "jap": 1535,
      "anx": 1536,
      "scenery": 1537,
      "display": 1538,
      "tall": 1539,
      "winter": 1540,
      "tired": 1541,
      "extreme": 1542,
      "japan": 1543,
      "eve": 1544,
      "ired": 1545,
      "rel": 1546,
      "within": 1547,
      "ustr": 1548,
      "gather": 1549,
      "mou": 1550,
      "instru": 1551,
      "painter": 1552,
      "hiding": 1553,
      "pi": 1554,
      "pass": 1555,
      "hood": 1556,
      "surrounded": 1557,
      "mir": 1558,
      "nor": 1559,
      "usu": 1560,
      "lights": 1561,
      "arms": 1562,
      "street": 1563,
      "attractive": 1564,
      "year": 1565,
      "impression": 1566,
      "staring": 1567,
      "adv": 1568,
      "moving": 1569,
      "shin": 1570,
      "ivity": 1571,
      "soldi": 1572,
      "ease": 1573,
      "ging": 1574,
      "lim": 1575,
      "intric": 1576,
      "indi": 1577,
      "frame": 1578,
      "swi": 1579,
      "sical": 1580,
      "unt": 1581,
      "rocks": 1582,
      "myster": 1583,
      "cheer": 1584,
      "gri": 1585,
      "ins": 1586,
      "rock": 1587,
      "explo": 1588,
      "pat": 1589,
      "outfit": 1590,
      "resh": 1591,
      "darker": 1592,
      "surrounding": 1593,
      "cern": 1594,
      "din": 1595,
      "danger": 1596,
      "mark": 1597,
      "keep": 1598,
      "mood": 1599,
      "never": 1600,
      "days": 1601,
      "below": 1602,
      "fully": 1603,
      "royal": 1604,
      "mysterious": 1605,
      "raid": 1606,
      "holy": 1607,
      "intrigued": 1608,
      "particular": 1609,
      "sol": 1610,
      "individ": 1611,
      "bare": 1612,
      "gant": 1613,
      "beli": 1614,
      "ather": 1615,
      "ered": 1616,
      "direct": 1617,
      "breast": 1618,
      "various": 1619,
      "statue": 1620,
      "fright": 1621,
      "gan": 1622,
      "majes": 1623,
      "vious": 1624,
      "tric": 1625,
      "intense": 1626,
      "main": 1627,
      "box": 1628,
      "perspect": 1629,
      "mouth": 1630,
      "flying": 1631,
      "across": 1632,
      "tech": 1633,
      "praying": 1634,
      "anno": 1635,
      "creature": 1636,
      "ancy": 1637,
      "clearly": 1638,
      "fighting": 1639,
      "eat": 1640,
      "mul": 1641,
      "vered": 1642,
      "unset": 1643,
      "cap": 1644,
      "angle": 1645,
      "rainbow": 1646,
      "represents": 1647,
      "golden": 1648,
      "gn": 1649,
      "amuse": 1650,
      "amount": 1651,
      "neck": 1652,
      "reflection": 1653,
      "reach": 1654,
      "quil": 1655,
      "cheerful": 1656,
      "ends": 1657,
      "simpl": 1658,
      "inno": 1659,
      "appre": 1660,
      "hanging": 1661,
      "individual": 1662,
      "wild": 1663,
      "order": 1664,
      "ries": 1665,
      "cannot": 1666,
      "desp": 1667,
      "afraid": 1668,
      "ball": 1669,
      "vir": 1670,
      "acing": 1671,
      "fol": 1672,
      "yellows": 1673,
      "ette": 1674,
      "sculpture": 1675,
      "japanese": 1676,
      "perspective": 1677,
      "dd": 1678,
      "wish": 1679,
      "itch": 1680,
      "plan": 1681,
      "older": 1682,
      "lad": 1683,
      "tory": 1684,
      "girls": 1685,
      "torted": 1686,
      "crucif": 1687,
      "beautifully": 1688,
      "prot": 1689,
      "huge": 1690,
      "multi": 1691,
      "gross": 1692,
      "esome": 1693,
      "organ": 1694,
      "parts": 1695,
      "pan": 1696,
      "und": 1697,
      "ined": 1698,
      "filled": 1699,
      "thered": 1700,
      "ising": 1701,
      "feet": 1702,
      "robe": 1703,
      "road": 1704,
      "size": 1705,
      "rough": 1706,
      "sou": 1707,
      "sna": 1708,
      "vers": 1709,
      "path": 1710,
      "somber": 1711,
      "actually": 1712,
      "sail": 1713,
      "selves": 1714,
      "earth": 1715,
      "floor": 1716,
      "floating": 1717,
      "disgusting": 1718,
      "straight": 1719,
      "ied": 1720,
      "kill": 1721,
      "vo": 1722,
      "vase": 1723,
      "few": 1724,
      "mixed": 1725,
      "geometric": 1726,
      "ns": 1727,
      "key": 1728,
      "roman": 1729,
      "herself": 1730,
      "quality": 1731,
      "skull": 1732,
      "event": 1733,
      "aks": 1734,
      "level": 1735,
      "fur": 1736,
      "ction": 1737,
      "ouses": 1738,
      "choice": 1739,
      "whimsical": 1740,
      "jum": 1741,
      "asc": 1742,
      "nostal": 1743,
      "moon": 1744,
      "comes": 1745,
      "ations": 1746,
      "broken": 1747,
      "gener": 1748,
      "ping": 1749,
      "respect": 1750,
      "imagery": 1751,
      "sweet": 1752,
      "spirit": 1753,
      "bi": 1754,
      "eless": 1755,
      "solut": 1756,
      "tling": 1757,
      "oking": 1758,
      "stare": 1759,
      "indic": 1760,
      "needs": 1761,
      "harsh": 1762,
      "satis": 1763,
      "sid": 1764,
      "shown": 1765,
      "ific": 1766,
      "given": 1767,
      "kids": 1768,
      "running": 1769,
      "tranquil": 1770,
      "extremely": 1771,
      "inted": 1772,
      "amer": 1773,
      "themselves": 1774,
      "silly": 1775,
      "oud": 1776,
      "sence": 1777,
      "emotions": 1778,
      "heavy": 1779,
      "awesome": 1780,
      "advent": 1781,
      "intricate": 1782,
      "fat": 1783,
      "covered": 1784,
      "safe": 1785,
      "taken": 1786,
      "row": 1787,
      "among": 1788,
      "skill": 1789,
      "sive": 1790,
      "fing": 1791,
      "ending": 1792,
      "ples": 1793,
      "chee": 1794,
      "laying": 1795,
      "hurt": 1796,
      "appreci": 1797,
      "ced": 1798,
      "fine": 1799,
      "fair": 1800,
      "sword": 1801,
      "tin": 1802,
      "wel": 1803,
      "ately": 1804,
      "cher": 1805,
      "absolut": 1806,
      "concern": 1807,
      "himself": 1808,
      "better": 1809,
      "ships": 1810,
      "corner": 1811,
      "fav": 1812,
      "tru": 1813,
      "wise": 1814,
      "cele": 1815,
      "cept": 1816,
      "takes": 1817,
      "composition": 1818,
      "wash": 1819,
      "chaos": 1820,
      "amusement": 1821,
      "free": 1822,
      "ities": 1823,
      "stark": 1824,
      "carrying": 1825,
      "celebr": 1826,
      "itself": 1827,
      "striking": 1828,
      "obvious": 1829,
      "cul": 1830,
      "ky": 1831,
      "sor": 1832,
      "pair": 1833,
      "chool": 1834,
      "archite": 1835,
      "regal": 1836,
      "gathering": 1837,
      "majestic": 1838,
      "techn": 1839,
      "unsettling": 1840,
      "ladies": 1841,
      "gin": 1842,
      "sme": 1843,
      "tw": 1844,
      "lively": 1845,
      "rib": 1846,
      "items": 1847,
      "curios": 1848,
      "elements": 1849,
      "brid": 1850,
      "houses": 1851,
      "anci": 1852,
      "edges": 1853,
      "exact": 1854,
      "dots": 1855,
      "posed": 1856,
      "alive": 1857,
      "hills": 1858,
      "confident": 1859,
      "drink": 1860,
      "ub": 1861,
      "ught": 1862,
      "halo": 1863,
      "super": 1864,
      "angu": 1865,
      "distorted": 1866,
      "castle": 1867,
      "despite": 1868,
      "favor": 1869,
      "--": 1870,
      "mil": 1871,
      "anges": 1872,
      "diff": 1873,
      "ancient": 1874,
      "kne": 1875,
      "fort": 1876,
      "womans": 1877,
      "shade": 1878,
      "flowing": 1879,
      "travel": 1880,
      "woods": 1881,
      "curiosity": 1882,
      "fancy": 1883,
      "thre": 1884,
      "living": 1885,
      "stick": 1886,
      "whel": 1887,
      "conne": 1888,
      "unfinished": 1889,
      "wants": 1890,
      "elegant": 1891,
      "protect": 1892,
      "park": 1893,
      "school": 1894,
      "ised": 1895,
      "stun": 1896,
      "legs": 1897,
      "mad": 1898,
      "experi": 1899,
      "puzz": 1900,
      "smoke": 1901,
      "harm": 1902,
      "theme": 1903,
      "ites": 1904,
      "block": 1905,
      "cup": 1906,
      "gon": 1907,
      "gar": 1908,
      "arent": 1909,
      "wondering": 1910,
      "proud": 1911,
      "engag": 1912,
      "da": 1913,
      "attack": 1914,
      "evoke": 1915,
      "idden": 1916,
      "lacks": 1917,
      "perfectly": 1918,
      "captured": 1919,
      "splash": 1920,
      "fresh": 1921,
      "rit": 1922,
      "speci": 1923,
      "itar": 1924,
      "pot": 1925,
      "uneasy": 1926,
      "grow": 1927,
      "comical": 1928,
      "however": 1929,
      "ized": 1930,
      "matic": 1931,
      "adventure": 1932,
      "tiny": 1933,
      "fab": 1934,
      "took": 1935,
      "rot": 1936,
      "unhappy": 1937,
      "heads": 1938,
      "comfort": 1939,
      "dreary": 1940,
      "mirror": 1941,
      "aking": 1942,
      "fasc": 1943,
      "bled": 1944,
      "stunning": 1945,
      "lor": 1946,
      "pet": 1947,
      "waters": 1948,
      "circle": 1949,
      "during": 1950,
      "hun": 1951,
      "ert": 1952,
      "activity": 1953,
      "appearance": 1954,
      "vibe": 1955,
      "complete": 1956,
      "portrayed": 1957,
      "intriguing": 1958,
      "favorite": 1959,
      "band": 1960,
      "cess": 1961,
      "den": 1962,
      "ili": 1963,
      "ison": 1964,
      "vert": 1965,
      "delic": 1966,
      "roll": 1967,
      "robes": 1968,
      "upon": 1969,
      "empt": 1970,
      "depressed": 1971,
      "palette": 1972,
      "althy": 1973,
      "state": 1974,
      "stern": 1975,
      "history": 1976,
      "hot": 1977,
      "upset": 1978,
      "sphere": 1979,
      "throughout": 1980,
      "glo": 1981,
      "vac": 1982,
      "secre": 1983,
      "acked": 1984,
      "mostly": 1985,
      "boredom": 1986,
      "symme": 1987,
      "bridge": 1988,
      "dri": 1989,
      "reve": 1990,
      "memor": 1991,
      "oranges": 1992,
      "watch": 1993,
      "musc": 1994,
      "print": 1995,
      "frightening": 1996,
      "absolutely": 1997,
      "hidden": 1998,
      "beard": 1999,
      "ppy": 2000,
      "histor": 2001,
      "myself": 2002,
      "instrument": 2003,
      "diffic": 2004,
      "jud": 2005,
      "lips": 2006,
      "asian": 2007,
      "rible": 2008,
      "movie": 2009,
      "board": 2010,
      "horiz": 2011,
      "depict": 2012,
      "browns": 2013,
      "architecture": 2014,
      "ans": 2015,
      "plants": 2016,
      "cloth": 2017,
      "overwhel": 2018,
      "possibly": 2019,
      "annoy": 2020,
      "gen": 2021,
      "ju": 2022,
      "wings": 2023,
      "intim": 2024,
      "shaped": 2025,
      "myst": 2026,
      "dramatic": 2027,
      "blurry": 2028,
      "loving": 2029,
      "ony": 2030,
      "somewhere": 2031,
      "brightness": 2032,
      "appro": 2033,
      "morning": 2034,
      "sexual": 2035,
      "touch": 2036,
      "resembles": 2037,
      "americ": 2038,
      "fabric": 2039,
      "cing": 2040,
      "cand": 2041,
      "cro": 2042,
      "fel": 2043,
      "lous": 2044,
      "indif": 2045,
      "contem": 2046,
      "warri": 2047,
      "writing": 2048,
      "fascin": 2049,
      "horizon": 2050,
      "contempl": 2051,
      "certain": 2052,
      "nose": 2053,
      "words": 2054,
      "gaze": 2055,
      "usual": 2056,
      "cli": 2057,
      "ip": 2058,
      "ssed": 2059,
      "esti": 2060,
      "ically": 2061,
      "cape": 2062,
      "suff": 2063,
      "calmness": 2064,
      "presence": 2065,
      "works": 2066,
      "guitar": 2067,
      "textures": 2068,
      "falling": 2069,
      "flu": 2070,
      "proportions": 2071,
      "commun": 2072,
      "mour": 2073,
      "otic": 2074,
      "atmo": 2075,
      "chin": 2076,
      "entire": 2077,
      "cloud": 2078,
      "shore": 2079,
      "squares": 2080,
      "period": 2081,
      "anxious": 2082,
      "technique": 2083,
      "exactly": 2084,
      "difficult": 2085,
      "warrior": 2086,
      "ske": 2087,
      "wing": 2088,
      "onment": 2089,
      "dec": 2090,
      "shirt": 2091,
      "foot": 2092,
      "draws": 2093,
      "missing": 2094,
      "special": 2095,
      "clow": 2096,
      "ude": 2097,
      "onto": 2098,
      "lid": 2099,
      "als": 2100,
      "coat": 2101,
      "ador": 2102,
      "seeming": 2103,
      "realism": 2104,
      "compared": 2105,
      "messy": 2106,
      "believe": 2107,
      "threat": 2108,
      "sever": 2109,
      "envir": 2110,
      "mension": 2111,
      "situ": 2112,
      "rolling": 2113,
      "found": 2114,
      "pig": 2115,
      "son": 2116,
      "zes": 2117,
      "prep": 2118,
      "monster": 2119,
      "gging": 2120,
      "ban": 2121,
      "fad": 2122,
      "sl": 2123,
      "angelic": 2124,
      "dimension": 2125,
      "gathered": 2126,
      "circ": 2127,
      "breasts": 2128,
      "appreciate": 2129,
      "connect": 2130,
      "hate": 2131,
      "els": 2132,
      "uni": 2133,
      "outdoor": 2134,
      "neat": 2135,
      "worried": 2136,
      "humor": 2137,
      "father": 2138,
      "atmosphere": 2139,
      "environment": 2140,
      "rat": 2141,
      "iss": 2142,
      "pper": 2143,
      "creating": 2144,
      "talent": 2145,
      "violent": 2146,
      "incredible": 2147,
      "glow": 2148,
      "stance": 2149,
      "decor": 2150,
      "entertain": 2151,
      "drab": 2152,
      "disgusted": 2153,
      "symbol": 2154,
      "sleeping": 2155,
      "shining": 2156,
      "swir": 2157,
      "snake": 2158,
      "several": 2159,
      "ben": 2160,
      "fre": 2161,
      "pul": 2162,
      "vic": 2163,
      "erie": 2164,
      "page": 2165,
      "riding": 2166,
      "scre": 2167,
      "plant": 2168,
      "weather": 2169,
      "childhood": 2170,
      "similar": 2171,
      "means": 2172,
      "friends": 2173,
      "simplistic": 2174,
      "bull": 2175,
      "seas": 2176,
      "lives": 2177,
      "pical": 2178,
      "guess": 2179,
      "looked": 2180,
      "visit": 2181,
      "stripes": 2182,
      "arrow": 2183,
      "spot": 2184,
      "glowing": 2185,
      "oc": 2186,
      "ney": 2187,
      "hues": 2188,
      "died": 2189,
      "imagination": 2190,
      "rifying": 2191,
      "innocent": 2192,
      "nostalgic": 2193,
      "festi": 2194,
      "era": 2195,
      "allen": 2196,
      "aren": 2197,
      "whatever": 2198,
      "vide": 2199,
      "situation": 2200,
      "dance": 2201,
      "vous": 2202,
      "lies": 2203,
      "sole": 2204,
      "ility": 2205,
      "weap": 2206,
      "creatures": 2207,
      "depicting": 2208,
      "kinda": 2209,
      "putting": 2210,
      "inspired": 2211,
      "awk": 2212,
      "impressed": 2213,
      "soldiers": 2214,
      "soul": 2215,
      "bust": 2216,
      "cil": 2217,
      "bran": 2218,
      "blocks": 2219,
      "simply": 2220,
      "captures": 2221,
      "flag": 2222,
      "awkward": 2223,
      "fant": 2224,
      "opp": 2225,
      "ton": 2226,
      "crazy": 2227,
      "multiple": 2228,
      "fill": 2229,
      "hear": 2230,
      "devil": 2231,
      "unusual": 2232,
      "scrib": 2233,
      "prof": 2234,
      "ix": 2235,
      "langu": 2236,
      "num": 2237,
      "lion": 2238,
      "mas": 2239,
      "solid": 2240,
      "amp": 2241,
      "suit": 2242,
      "neg": 2243,
      "toward": 2244,
      "warmth": 2245,
      "match": 2246,
      "placed": 2247,
      "normal": 2248,
      "years": 2249,
      "19": 2250,
      "ancho": 2251,
      "medi": 2252,
      "eling": 2253,
      "cep": 2254,
      "poses": 2255,
      "fold": 2256,
      "photograph": 2257,
      "compli": 2258,
      "arrange": 2259,
      "cartoonish": 2260,
      "known": 2261,
      "obviously": 2262,
      "felt": 2263,
      "dir": 2264,
      "hell": 2265,
      "mn": 2266,
      "vol": 2267,
      "stone": 2268,
      "gree": 2269,
      "contented": 2270,
      "babies": 2271,
      "embr": 2272,
      "turn": 2273,
      "walls": 2274,
      "culture": 2275,
      "dity": 2276,
      "expect": 2277,
      "boding": 2278,
      "last": 2279,
      "everyday": 2280,
      "lotches": 2281,
      "game": 2282,
      "humans": 2283,
      "countryside": 2284,
      "eating": 2285,
      "hilar": 2286,
      "inste": 2287,
      "orn": 2288,
      "mom": 2289,
      "scale": 2290,
      "illustr": 2291,
      "lifelike": 2292,
      "mono": 2293,
      "strugg": 2294,
      "alien": 2295,
      "wrong": 2296,
      "splatt": 2297,
      "proportion": 2298,
      "cheeks": 2299,
      "concerned": 2300,
      "fascinating": 2301,
      "language": 2302,
      "mid": 2303,
      "thick": 2304,
      "inct": 2305,
      "ator": 2306,
      "stain": 2307,
      "foc": 2308,
      "feren": 2309,
      "provid": 2310,
      "clut": 2311,
      "pencil": 2312,
      "complet": 2313,
      "friendly": 2314,
      "suffering": 2315,
      "dirty": 2316,
      "cked": 2317,
      "cour": 2318,
      "eerie": 2319,
      "fro": 2320,
      "tro": 2321,
      "went": 2322,
      "incl": 2323,
      "ley": 2324,
      "chic": 2325,
      "wide": 2326,
      "roof": 2327,
      "plate": 2328,
      "ister": 2329,
      "skies": 2330,
      "break": 2331,
      "frustr": 2332,
      "turned": 2333,
      "talking": 2334,
      "primary": 2335,
      "best": 2336,
      "drop": 2337,
      "particularly": 2338,
      "bli": 2339,
      "bath": 2340,
      "ige": 2341,
      "je": 2342,
      "once": 2343,
      "itely": 2344,
      "haunt": 2345,
      "holds": 2346,
      "satisf": 2347,
      "instead": 2348,
      "cking": 2349,
      "hes": 2350,
      "vast": 2351,
      "soci": 2352,
      "fied": 2353,
      "umn": 2354,
      "early": 2355,
      "dangerous": 2356,
      "reaching": 2357,
      "crucifix": 2358,
      "0s": 2359,
      "cy": 2360,
      "gress": 2361,
      "ires": 2362,
      "nam": 2363,
      "oth": 2364,
      "sla": 2365,
      "thin": 2366,
      "dered": 2367,
      "despair": 2368,
      "relig": 2369,
      "crown": 2370,
      "ffy": 2371,
      "indifferent": 2372,
      "completely": 2373,
      "cant": 2374,
      "ibly": 2375,
      "mur": 2376,
      "mone": 2377,
      "pure": 2378,
      "loved": 2379,
      "shes": 2380,
      "menacing": 2381,
      "surpr": 2382,
      "message": 2383,
      "melancho": 2384,
      "romantic": 2385,
      "solemn": 2386,
      "hilarious": 2387,
      "ah": 2388,
      "mach": 2389,
      "vy": 2390,
      "mee": 2391,
      "cozy": 2392,
      "intent": 2393,
      "edge": 2394,
      "deter": 2395,
      "lence": 2396,
      "balance": 2397,
      "gentleman": 2398,
      "smell": 2399,
      "cliff": 2400,
      "ago": 2401,
      "fash": 2402,
      "hint": 2403,
      "pond": 2404,
      "sli": 2405,
      "ache": 2406,
      "igg": 2407,
      "dresses": 2408,
      "nudity": 2409,
      "says": 2410,
      "definitely": 2411,
      "passion": 2412,
      "annoyed": 2413,
      "cri": 2414,
      "call": 2415,
      "list": 2416,
      "rust": 2417,
      "lear": 2418,
      "ride": 2419,
      "formed": 2420,
      "caught": 2421,
      "tast": 2422,
      "goes": 2423,
      "plus": 2424,
      "scenes": 2425,
      "famili": 2426,
      "resting": 2427,
      "complex": 2428,
      "incredibly": 2429,
      "chicken": 2430,
      "cas": 2431,
      "quis": 2432,
      "saw": 2433,
      "amazed": 2434,
      "purpose": 2435,
      "variety": 2436,
      "secret": 2437,
      "american": 2438,
      "skelet": 2439,
      ").": 2440,
      "til": 2441,
      "eness": 2442,
      "begin": 2443,
      "aspect": 2444,
      "ured": 2445,
      "proper": 2446,
      "artistic": 2447,
      "thoughts": 2448,
      "windows": 2449,
      "afterno": 2450,
      "happened": 2451,
      "symboli": 2452,
      "smooth": 2453,
      "clown": 2454,
      "card": 2455,
      "lu": 2456,
      "lush": 2457,
      "vag": 2458,
      "orient": 2459,
      "somehow": 2460,
      "ques": 2461,
      "desert": 2462,
      "anyone": 2463,
      "div": 2464,
      "ended": 2465,
      "forms": 2466,
      "news": 2467,
      "birth": 2468,
      "follow": 2469,
      "gth": 2470,
      "hy": 2471,
      "igh": 2472,
      "non": 2473,
      "lean": 2474,
      "beige": 2475,
      "pops": 2476,
      "hol": 2477,
      "mentary": 2478,
      "terrifying": 2479,
      "foreboding": 2480,
      "telling": 2481,
      "guys": 2482,
      "leave": 2483,
      "puts": 2484,
      "representation": 2485,
      "reflecting": 2486,
      "fishing": 2487,
      "specif": 2488,
      "classic": 2489,
      "subtle": 2490,
      "bibli": 2491,
      "threatening": 2492,
      "arrangement": 2493,
      "fashion": 2494,
      "biblical": 2495,
      "cer": 2496,
      "gone": 2497,
      "gical": 2498,
      "tan": 2499,
      "tho": 2500,
      "femin": 2501,
      "eding": 2502,
      "ghter": 2503,
      "dynam": 2504,
      "hunt": 2505,
      "knows": 2506,
      "positive": 2507,
      "minimal": 2508,
      "fruits": 2509,
      "vacation": 2510,
      "afternoon": 2511,
      "ade": 2512,
      "wow": 2513,
      "ordin": 2514,
      "abor": 2515,
      "contain": 2516,
      "qua": 2517,
      "tea": 2518,
      "single": 2519,
      "trou": 2520,
      "viewing": 2521,
      "books": 2522,
      "catching": 2523,
      "priv": 2524,
      "soldier": 2525,
      "spiritual": 2526,
      "circles": 2527,
      "skeleton": 2528,
      "mp": 2529,
      "ulous": 2530,
      "meal": 2531,
      "tot": 2532,
      "irrit": 2533,
      "antic": 2534,
      "dest": 2535,
      "oming": 2536,
      "anced": 2537,
      "stream": 2538,
      "effort": 2539,
      "conveys": 2540,
      "direction": 2541,
      "organized": 2542,
      "mystery": 2543,
      "dynamic": 2544,
      "egg": 2545,
      "fallen": 2546,
      "sits": 2547,
      "ane": 2548,
      "ligh": 2549,
      "wife": 2550,
      "agger": 2551,
      "produ": 2552,
      "appo": 2553,
      "oddly": 2554,
      "marks": 2555,
      "slo": 2556,
      "seren": 2557,
      "weight": 2558,
      "desol": 2559,
      "job": 2560,
      "artists": 2561,
      "surreal": 2562,
      "emotional": 2563,
      "visually": 2564,
      "possible": 2565,
      "resemble": 2566,
      "kni": 2567,
      "intimid": 2568,
      "totally": 2569,
      "allow": 2570,
      "soon": 2571,
      "pleased": 2572,
      "causes": 2573,
      "apart": 2574,
      "otherwise": 2575,
      "dragon": 2576,
      "bleak": 2577,
      "knowing": 2578,
      "central": 2579,
      "sinister": 2580,
      "nervous": 2581,
      "christmas": 2582,
      "covering": 2583,
      "historical": 2584,
      "jour": 2585,
      "killed": 2586,
      "mill": 2587,
      "wra": 2588,
      "oned": 2589,
      "gets": 2590,
      "aband": 2591,
      "unnatural": 2592,
      "wear": 2593,
      "autumn": 2594,
      "fog": 2595,
      "ages": 2596,
      "trad": 2597,
      "distress": 2598,
      "serv": 2599,
      "tells": 2600,
      "vision": 2601,
      "combined": 2602,
      "defined": 2603,
      "growing": 2604,
      "symmetry": 2605,
      "religion": 2606,
      "remin": 2607,
      "meant": 2608,
      "stren": 2609,
      "bey": 2610,
      "unsure": 2611,
      "scare": 2612,
      "dot": 2613,
      "usion": 2614,
      "prec": 2615,
      "breath": 2616,
      "chest": 2617,
      "snowy": 2618,
      "collect": 2619,
      "anxiety": 2620,
      "finger": 2621,
      "twist": 2622,
      "humorous": 2623,
      "dau": 2624,
      "fly": 2625,
      "prom": 2626,
      "upper": 2627,
      "wine": 2628,
      "star": 2629,
      "rious": 2630,
      "rope": 2631,
      "bling": 2632,
      "except": 2633,
      "lower": 2634,
      "closed": 2635,
      "disappo": 2636,
      "ump": 2637,
      "dogs": 2638,
      "curves": 2639,
      "study": 2640,
      "stuff": 2641,
      "didn": 2642,
      "puzzle": 2643,
      "seemingly": 2644,
      "negative": 2645,
      "melancholy": 2646,
      "ba": 2647,
      "rise": 2648,
      "ters": 2649,
      "unknown": 2650,
      "created": 2651,
      "sensu": 2652,
      "doesnt": 2653,
      "torture": 2654,
      "held": 2655,
      "shoes": 2656,
      "violin": 2657,
      "mourning": 2658,
      "cation": 2659,
      "elic": 2660,
      "ris": 2661,
      "sam": 2662,
      "isol": 2663,
      "esque": 2664,
      "itive": 2665,
      "illi": 2666,
      "short": 2667,
      "apple": 2668,
      "brow": 2669,
      "backdrop": 2670,
      "everywhere": 2671,
      "invokes": 2672,
      "bowl": 2673,
      "kneeling": 2674,
      "hungry": 2675,
      "provides": 2676,
      "sac": 2677,
      "accent": 2678,
      "soc": 2679,
      "ils": 2680,
      "blan": 2681,
      "ames": 2682,
      "shine": 2683,
      "taste": 2684,
      "brushstrokes": 2685,
      "blended": 2686,
      "void": 2687,
      "sorrow": 2688,
      "branches": 2689,
      "beyond": 2690,
      "biz": 2691,
      "die": 2692,
      "thor": 2693,
      "least": 2694,
      "whe": 2695,
      "forward": 2696,
      "acks": 2697,
      "brilli": 2698,
      "inspires": 2699,
      "interpret": 2700,
      "glance": 2701,
      "fields": 2702,
      "royalty": 2703,
      "crucifixion": 2704,
      "money": 2705,
      "ively": 2706,
      "alth": 2707,
      "ened": 2708,
      "belong": 2709,
      "master": 2710,
      "picnic": 2711,
      "lap": 2712,
      "quick": 2713,
      "sunlight": 2714,
      "enjoyable": 2715,
      "saying": 2716,
      "demons": 2717,
      "lifting": 2718,
      "reminis": 2719,
      "strength": 2720,
      "3d": 2721,
      "bra": 2722,
      "rad": 2723,
      "train": 2724,
      "member": 2725,
      "lict": 2726,
      "stars": 2727,
      "eliness": 2728,
      "mask": 2729,
      "scar": 2730,
      "attire": 2731,
      "cream": 2732,
      "thrown": 2733,
      "ashing": 2734,
      "importance": 2735,
      "musical": 2736,
      "graphic": 2737,
      "dinner": 2738,
      "faded": 2739,
      "ference": 2740,
      "leaning": 2741,
      "ordinary": 2742,
      "blowing": 2743,
      "parent": 2744,
      "rising": 2745,
      "spect": 2746,
      "uous": 2747,
      "thetic": 2748,
      "ato": 2749,
      "lemon": 2750,
      "ices": 2751,
      "cond": 2752,
      "conside": 2753,
      "notice": 2754,
      "creative": 2755,
      "loneliness": 2756,
      "evening": 2757,
      "spots": 2758,
      "sides": 2759,
      "satisfying": 2760,
      "considered": 2761,
      "cla": 2762,
      "hus": 2763,
      "knight": 2764,
      "pun": 2765,
      "eral": 2766,
      "separ": 2767,
      "arre": 2768,
      "stim": 2769,
      "step": 2770,
      "beat": 2771,
      "fee": 2772,
      "future": 2773,
      "domin": 2774,
      "discus": 2775,
      "rence": 2776,
      "distract": 2777,
      "blends": 2778,
      "trapped": 2779,
      "flat": 2780,
      "signific": 2781,
      "violence": 2782,
      "opin": 2783,
      "fantast": 2784,
      "lifeless": 2785,
      "usually": 2786,
      "knife": 2787,
      "intimidating": 2788,
      "brilliant": 2789,
      "stimul": 2790,
      "cab": 2791,
      "crying": 2792,
      "fits": 2793,
      "leg": 2794,
      "feather": 2795,
      "mod": 2796,
      "exagger": 2797,
      "somebody": 2798,
      "excel": 2799,
      "true": 2800,
      "umbre": 2801,
      "cloudy": 2802,
      "business": 2803,
      "leading": 2804,
      "engaged": 2805,
      "focused": 2806,
      "desolate": 2807,
      "tradition": 2808,
      "reminiscent": 2809,
      "oked": 2810,
      "tig": 2811,
      "itary": 2812,
      "oky": 2813,
      "control": 2814,
      "idence": 2815,
      "aching": 2816,
      "sailing": 2817,
      "trical": 2818,
      "distinct": 2819,
      "surroundings": 2820,
      "curtain": 2821,
      "overwhelming": 2822,
      "determin": 2823,
      "abandoned": 2824,
      "zzy": 2825,
      "orig": 2826,
      "likely": 2827,
      "ading": 2828,
      "consid": 2829,
      "exist": 2830,
      "cave": 2831,
      "context": 2832,
      "disjo": 2833,
      "mud": 2834,
      "joyful": 2835,
      "horror": 2836,
      "cub": 2837,
      "highly": 2838,
      "highlights": 2839,
      "company": 2840,
      "stuck": 2841,
      "obser": 2842,
      "laughing": 2843,
      "crowded": 2844,
      "swim": 2845,
      "grim": 2846,
      "preparing": 2847,
      "meeting": 2848,
      "quaint": 2849,
      "bizarre": 2850,
      "husband": 2851,
      "opinion": 2852,
      "based": 2853,
      "pile": 2854,
      "erial": 2855,
      "butt": 2856,
      "brightly": 2857,
      "spend": 2858,
      "headed": 2859,
      "terrible": 2860,
      "umin": 2861,
      "larger": 2862,
      "hide": 2863,
      "torn": 2864,
      "emphas": 2865,
      "drew": 2866,
      "dread": 2867,
      "mixture": 2868,
      "hopeful": 2869,
      "conflict": 2870,
      "cows": 2871,
      "fingers": 2872,
      "community": 2873,
      "question": 2874,
      "feminine": 2875,
      "journey": 2876,
      "sensual": 2877,
      "disjointed": 2878,
      "grot": 2879,
      "hones": 2880,
      "izing": 2881,
      "jac": 2882,
      "atic": 2883,
      "maid": 2884,
      "veget": 2885,
      "unclear": 2886,
      "outline": 2887,
      "wealthy": 2888,
      "smoking": 2889,
      "wouldn": 2890,
      "longing": 2891,
      "placement": 2892,
      "choices": 2893,
      "pensive": 2894,
      "turing": 2895,
      "stret": 2896,
      "layers": 2897,
      "balanced": 2898,
      "heavenly": 2899,
      "barely": 2900,
      "engaging": 2901,
      "serenity": 2902,
      "excellent": 2903,
      "eas": 2904,
      "por": 2905,
      "vul": 2906,
      "incomplete": 2907,
      "stay": 2908,
      "begging": 2909,
      "magical": 2910,
      "fed": 2911,
      "rai": 2912,
      "amuses": 2913,
      "shed": 2914,
      "case": 2915,
      "tiv": 2916,
      "splotches": 2917,
      "presented": 2918,
      "queen": 2919,
      "bloody": 2920,
      "trip": 2921,
      "command": 2922,
      "general": 2923,
      "washed": 2924,
      "celebration": 2925,
      "reverence": 2926,
      "memories": 2927,
      "jux": 2928,
      "weapon": 2929,
      "kitch": 2930,
      "nap": 2931,
      "pon": 2932,
      "sw": 2933,
      "tly": 2934,
      "loss": 2935,
      "metal": 2936,
      "change": 2937,
      "convers": 2938,
      "unpleasant": 2939,
      "unappealing": 2940,
      "forced": 2941,
      "came": 2942,
      "grace": 2943,
      "common": 2944,
      "worry": 2945,
      "aggress": 2946,
      "project": 2947,
      "phy": 2948,
      "shoulder": 2949,
      "drinking": 2950,
      "entertaining": 2951,
      "ception": 2952,
      "ornate": 2953,
      "familiar": 2954,
      "divine": 2955,
      "anticip": 2956,
      "daughter": 2957,
      "hit": 2958,
      "mic": 2959,
      "island": 2960,
      "manner": 2961,
      "healthy": 2962,
      "adult": 2963,
      "exam": 2964,
      "perform": 2965,
      "peacefully": 2966,
      "provide": 2967,
      "tered": 2968,
      "stop": 2969,
      "born": 2970,
      "circus": 2971,
      "harbor": 2972,
      "leads": 2973,
      "welcoming": 2974,
      "vertical": 2975,
      "outdoors": 2976,
      "origin": 2977,
      "kitchen": 2978,
      "zard": 2979,
      "itude": 2980,
      "stair": 2981,
      "adam": 2982,
      "ability": 2983,
      "lazy": 2984,
      "childish": 2985,
      "typical": 2986,
      "saint": 2987,
      "stories": 2988,
      "ances": 2989,
      "designs": 2990,
      "writ": 2991,
      "helping": 2992,
      "collage": 2993,
      "ssive": 2994,
      "signif": 2995,
      "indicate": 2996,
      "experience": 2997,
      "daily": 2998,
      "uniform": 2999,
      "festive": 3000,
      "juxta": 3001,
      "clim": 3002,
      "yard": 3003,
      "ines": 3004,
      "escape": 3005,
      "cot": 3006,
      "areas": 3007,
      "pee": 3008,
      "deci": 3009,
      "dom": 3010,
      "doll": 3011,
      "dering": 3012,
      "distant": 3013,
      "lacking": 3014,
      "bottle": 3015,
      "vari": 3016,
      "portrays": 3017,
      "prayer": 3018,
      "market": 3019,
      "individuals": 3020,
      "splashes": 3021,
      "chinese": 3022,
      "dimensional": 3023,
      "blanket": 3024,
      "bers": 3025,
      "ecut": 3026,
      "grain": 3027,
      "isp": 3028,
      "ats": 3029,
      "delight": 3030,
      "execut": 3031,
      "scrat": 3032,
      "butter": 3033,
      "attered": 3034,
      "childlike": 3035,
      "persons": 3036,
      "prison": 3037,
      "breaking": 3038,
      "shot": 3039,
      "catch": 3040,
      "basket": 3041,
      "ridic": 3042,
      "pier": 3043,
      "delicate": 3044,
      "emptiness": 3045,
      "monoch": 3046,
      "private": 3047,
      "twisted": 3048,
      "tiger": 3049,
      "conversation": 3050,
      "?)": 3051,
      "ially": 3052,
      "pher": 3053,
      "magn": 3054,
      "ilt": 3055,
      "admi": 3056,
      "ided": 3057,
      "angular": 3058,
      "dislike": 3059,
      "drawings": 3060,
      "sunrise": 3061,
      "pract": 3062,
      "affect": 3063,
      "purples": 3064,
      "leaving": 3065,
      "inspire": 3066,
      "boys": 3067,
      "wrink": 3068,
      "crucified": 3069,
      "fairy": 3070,
      "exaggerated": 3071,
      "bil": 3072,
      "bul": 3073,
      "wed": 3074,
      "ining": 3075,
      "reco": 3076,
      "reaction": 3077,
      "location": 3078,
      "erotic": 3079,
      "aling": 3080,
      "acy": 3081,
      "solit": 3082,
      "advert": 3083,
      "roo": 3084,
      "ury": 3085,
      "pool": 3086,
      "worn": 3087,
      "anged": 3088,
      "attacked": 3089,
      "illusion": 3090,
      "contrasted": 3091,
      "prov": 3092,
      "horrible": 3093,
      "surface": 3094,
      "reets": 3095,
      "christian": 3096,
      "wooden": 3097,
      "touching": 3098,
      "barren": 3099,
      "ghosts": 3100,
      "displayed": 3101,
      "explore": 3102,
      "truly": 3103,
      "military": 3104,
      "connected": 3105,
      "illustration": 3106,
      "stained": 3107,
      "radi": 3108,
      "grotesque": 3109,
      ".\"": 3110,
      "bel": 3111,
      "cof": 3112,
      "fence": 3113,
      "jag": 3114,
      "muse": 3115,
      "pil": 3116,
      "uck": 3117,
      "thouse": 3118,
      "lovers": 3119,
      "ital": 3120,
      "sect": 3121,
      "liage": 3122,
      "streets": 3123,
      "version": 3124,
      "force": 3125,
      "elling": 3126,
      "armor": 3127,
      "wanted": 3128,
      "throw": 3129,
      "pinks": 3130,
      "softness": 3131,
      "cheery": 3132,
      "beside": 3133,
      "harves": 3134,
      "confidence": 3135,
      "experien": 3136,
      "muscles": 3137,
      "fantasy": 3138,
      "jacket": 3139,
      "ridiculous": 3140,
      "\".": 3141,
      "eu": 3142,
      "gun": 3143,
      "gown": 3144,
      "tu": 3145,
      "thed": 3146,
      "reali": 3147,
      "beast": 3148,
      "massive": 3149,
      "ask": 3150,
      "imposing": 3151,
      "pol": 3152,
      "active": 3153,
      "actions": 3154,
      "lighter": 3155,
      "dish": 3156,
      "relaxation": 3157,
      "younger": 3158,
      "eleph": 3159,
      "blending": 3160,
      "squigg": 3161,
      "letter": 3162,
      "splatter": 3163,
      "breathtaking": 3164,
      "samu": 3165,
      "jagged": 3166,
      "ahead": 3167,
      "bag": 3168,
      "ith": 3169,
      "lace": 3170,
      "array": 3171,
      "stroll": 3172,
      "ens": 3173,
      "accom": 3174,
      "mass": 3175,
      "intention": 3176,
      "defe": 3177,
      "exposed": 3178,
      "exquis": 3179,
      "pless": 3180,
      "ides": 3181,
      "comic": 3182,
      "mental": 3183,
      "foliage": 3184,
      "smir": 3185,
      "tem": 3186,
      "lotch": 3187,
      "bread": 3188,
      "turning": 3189,
      "medie": 3190,
      "suppose": 3191,
      "material": 3192,
      "jumbled": 3193,
      "attacking": 3194,
      "specific": 3195,
      "society": 3196,
      "recogn": 3197,
      "caring": 3198,
      "sound": 3199,
      "wound": 3200,
      "stress": 3201,
      "elder": 3202,
      "aces": 3203,
      "icing": 3204,
      "peach": 3205,
      "ute": 3206,
      "aming": 3207,
      "ents": 3208,
      "tight": 3209,
      "tee": 3210,
      "reflections": 3211,
      "visual": 3212,
      "pride": 3213,
      "pub": 3214,
      "spooky": 3215,
      "burning": 3216,
      "regular": 3217,
      "blurred": 3218,
      "coffee": 3219,
      "bon": 3220,
      "bent": 3221,
      "cence": 3222,
      "ize": 3223,
      "ler": 3224,
      "slow": 3225,
      "rent": 3226,
      "sets": 3227,
      "petal": 3228,
      "deer": 3229,
      "rose": 3230,
      "express": 3231,
      "youth": 3232,
      "drama": 3233,
      "desper": 3234,
      "tled": 3235,
      "longer": 3236,
      "wave": 3237,
      "shadowy": 3238,
      "shadowing": 3239,
      "bree": 3240,
      "streaks": 3241,
      "priest": 3242,
      "pointing": 3243,
      "melting": 3244,
      "washing": 3245,
      "adorable": 3246,
      "inclu": 3247,
      "lighthouse": 3248,
      "traditional": 3249,
      "aggressive": 3250,
      "samurai": 3251,
      "accompl": 3252,
      "medieval": 3253,
      "aur": 3254,
      "fer": 3255,
      "pha": 3256,
      "text": 3257,
      "season": 3258,
      "whites": 3259,
      "constru": 3260,
      "immedi": 3261,
      "makeup": 3262,
      "sheet": 3263,
      "gia": 3264,
      "neon": 3265,
      "acting": 3266,
      "uplifting": 3267,
      "detailing": 3268,
      "focal": 3269,
      "overly": 3270,
      "desk": 3271,
      "tower": 3272,
      "bigger": 3273,
      "invol": 3274,
      "grab": 3275,
      "places": 3276,
      "relation": 3277,
      "annoying": 3278,
      "captiv": 3279,
      "simpler": 3280,
      "innocence": 3281,
      "screen": 3282,
      "parents": 3283,
      "brain": 3284,
      "dry": 3285,
      "fles": 3286,
      "four": 3287,
      "fast": 3288,
      "mild": 3289,
      "pill": 3290,
      "rul": 3291,
      "sal": 3292,
      "logo": 3293,
      "map": 3294,
      "icy": 3295,
      "passed": 3296,
      "noble": 3297,
      "laid": 3298,
      "upside": 3299,
      "tive": 3300,
      "agon": 3301,
      "etc": 3302,
      "border": 3303,
      "ledge": 3304,
      "suggesting": 3305,
      "represented": 3306,
      "reflects": 3307,
      "floral": 3308,
      "portrayal": 3309,
      "rectangle": 3310,
      "symbolic": 3311,
      "leader": 3312,
      "subdu": 3313,
      "glasses": 3314,
      "satisfied": 3315,
      "cherub": 3316,
      "fantastic": 3317,
      "written": 3318,
      "europe": 3319,
      "aes": 3320,
      "bible": 3321,
      "epic": 3322,
      "jar": 3323,
      "lur": 3324,
      "mine": 3325,
      "pian": 3326,
      "remember": 3327,
      "today": 3328,
      "depression": 3329,
      "ado": 3330,
      "outlines": 3331,
      "outfits": 3332,
      "scra": 3333,
      "grad": 3334,
      "actual": 3335,
      "lined": 3336,
      "smug": 3337,
      "smud": 3338,
      "arming": 3339,
      "facing": 3340,
      "getic": 3341,
      "waste": 3342,
      "carri": 3343,
      "extra": 3344,
      "mustache": 3345,
      "stormy": 3346,
      "valley": 3347,
      "structures": 3348,
      "instruments": 3349,
      "patch": 3350,
      "delicious": 3351,
      "candy": 3352,
      "fluffy": 3353,
      "splatters": 3354,
      "jewel": 3355,
      "scarf": 3356,
      "museum": 3357,
      "exquisite": 3358,
      "petals": 3359,
      "!!": 3360,
      "east": 3361,
      "gue": 3362,
      "mous": 3363,
      "ners": 3364,
      "tes": 3365,
      "arro": 3366,
      "sting": 3367,
      "sters": 3368,
      "feature": 3369,
      "verse": 3370,
      "roses": 3371,
      "concept": 3372,
      "tage": 3373,
      "wet": 3374,
      "sedu": 3375,
      "illumin": 3376,
      "blacks": 3377,
      "liter": 3378,
      "aged": 3379,
      "process": 3380,
      "pending": 3381,
      "quet": 3382,
      "frown": 3383,
      "earthy": 3384,
      "clothed": 3385,
      "traveling": 3386,
      "fills": 3387,
      "scribbles": 3388,
      "cluttered": 3389,
      "subdued": 3390,
      "00": 3391,
      "drun": 3392,
      "ia": 3393,
      "ience": 3394,
      "tun": 3395,
      "wit": 3396,
      "wards": 3397,
      "toy": 3398,
      "told": 3399,
      "seated": 3400,
      "blind": 3401,
      "cei": 3402,
      "ified": 3403,
      "cano": 3404,
      "confuses": 3405,
      "refresh": 3406,
      "faint": 3407,
      "opening": 3408,
      "grandmother": 3409,
      "virgin": 3410,
      "nostalgia": 3411,
      "freed": 3412,
      "pulling": 3413,
      "beginning": 3414,
      "irritated": 3415,
      "anticipation": 3416,
      "aesthetic": 3417,
      "cry": 3418,
      "ders": 3419,
      "dess": 3420,
      "hou": 3421,
      "ja": 3422,
      "nun": 3423,
      "pse": 3424,
      "rup": 3425,
      "sch": 3426,
      "soup": 3427,
      "theres": 3428,
      "lived": 3429,
      "accur": 3430,
      "magic": 3431,
      "deal": 3432,
      "adm": 3433,
      "polit": 3434,
      "homes": 3435,
      "worship": 3436,
      "activ": 3437,
      "strang": 3438,
      "brighter": 3439,
      "funeral": 3440,
      "heading": 3441,
      "stoic": 3442,
      "underne": 3443,
      "nightma": 3444,
      "deeply": 3445,
      "gged": 3446,
      "letters": 3447,
      "speak": 3448,
      "ghostly": 3449,
      "harmon": 3450,
      "isolated": 3451,
      "magnific": 3452,
      "piano": 3453,
      "literally": 3454,
      "freedom": 3455,
      "dirt": 3456,
      "equ": 3457,
      "fil": 3458,
      "push": 3459,
      "tale": 3460,
      "witch": 3461,
      "already": 3462,
      "inty": 3463,
      "intel": 3464,
      "deformed": 3465,
      "chie": 3466,
      "indust": 3467,
      "bother": 3468,
      "ceiling": 3469,
      "pick": 3470,
      "sus": 3471,
      "hole": 3472,
      "illing": 3473,
      "ults": 3474,
      "trust": 3475,
      "portraits": 3476,
      "clash": 3477,
      "apparent": 3478,
      "visible": 3479,
      "highlight": 3480,
      "matches": 3481,
      "cats": 3482,
      "faith": 3483,
      "mellow": 3484,
      "panels": 3485,
      "snakes": 3486,
      "killing": 3487,
      "halos": 3488,
      "harmony": 3489,
      "overwhelmed": 3490,
      "profile": 3491,
      "compliment": 3492,
      "oriental": 3493,
      "model": 3494,
      "honestly": 3495,
      "original": 3496,
      "wedding": 3497,
      "underneath": 3498,
      "bou": 3499,
      "dru": 3500,
      "fren": 3501,
      "lla": 3502,
      "sn": 3503,
      "ubs": 3504,
      "wis": 3505,
      "zen": 3506,
      "second": 3507,
      "acher": 3508,
      "peac": 3509,
      "bless": 3510,
      "picking": 3511,
      "sume": 3512,
      "holi": 3513,
      "reminded": 3514,
      "appearing": 3515,
      "watercolor": 3516,
      "descri": 3517,
      "ached": 3518,
      "greenery": 3519,
      "rub": 3520,
      "plays": 3521,
      "blobs": 3522,
      "fier": 3523,
      "smaller": 3524,
      "eyebrow": 3525,
      "invoke": 3526,
      "medit": 3527,
      "energetic": 3528,
      "hats": 3529,
      "rectangles": 3530,
      "musician": 3531,
      "uded": 3532,
      "silhou": 3533,
      "sexy": 3534,
      "further": 3535,
      "ubby": 3536,
      "muscular": 3537,
      "embrace": 3538,
      "struggling": 3539,
      "tropical": 3540,
      "tortured": 3541,
      "elephant": 3542,
      "teeth": 3543,
      "pin": 3544,
      "pres": 3545,
      "pull": 3546,
      "sco": 3547,
      "isha": 3548,
      "ingu": 3549,
      "arous": 3550,
      "kets": 3551,
      "okay": 3552,
      "enor": 3553,
      "bear": 3554,
      "haust": 3555,
      "height": 3556,
      "rage": 3557,
      "forgot": 3558,
      "exhaust": 3559,
      "scattered": 3560,
      "ams": 3561,
      "wealth": 3562,
      "sheer": 3563,
      "liness": 3564,
      "closer": 3565,
      "creat": 3566,
      "excites": 3567,
      "throne": 3568,
      "distressed": 3569,
      "crisp": 3570,
      "formation": 3571,
      "worldly": 3572,
      "villa": 3573,
      "stud": 3574,
      "ballo": 3575,
      "aura": 3576,
      "barn": 3577,
      "poorly": 3578,
      "plane": 3579,
      "indicates": 3580,
      "knees": 3581,
      "puzzled": 3582,
      "lord": 3583,
      "dripping": 3584,
      "contemplative": 3585,
      "symbolism": 3586,
      "swirls": 3587,
      "seaside": 3588,
      "bustling": 3589,
      "number": 3590,
      "folds": 3591,
      "bathroom": 3592,
      "haunting": 3593,
      "disappointed": 3594,
      "sacrif": 3595,
      "swimming": 3596,
      "elderly": 3597,
      "immediately": 3598,
      "hour": 3599,
      "kiss": 3600,
      "sist": 3601,
      "sour": 3602,
      "rele": 3603,
      "looming": 3604,
      "sees": 3605,
      "lized": 3606,
      "stage": 3607,
      "madon": 3608,
      "feeding": 3609,
      "ution": 3610,
      "chubby": 3611,
      "thats": 3612,
      "expressive": 3613,
      "shel": 3614,
      "ctive": 3615,
      "idy": 3616,
      "hop": 3617,
      "skirt": 3618,
      "attempt": 3619,
      "types": 3620,
      "ruins": 3621,
      "built": 3622,
      "rays": 3623,
      "dience": 3624,
      "....": 3625,
      "warming": 3626,
      "helps": 3627,
      "wallpaper": 3628,
      "thoughtful": 3629,
      "bringing": 3630,
      "ival": 3631,
      "colum": 3632,
      "framing": 3633,
      "pallet": 3634,
      "gently": 3635,
      "statues": 3636,
      "transp": 3637,
      "demonic": 3638,
      "mesmer": 3639,
      "pipe": 3640,
      "rocky": 3641,
      "jump": 3642,
      "cherubs": 3643,
      "arrows": 3644,
      "expected": 3645,
      "sloppy": 3646,
      "scares": 3647,
      "collection": 3648,
      "umbrella": 3649,
      "admire": 3650,
      "including": 3651,
      "flesh": 3652,
      "base": 3653,
      "bars": 3654,
      "dou": 3655,
      "mist": 3656,
      "none": 3657,
      "inst": 3658,
      "tour": 3659,
      "ases": 3660,
      "indian": 3661,
      "sometimes": 3662,
      "whats": 3663,
      "suc": 3664,
      "poss": 3665,
      "personal": 3666,
      "beings": 3667,
      "ager": 3668,
      "hum": 3669,
      "psy": 3670,
      "crashing": 3671,
      "apples": 3672,
      "grapes": 3673,
      "awful": 3674,
      "speaks": 3675,
      "audience": 3676,
      "starting": 3677,
      "shiny": 3678,
      "boxes": 3679,
      "sailboats": 3680,
      "historic": 3681,
      "haunted": 3682,
      "learn": 3683,
      "juxtaposition": 3684,
      "breeze": 3685,
      "madonna": 3686,
      "alot": 3687,
      "ctor": 3688,
      "cards": 3689,
      "dim": 3690,
      "fellow": 3691,
      "hue": 3692,
      "io": 3693,
      "ier": 3694,
      "oo": 3695,
      "pitch": 3696,
      "range": 3697,
      "sne": 3698,
      "inj": 3699,
      "rena": 3700,
      "coast": 3701,
      "iced": 3702,
      "associ": 3703,
      "raised": 3704,
      "ables": 3705,
      "moved": 3706,
      "ambig": 3707,
      "happily": 3708,
      "bub": 3709,
      "stomach": 3710,
      "blob": 3711,
      "rendering": 3712,
      "century": 3713,
      "photos": 3714,
      "energi": 3715,
      "support": 3716,
      "grays": 3717,
      "tried": 3718,
      "symbols": 3719,
      "amongst": 3720,
      "ritual": 3721,
      "dened": 3722,
      "destroy": 3723,
      "eggs": 3724,
      "allows": 3725,
      "promin": 3726,
      "significance": 3727,
      "stimulating": 3728,
      "muddy": 3729,
      "easily": 3730,
      "captivating": 3731,
      "activities": 3732,
      "labor": 3733,
      "pred": 3734,
      "van": 3735,
      "xed": 3736,
      "ina": 3737,
      "infant": 3738,
      "ors": 3739,
      "rial": 3740,
      "sharing": 3741,
      "grown": 3742,
      "sheep": 3743,
      "contin": 3744,
      "brick": 3745,
      "personality": 3746,
      "smart": 3747,
      "joke": 3748,
      "joyous": 3749,
      "wanting": 3750,
      "reality": 3751,
      "carn": 3752,
      "gave": 3753,
      "strikes": 3754,
      "coupled": 3755,
      "males": 3756,
      "symmetrical": 3757,
      "crossed": 3758,
      "issance": 3759,
      "weapons": 3760,
      "greek": 3761,
      "embracing": 3762,
      "court": 3763,
      "lemons": 3764,
      "determined": 3765,
      "consider": 3766,
      "advertise": 3767,
      "refreshing": 3768,
      "admiring": 3769,
      "magnificent": 3770,
      "fierce": 3771,
      "enormous": 3772,
      "bell": 3773,
      "cig": 3774,
      "ek": 3775,
      "kis": 3776,
      "nes": 3777,
      "rural": 3778,
      "ision": 3779,
      "become": 3780,
      "iles": 3781,
      "rome": 3782,
      "ably": 3783,
      "blah": 3784,
      "cere": 3785,
      "neigh": 3786,
      "lining": 3787,
      "destru": 3788,
      "everybody": 3789,
      "knowledge": 3790,
      "gesture": 3791,
      "rendered": 3792,
      "wait": 3793,
      "positioned": 3794,
      "native": 3795,
      "author": 3796,
      "disturbed": 3797,
      "dreamy": 3798,
      "norm": 3799,
      "sailboat": 3800,
      "appropri": 3801,
      "swirling": 3802,
      "struggle": 3803,
      "listening": 3804,
      "symbolizes": 3805,
      "wrapped": 3806,
      "interpretation": 3807,
      "feathers": 3808,
      "cubist": 3809,
      "vulner": 3810,
      "bouquet": 3811,
      "eyebrows": 3812,
      "renaissance": 3813,
      "hunch": 3814,
      "kin": 3815,
      "llic": 3816,
      "py": 3817,
      "pent": 3818,
      "sity": 3819,
      "vary": 3820,
      "anato": 3821,
      "lover": 3822,
      "load": 3823,
      "loud": 3824,
      "asso": 3825,
      "exotic": 3826,
      "picasso": 3827,
      "poll": 3828,
      "share": 3829,
      "rush": 3830,
      "proble": 3831,
      "blos": 3832,
      "distingu": 3833,
      "handsome": 3834,
      "monkey": 3835,
      "choppy": 3836,
      "famous": 3837,
      "element": 3838,
      "complement": 3839,
      "skinny": 3840,
      "crosses": 3841,
      "sickly": 3842,
      "ddled": 3843,
      "garb": 3844,
      "harvest": 3845,
      "slowly": 3846,
      "involved": 3847,
      "harmonious": 3848,
      "anatomy": 3849,
      "bones": 3850,
      "dign": 3851,
      "lam": 3852,
      "late": 3853,
      "pants": 3854,
      "tar": 3855,
      "thus": 3856,
      "repe": 3857,
      "recei": 3858,
      "meet": 3859,
      "likes": 3860,
      "stab": 3861,
      "elabor": 3862,
      "icking": 3863,
      "hapha": 3864,
      "pear": 3865,
      "velo": 3866,
      "charming": 3867,
      "adults": 3868,
      "forces": 3869,
      "reddish": 3870,
      "ify": 3871,
      "pictured": 3872,
      "net": 3873,
      "spark": 3874,
      "peacefulness": 3875,
      "name": 3876,
      "bum": 3877,
      "downcast": 3878,
      "chosen": 3879,
      "weirdly": 3880,
      "representing": 3881,
      "reflected": 3882,
      "ization": 3883,
      "compar": 3884,
      "ideas": 3885,
      "shoulders": 3886,
      "seriously": 3887,
      "flames": 3888,
      "collar": 3889,
      "heavens": 3890,
      "satur": 3891,
      "drown": 3892,
      "started": 3893,
      "tranquility": 3894,
      "safety": 3895,
      "fairly": 3896,
      "potent": 3897,
      "judge": 3898,
      "judging": 3899,
      "decorated": 3900,
      "bene": 3901,
      "victo": 3902,
      "frustrated": 3903,
      "cliffs": 3904,
      "newspaper": 3905,
      "whether": 3906,
      "cabin": 3907,
      "butterfly": 3908,
      "lurking": 3909,
      "arrogant": 3910,
      "drunk": 3911,
      "idyllic": 3912,
      "cell": 3913,
      "fate": 3914,
      "rings": 3915,
      "tles": 3916,
      "vint": 3917,
      "vom": 3918,
      "ws": 3919,
      "isnt": 3920,
      "ono": 3921,
      "ofy": 3922,
      "arri": 3923,
      "pay": 3924,
      "paired": 3925,
      "wol": 3926,
      "iration": 3927,
      "item": 3928,
      "notes": 3929,
      "tied": 3930,
      "spread": 3931,
      "pleasure": 3932,
      "gazing": 3933,
      "windmill": 3934,
      "positions": 3935,
      "tural": 3936,
      "sorts": 3937,
      "cruel": 3938,
      "arranged": 3939,
      "classical": 3940,
      "addition": 3941,
      "definition": 3942,
      "directions": 3943,
      "memory": 3944,
      "candle": 3945,
      "video": 3946,
      "folded": 3947,
      "tilted": 3948,
      "jarring": 3949,
      "prominent": 3950,
      "neighbor": 3951,
      "normally": 3952,
      "blosso": 3953,
      "haphazard": 3954,
      "vintage": 3955,
      "fle": 3956,
      "jun": 3957,
      "nel": 3958,
      "oh": 3959,
      "oid": 3960,
      "san": 3961,
      "tv": 3962,
      "uc": 3963,
      "wre": 3964,
      "wand": 3965,
      "anim": 3966,
      "iti": 3967,
      "semi": 3968,
      "section": 3969,
      "arou": 3970,
      "eds": 3971,
      "asking": 3972,
      "assume": 3973,
      "geisha": 3974,
      "mosa": 3975,
      "uninteresting": 3976,
      "impress": 3977,
      "ession": 3978,
      "note": 3979,
      "peoples": 3980,
      "reminder": 3981,
      "string": 3982,
      "attemp": 3983,
      "thinks": 3984,
      "overlooking": 3985,
      "bleeding": 3986,
      "workers": 3987,
      "ishment": 3988,
      "tern": 3989,
      "offering": 3990,
      "forehead": 3991,
      "emer": 3992,
      "blooming": 3993,
      "formal": 3994,
      "inspiration": 3995,
      "warhol": 3996,
      "shoo": 3997,
      "aware": 3998,
      "carefree": 3999,
      "dreams": 4000,
      "pastels": 4001,
      "displays": 4002,
      "until": 4003,
      "sorry": 4004,
      "blocky": 4005,
      "festival": 4006,
      "volcano": 4007,
      "aspects": 4008,
      "lux": 4009,
      "minimalist": 4010,
      "delightful": 4011,
      "smirk": 4012,
      "strangely": 4013,
      "injured": 4014,
      "ceremon": 4015,
      "beneath": 4016,
      "mosaic": 4017,
      "bits": 4018,
      "ded": 4019,
      "dust": 4020,
      "dig": 4021,
      "ilor": 4022,
      "vin": 4023,
      "inner": 4024,
      "regre": 4025,
      "liber": 4026,
      "army": 4027,
      "lets": 4028,
      "leaf": 4029,
      "acc": 4030,
      "chuck": 4031,
      "raw": 4032,
      "impending": 4033,
      "urally": 4034,
      "usk": 4035,
      "spilled": 4036,
      "waterfall": 4037,
      "donkey": 4038,
      "sens": 4039,
      "wasn": 4040,
      "tears": 4041,
      "played": 4042,
      "forever": 4043,
      "foreign": 4044,
      "carry": 4045,
      "crack": 4046,
      "often": 4047,
      "bowing": 4048,
      "miser": 4049,
      "painful": 4050,
      "ptical": 4051,
      "limited": 4052,
      "mainly": 4053,
      "hung": 4054,
      "statement": 4055,
      "gloom": 4056,
      "bench": 4057,
      "surprised": 4058,
      "trouble": 4059,
      "performing": 4060,
      "lotchy": 4061,
      "public": 4062,
      "blessing": 4063,
      "creativity": 4064,
      "columns": 4065,
      "comparison": 4066,
      "aroused": 4067,
      "bank": 4068,
      "blotches": 4069,
      "dar": 4070,
      "fli": 4071,
      "hen": 4072,
      "lab": 4073,
      "oil": 4074,
      "race": 4075,
      "wil": 4076,
      "thru": 4077,
      "repet": 4078,
      "ands": 4079,
      "maze": 4080,
      "coloration": 4081,
      "vering": 4082,
      "demean": 4083,
      "fuzzy": 4084,
      "vere": 4085,
      "rab": 4086,
      "pleading": 4087,
      "unattractive": 4088,
      "hero": 4089,
      "pples": 4090,
      "romatic": 4091,
      "upsetting": 4092,
      "cloak": 4093,
      "creation": 4094,
      "pregn": 4095,
      "overhead": 4096,
      "perple": 4097,
      "achie": 4098,
      "faced": 4099,
      "rug": 4100,
      "sunshine": 4101,
      "store": 4102,
      "monk": 4103,
      "monsters": 4104,
      "wavy": 4105,
      "nakedness": 4106,
      "rainy": 4107,
      "strike": 4108,
      "textured": 4109,
      "sketching": 4110,
      "layout": 4111,
      "trans": 4112,
      "grief": 4113,
      "celebrating": 4114,
      "sticks": 4115,
      "communic": 4116,
      "decided": 4117,
      "splattered": 4118,
      "murder": 4119,
      "curtains": 4120,
      "example": 4121,
      "peeking": 4122,
      "hopeless": 4123,
      "mesmerizing": 4124,
      "hunched": 4125,
      "elaborate": 4126,
      "??": 4127,
      "blow": 4128,
      "camp": 4129,
      "date": 4130,
      "dusk": 4131,
      "fis": 4132,
      "ffe": 4133,
      "gers": 4134,
      "gif": 4135,
      "kim": 4136,
      "mac": 4137,
      "mort": 4138,
      "tte": 4139,
      "rein": 4140,
      "logy": 4141,
      "met": 4142,
      "tops": 4143,
      "hazy": 4144,
      "pas": 4145,
      "ram": 4146,
      "ribut": 4147,
      "rider": 4148,
      "unner": 4149,
      "tail": 4150,
      "sul": 4151,
      "poster": 4152,
      "shame": 4153,
      "called": 4154,
      "watches": 4155,
      "crete": 4156,
      "disproportion": 4157,
      "smiles": 4158,
      "mush": 4159,
      "guard": 4160,
      "save": 4161,
      "sailor": 4162,
      "downward": 4163,
      "emb": 4164,
      "licated": 4165,
      "endless": 4166,
      "shiel": 4167,
      "prim": 4168,
      "mischie": 4169,
      "tries": 4170,
      "playfulness": 4171,
      "blessed": 4172,
      "relate": 4173,
      "explosion": 4174,
      "keeps": 4175,
      "majesty": 4176,
      "lorn": 4177,
      "contemplating": 4178,
      "decay": 4179,
      "pigs": 4180,
      "oppress": 4181,
      "learning": 4182,
      "complexity": 4183,
      "quickly": 4184,
      "monochromatic": 4185,
      "nightmare": 4186,
      "silhouette": 4187,
      "arousing": 4188,
      "ambiguous": 4189,
      "appropriate": 4190,
      "eves": 4191,
      "gment": 4192,
      "glim": 4193,
      "knew": 4194,
      "nit": 4195,
      "va": 4196,
      "ana": 4197,
      "regard": 4198,
      "remark": 4199,
      "loves": 4200,
      "andy": 4201,
      "mem": 4202,
      "lied": 4203,
      "stro": 4204,
      "costu": 4205,
      "ict": 4206,
      "hay": 4207,
      "wig": 4208,
      "rosy": 4209,
      "concrete": 4210,
      "mold": 4211,
      "boob": 4212,
      "resign": 4213,
      "goat": 4214,
      "doom": 4215,
      "pomp": 4216,
      "therefore": 4217,
      "myth": 4218,
      "canal": 4219,
      "quir": 4220,
      "discern": 4221,
      "portion": 4222,
      "vior": 4223,
      "bush": 4224,
      "teal": 4225,
      "teacher": 4226,
      "stylized": 4227,
      "rend": 4228,
      "shaded": 4229,
      "penis": 4230,
      "fined": 4231,
      "talk": 4232,
      "shop": 4233,
      "disgusts": 4234,
      "naturally": 4235,
      "sketches": 4236,
      "mission": 4237,
      "bedroom": 4238,
      "intrigue": 4239,
      "goddess": 4240,
      "broad": 4241,
      "duck": 4242,
      "directly": 4243,
      "frightened": 4244,
      "eaten": 4245,
      "panel": 4246,
      "protecting": 4247,
      "answ": 4248,
      "occur": 4249,
      "bustle": 4250,
      "social": 4251,
      "machine": 4252,
      "vague": 4253,
      "precise": 4254,
      "disappoint": 4255,
      "steps": 4256,
      "discussing": 4257,
      "observe": 4258,
      "executed": 4259,
      "wrinkles": 4260,
      "italy": 4261,
      "defeated": 4262,
      "european": 4263,
      "schol": 4264,
      "intelli": 4265,
      "scope": 4266,
      "hours": 4267,
      "success": 4268,
      "carnival": 4269,
      "advertisement": 4270,
      "shooting": 4271,
      "fisher": 4272,
      "bending": 4273,
      "gigg": 4274,
      "games": 4275,
      "hund": 4276,
      "tent": 4277,
      "task": 4278,
      "vs": 4279,
      "inquis": 4280,
      "lime": 4281,
      "stones": 4282,
      "ory": 4283,
      "orgy": 4284,
      "bears": 4285,
      "females": 4286,
      "absur": 4287,
      "abund": 4288,
      "indu": 4289,
      "respon": 4290,
      "entr": 4291,
      "cake": 4292,
      "goofy": 4293,
      "dove": 4294,
      "brut": 4295,
      "worshi": 4296,
      "vibes": 4297,
      "deser": 4298,
      "ishing": 4299,
      "terri": 4300,
      "hugging": 4301,
      "wake": 4302,
      "finally": 4303,
      "helpless": 4304,
      "complicated": 4305,
      "points": 4306,
      "tense": 4307,
      "closely": 4308,
      "passing": 4309,
      "keeping": 4310,
      "capturing": 4311,
      "organization": 4312,
      "souls": 4313,
      "generally": 4314,
      "anguish": 4315,
      "fortun": 4316,
      "genit": 4317,
      "horizontal": 4318,
      "pulled": 4319,
      "numbers": 4320,
      "rustic": 4321,
      "followers": 4322,
      "bathing": 4323,
      "accentu": 4324,
      "stairs": 4325,
      "decipher": 4326,
      "carriage": 4327,
      "french": 4328,
      "sacrifice": 4329,
      "source": 4330,
      "cigare": 4331,
      "destruction": 4332,
      "varying": 4333,
      "mushroom": 4334,
      "costume": 4335,
      "pompous": 4336,
      "cel": 4337,
      "camer": 4338,
      "dad": 4339,
      "hall": 4340,
      "nur": 4341,
      "optical": 4342,
      "pious": 4343,
      "song": 4344,
      "ino": 4345,
      "loose": 4346,
      "ater": 4347,
      "todd": 4348,
      "lions": 4349,
      "stem": 4350,
      "pasto": 4351,
      "ures": 4352,
      "consist": 4353,
      "forlorn": 4354,
      "someones": 4355,
      "cted": 4356,
      "grin": 4357,
      "wears": 4358,
      "necess": 4359,
      "brought": 4360,
      "anging": 4361,
      "upward": 4362,
      "ties": 4363,
      "eving": 4364,
      "desc": 4365,
      "agony": 4366,
      "enjoyment": 4367,
      "amaze": 4368,
      "survi": 4369,
      "nothingness": 4370,
      "clue": 4371,
      "aff": 4372,
      "humanity": 4373,
      "graff": 4374,
      "awed": 4375,
      "trail": 4376,
      "lend": 4377,
      "portraying": 4378,
      "happens": 4379,
      "dude": 4380,
      "expan": 4381,
      "wonderfully": 4382,
      "intensity": 4383,
      "paris": 4384,
      "related": 4385,
      "impressionist": 4386,
      "patient": 4387,
      "orderly": 4388,
      "entirely": 4389,
      "fading": 4390,
      "monotone": 4391,
      "surprise": 4392,
      "hunting": 4393,
      "contains": 4394,
      "separate": 4395,
      "piercing": 4396,
      "provoking": 4397,
      "belly": 4398,
      "realize": 4399,
      "ruler": 4400,
      "kissing": 4401,
      "victori": 4402,
      "demeanor": 4403,
      "pregnant": 4404,
      "bap": 4405,
      "eper": 4406,
      "gle": 4407,
      "ior": 4408,
      "mund": 4409,
      "ni": 4410,
      "pack": 4411,
      "wl": 4412,
      "wn": 4413,
      "zation": 4414,
      "ises": 4415,
      "log": 4416,
      "loun": 4417,
      "severe": 4418,
      "acle": 4419,
      "aced": 4420,
      "mascul": 4421,
      "feed": 4422,
      "dev": 4423,
      "raising": 4424,
      "exu": 4425,
      "scroll": 4426,
      "boo": 4427,
      "amid": 4428,
      "dood": 4429,
      "composed": 4430,
      "lapping": 4431,
      "angled": 4432,
      "attitude": 4433,
      "lightness": 4434,
      "figured": 4435,
      "spent": 4436,
      "spid": 4437,
      "prey": 4438,
      "difference": 4439,
      "tions": 4440,
      "singing": 4441,
      "clever": 4442,
      "princ": 4443,
      "creeps": 4444,
      "walks": 4445,
      "aky": 4446,
      "curly": 4447,
      "stripe": 4448,
      "positioning": 4449,
      "counter": 4450,
      "puffy": 4451,
      "status": 4452,
      "spear": 4453,
      "doors": 4454,
      "silver": 4455,
      "parade": 4456,
      "geometry": 4457,
      "approaching": 4458,
      "crooked": 4459,
      "fluid": 4460,
      "winged": 4461,
      "medium": 4462,
      "frozen": 4463,
      "symbolize": 4464,
      "signifies": 4465,
      "bilities": 4466,
      "solitude": 4467,
      "squiggles": 4468,
      "intentional": 4469,
      "accomplished": 4470,
      "accurate": 4471,
      "wisdom": 4472,
      "vulnerable": 4473,
      "accident": 4474,
      "miserable": 4475,
      "remarkable": 4476,
      "quirky": 4477,
      "pastoral": 4478,
      "princess": 4479,
      "blon": 4480,
      "een": 4481,
      "elect": 4482,
      "five": 4483,
      "gid": 4484,
      "hust": 4485,
      "hte": 4486,
      "plot": 4487,
      "revol": 4488,
      "kept": 4489,
      "stable": 4490,
      "sticking": 4491,
      "peaks": 4492,
      "som": 4493,
      "soph": 4494,
      "uts": 4495,
      "admir": 4496,
      "plent": 4497,
      "contour": 4498,
      "nowhere": 4499,
      "indist": 4500,
      "uneven": 4501,
      "unease": 4502,
      "scri": 4503,
      "scious": 4504,
      "tainty": 4505,
      "gras": 4506,
      "anting": 4507,
      "domes": 4508,
      "ists": 4509,
      "popping": 4510,
      "sadd": 4511,
      "neither": 4512,
      "worth": 4513,
      "worked": 4514,
      "overweight": 4515,
      "senses": 4516,
      "progress": 4517,
      "nause": 4518,
      "buy": 4519,
      "bushes": 4520,
      "teen": 4521,
      "bloom": 4522,
      "fix": 4523,
      "gage": 4524,
      "chose": 4525,
      "ancing": 4526,
      "stillness": 4527,
      "towns": 4528,
      "phone": 4529,
      "cheese": 4530,
      "badly": 4531,
      "pointed": 4532,
      "carefully": 4533,
      "needed": 4534,
      "tension": 4535,
      "oping": 4536,
      "gentlemen": 4537,
      "straw": 4538,
      "farmer": 4539,
      "whimsy": 4540,
      "shines": 4541,
      "limbs": 4542,
      "protective": 4543,
      "garments": 4544,
      "circular": 4545,
      "victim": 4546,
      "midst": 4547,
      "passionate": 4548,
      "specifically": 4549,
      "certainty": 4550,
      "brave": 4551,
      "graceful": 4552,
      "decide": 4553,
      "pillow": 4554,
      "gradient": 4555,
      "jewelry": 4556,
      "seductive": 4557,
      "tunnel": 4558,
      "industrial": 4559,
      "releases": 4560,
      "rendition": 4561,
      "scholar": 4562,
      "cigarette": 4563,
      "toddler": 4564,
      "masculine": 4565,
      "hustle": 4566,
      "',": 4567,
      "?\"": 4568,
      "aked": 4569,
      "ec": 4570,
      "eur": 4571,
      "ethere": 4572,
      "fell": 4573,
      "fond": 4574,
      "gall": 4575,
      "ives": 4576,
      "omen": 4577,
      "rus": 4578,
      "tie": 4579,
      "onic": 4580,
      "mead": 4581,
      "meta": 4582,
      "stacked": 4583,
      "accep": 4584,
      "coal": 4585,
      "liked": 4586,
      "peering": 4587,
      "paints": 4588,
      "cone": 4589,
      "unrealistic": 4590,
      "explain": 4591,
      "catho": 4592,
      "gods": 4593,
      "anted": 4594,
      "iff": 4595,
      "host": 4596,
      "worthy": 4597,
      "spaces": 4598,
      "eping": 4599,
      "omb": 4600,
      "whose": 4601,
      "nasty": 4602,
      "trun": 4603,
      "understanding": 4604,
      "clust": 4605,
      "ouring": 4606,
      "serpent": 4607,
      "interrup": 4608,
      "reflective": 4609,
      "pointless": 4610,
      "studying": 4611,
      "miss": 4612,
      "suming": 4613,
      "fake": 4614,
      "greys": 4615,
      "crude": 4616,
      "hearted": 4617,
      "added": 4618,
      "mesh": 4619,
      "sleepy": 4620,
      "wilder": 4621,
      "balls": 4622,
      "furnit": 4623,
      "moonlight": 4624,
      "gonna": 4625,
      "prints": 4626,
      "contemplation": 4627,
      "branch": 4628,
      "compliments": 4629,
      "troubled": 4630,
      "significant": 4631,
      "micro": 4632,
      "relationship": 4633,
      "suspic": 4634,
      "forgotten": 4635,
      "exhausted": 4636,
      "destroyed": 4637,
      "ceremony": 4638,
      "regret": 4639,
      "camera": 4640,
      "graffiti": 4641,
      "victorian": 4642,
      "admiration": 4643,
      "ethereal": 4644,
      "meadow": 4645,
      "catholic": 4646,
      "),": 4647,
      "cam": 4648,
      "fountain": 4649,
      "gance": 4650,
      "jor": 4651,
      "jack": 4652,
      "sink": 4653,
      "zomb": 4654,
      "losing": 4655,
      "onlook": 4656,
      "itions": 4657,
      "total": 4658,
      "arse": 4659,
      "stum": 4660,
      "leis": 4661,
      "envelo": 4662,
      "pable": 4663,
      "illy": 4664,
      "dece": 4665,
      "utes": 4666,
      "chill": 4667,
      "seemed": 4668,
      "unexpected": 4669,
      "immer": 4670,
      "scient": 4671,
      "science": 4672,
      "owner": 4673,
      "watched": 4674,
      "attached": 4675,
      "disorient": 4676,
      "tery": 4677,
      "cudd": 4678,
      "carpet": 4679,
      "vibrancy": 4680,
      "purity": 4681,
      "thanks": 4682,
      "turns": 4683,
      "restaur": 4684,
      "designed": 4685,
      "awn": 4686,
      "higher": 4687,
      "curved": 4688,
      "current": 4689,
      "strip": 4690,
      "compan": 4691,
      "completed": 4692,
      "tragic": 4693,
      "lends": 4694,
      "obsc": 4695,
      "quietly": 4696,
      "static": 4697,
      "signs": 4698,
      "doorway": 4699,
      "substance": 4700,
      "burst": 4701,
      "graphy": 4702,
      "implies": 4703,
      "pia": 4704,
      "patri": 4705,
      "folks": 4706,
      "following": 4707,
      "dden": 4708,
      "sails": 4709,
      "cultural": 4710,
      "milk": 4711,
      "mystical": 4712,
      "lovingly": 4713,
      "warriors": 4714,
      "prepared": 4715,
      "slum": 4716,
      "atory": 4717,
      "frustrating": 4718,
      "tiles": 4719,
      "isolation": 4720,
      "variation": 4721,
      "scratch": 4722,
      "solitary": 4723,
      "experiencing": 4724,
      "desperate": 4725,
      "toys": 4726,
      "political": 4727,
      "vomit": 4728,
      "luxu": 4729,
      "rabbit": 4730,
      "stroke": 4731,
      "hundreds": 4732,
      "inquisitive": 4733,
      "mundane": 4734,
      "domestic": 4735,
      "furniture": 4736,
      "bay": 4737,
      "bond": 4738,
      "bility": 4739,
      "gro": 4740,
      "gate": 4741,
      "ka": 4742,
      "site": 4743,
      "swords": 4744,
      "tit": 4745,
      "tend": 4746,
      "rec": 4747,
      "lip": 4748,
      "stit": 4749,
      "stup": 4750,
      "enh": 4751,
      "ench": 4752,
      "engage": 4753,
      "icked": 4754,
      "intended": 4755,
      "heat": 4756,
      "pled": 4757,
      "conv": 4758,
      "concent": 4759,
      "immen": 4760,
      "alluring": 4761,
      "shr": 4762,
      "arts": 4763,
      "wee": 4764,
      "pole": 4765,
      "shapen": 4766,
      "sized": 4767,
      "spending": 4768,
      "overtones": 4769,
      "expressionless": 4770,
      "dismal": 4771,
      "desire": 4772,
      "shower": 4773,
      "ruff": 4774,
      "office": 4775,
      "greatly": 4776,
      "styles": 4777,
      "trick": 4778,
      "trash": 4779,
      "cars": 4780,
      "mothers": 4781,
      "afric": 4782,
      "forming": 4783,
      "finish": 4784,
      "windy": 4785,
      "check": 4786,
      "visiting": 4787,
      "homey": 4788,
      "seriousness": 4789,
      "triangle": 4790,
      "depictions": 4791,
      "nearly": 4792,
      "nearby": 4793,
      "satan": 4794,
      "possibilities": 4795,
      "springtime": 4796,
      "despond": 4797,
      "folk": 4798,
      "connection": 4799,
      "protection": 4800,
      "intimate": 4801,
      "america": 4802,
      "clowns": 4803,
      "course": 4804,
      "hints": 4805,
      "listen": 4806,
      "casual": 4807,
      "produce": 4808,
      "elicit": 4809,
      "accents": 4810,
      "distracting": 4811,
      "questions": 4812,
      "balloons": 4813,
      "neighborhood": 4814,
      "chuckle": 4815,
      "sensation": 4816,
      "flir": 4817,
      "unnerving": 4818,
      "leisure": 4819,
      "restaurant": 4820,
      "80": 4821,
      "apo": 4822,
      "cure": 4823,
      "cray": 4824,
      "cket": 4825,
      "dow": 4826,
      "mers": 4827,
      "oval": 4828,
      "rhy": 4829,
      "sly": 4830,
      "swal": 4831,
      "scow": 4832,
      "test": 4833,
      "win": 4834,
      "wes": 4835,
      "wrest": 4836,
      "local": 4837,
      "behold": 4838,
      "ham": 4839,
      "habit": 4840,
      "paying": 4841,
      "asing": 4842,
      "deeper": 4843,
      "futur": 4844,
      "uted": 4845,
      "changing": 4846,
      "seeking": 4847,
      "contorted": 4848,
      "uncertainty": 4849,
      "cafe": 4850,
      "cathed": 4851,
      "arted": 4852,
      "grou": 4853,
      "platter": 4854,
      "dol": 4855,
      "wea": 4856,
      "weak": 4857,
      "noticed": 4858,
      "contempt": 4859,
      "combo": 4860,
      "usage": 4861,
      "saddened": 4862,
      "spell": 4863,
      "displaying": 4864,
      "whoever": 4865,
      "horns": 4866,
      "divid": 4867,
      "towers": 4868,
      "enjoys": 4869,
      "landsc": 4870,
      "tracks": 4871,
      "carved": 4872,
      "chores": 4873,
      "crash": 4874,
      "series": 4875,
      "charge": 4876,
      "nudes": 4877,
      "heavily": 4878,
      "homeless": 4879,
      "striped": 4880,
      "llas": 4881,
      "shouldn": 4882,
      "pained": 4883,
      "kened": 4884,
      "battling": 4885,
      "triangles": 4886,
      "palm": 4887,
      "demonstr": 4888,
      "dropped": 4889,
      "rific": 4890,
      "flags": 4891,
      "placid": 4892,
      "grieving": 4893,
      "patches": 4894,
      "necklace": 4895,
      "smeared": 4896,
      "garment": 4897,
      "secrets": 4898,
      "shoreline": 4899,
      "talented": 4900,
      "complimentary": 4901,
      "clutching": 4902,
      "belongs": 4903,
      "umbrellas": 4904,
      "climb": 4905,
      "monochrome": 4906,
      "throwing": 4907,
      "recogniz": 4908,
      "pillars": 4909,
      "aesthetically": 4910,
      "double": 4911,
      "associated": 4912,
      "energizing": 4913,
      "distinguished": 4914,
      "kimono": 4915,
      "giggle": 4916,
      "entrance": 4917,
      "amazement": 4918,
      "plotting": 4919,
      "sophistic": 4920,
      "saddening": 4921,
      "luxurious": 4922,
      "stupid": 4923,
      "cathedral": 4924,
      "80s": 4925,
      "bound": 4926,
      "bid": 4927,
      "eager": 4928,
      "kick": 4929,
      "lers": 4930,
      "rout": 4931,
      "reap": 4932,
      "lose": 4933,
      "erous": 4934,
      "atop": 4935,
      "argu": 4936,
      "leep": 4937,
      "major": 4938,
      "ics": 4939,
      "health": 4940,
      "asleep": 4941,
      "def": 4942,
      "dem": 4943,
      "decent": 4944,
      "devo": 4945,
      "devoid": 4946,
      "rap": 4947,
      "conj": 4948,
      "nobody": 4949,
      "exception": 4950,
      "shell": 4951,
      "picked": 4952,
      "contribut": 4953,
      "hovering": 4954,
      "caused": 4955,
      "ski": 4956,
      "sparse": 4957,
      "blackness": 4958,
      "disfigured": 4959,
      "draped": 4960,
      "vial": 4961,
      "faceless": 4962,
      "sideways": 4963,
      "terror": 4964,
      "offer": 4965,
      "savior": 4966,
      "umb": 4967,
      "viewed": 4968,
      "caric": 4969,
      "shadowed": 4970,
      "rounded": 4971,
      "colourful": 4972,
      "suggestion": 4973,
      "grave": 4974,
      "cative": 4975,
      "berries": 4976,
      "traged": 4977,
      "velve": 4978,
      "strongly": 4979,
      "misshapen": 4980,
      "crum": 4981,
      "hurting": 4982,
      "dreaming": 4983,
      "sandy": 4984,
      "postures": 4985,
      "lifted": 4986,
      "spirits": 4987,
      "respectful": 4988,
      "stares": 4989,
      "cupid": 4990,
      "freshly": 4991,
      "glorious": 4992,
      "fabrics": 4993,
      "indifference": 4994,
      "profession": 4995,
      "included": 4996,
      "frustration": 4997,
      "vastness": 4998,
      "slave": 4999,
      "slaves": 5000,
      "murky": 5001,
      "surprising": 5002,
      "meets": 5003,
      "fashioned": 5004,
      "foggy": 5005,
      "servant": 5006,
      "elicits": 5007,
      "sacred": 5008,
      "determination": 5009,
      "vegetables": 5010,
      "cottage": 5011,
      "pushing": 5012,
      "authority": 5013,
      "problems": 5014,
      "receiving": 5015,
      "embarr": 5016,
      "mischievous": 5017,
      "consistent": 5018,
      "lounging": 5019,
      "spider": 5020,
      "suspicious": 5021,
      "futuristic": 5022,
      "(?)": 5023,
      "dried": 5024,
      "ets": 5025,
      "hits": 5026,
      "jug": 5027,
      "lish": 5028,
      "mature": 5029,
      "nd": 5030,
      "west": 5031,
      "influ": 5032,
      "recent": 5033,
      "essed": 5034,
      "ests": 5035,
      "meat": 5036,
      "melon": 5037,
      "lie": 5038,
      "album": 5039,
      "stressed": 5040,
      "bearing": 5041,
      "whil": 5042,
      "colorless": 5043,
      "peas": 5044,
      "det": 5045,
      "conver": 5046,
      "novel": 5047,
      "mot": 5048,
      "bob": 5049,
      "bores": 5050,
      "amate": 5051,
      "ounce": 5052,
      "poised": 5053,
      "acts": 5054,
      "scenic": 5055,
      "ultim": 5056,
      "clock": 5057,
      "otherworldly": 5058,
      "disorganized": 5059,
      "evo": 5060,
      "tools": 5061,
      "said": 5062,
      "civi": 5063,
      "partially": 5064,
      "hairstyle": 5065,
      "abstractness": 5066,
      "ernal": 5067,
      "assort": 5068,
      "centered": 5069,
      "jester": 5070,
      "presentation": 5071,
      "sins": 5072,
      "ears": 5073,
      "curiousity": 5074,
      "rained": 5075,
      "charcoal": 5076,
      "ashes": 5077,
      "grav": 5078,
      "interaction": 5079,
      "intertw": 5080,
      "newborn": 5081,
      "matching": 5082,
      "besides": 5083,
      "colle": 5084,
      "palace": 5085,
      "dancer": 5086,
      "marching": 5087,
      "brother": 5088,
      "hearts": 5089,
      "hallow": 5090,
      "conveyed": 5091,
      "burnt": 5092,
      "osite": 5093,
      "impressionistic": 5094,
      "unsettled": 5095,
      "voy": 5096,
      "opposite": 5097,
      "ferences": 5098,
      "frog": 5099,
      "slice": 5100,
      "lighthe": 5101,
      "wheel": 5102,
      "vegetation": 5103,
      "stretched": 5104,
      "phys": 5105,
      "climbing": 5106,
      "execution": 5107,
      "witness": 5108,
      "student": 5109,
      "drowning": 5110,
      "potential": 5111,
      "wreck": 5112,
      "absurd": 5113,
      "worshipping": 5114,
      "bapt": 5115,
      "indistinct": 5116,
      "onlookers": 5117,
      "deceased": 5118,
      "concentr": 5119,
      "swallow": 5120,
      "western": 5121,
      "landscap": 5122,
      "tragedy": 5123,
      "whilst": 5124,
      "bun": 5125,
      "elong": 5126,
      "hn": 5127,
      "lis": 5128,
      "lly": 5129,
      "lant": 5130,
      "oper": 5131,
      "pump": 5132,
      "pouring": 5133,
      "slau": 5134,
      "ware": 5135,
      "wagon": 5136,
      "third": 5137,
      "instill": 5138,
      "insect": 5139,
      "resc": 5140,
      "removed": 5141,
      "refined": 5142,
      "itting": 5143,
      "itated": 5144,
      "toes": 5145,
      "toile": 5146,
      "sepia": 5147,
      "secure": 5148,
      "stack": 5149,
      "ense": 5150,
      "pets": 5151,
      "pears": 5152,
      "pag": 5153,
      "papers": 5154,
      "pathy": 5155,
      "assed": 5156,
      "asks": 5157,
      "utili": 5158,
      "challen": 5159,
      "raught": 5160,
      "ripe": 5161,
      "irts": 5162,
      "please": 5163,
      "mob": 5164,
      "unity": 5165,
      "uncertain": 5166,
      "blu": 5167,
      "result": 5168,
      "antly": 5169,
      "dock": 5170,
      "reminding": 5171,
      "skilled": 5172,
      "calmly": 5173,
      "sizes": 5174,
      "childs": 5175,
      "join": 5176,
      "rugged": 5177,
      "headdress": 5178,
      "towel": 5179,
      "towering": 5180,
      "kinds": 5181,
      "enjoyed": 5182,
      "cum": 5183,
      "fiery": 5184,
      "distraught": 5185,
      "comforted": 5186,
      "carries": 5187,
      "relief": 5188,
      "presents": 5189,
      "amazingly": 5190,
      "finding": 5191,
      "struck": 5192,
      "flood": 5193,
      "shocked": 5194,
      "supper": 5195,
      "strips": 5196,
      "compelling": 5197,
      "cord": 5198,
      "catches": 5199,
      "coura": 5200,
      "pointill": 5201,
      "varied": 5202,
      "cares": 5203,
      "paining": 5204,
      "vases": 5205,
      "hillside": 5206,
      "grassy": 5207,
      "marble": 5208,
      "value": 5209,
      "ducks": 5210,
      "touches": 5211,
      "sculp": 5212,
      "farming": 5213,
      "lifes": 5214,
      "exploring": 5215,
      "moody": 5216,
      "belief": 5217,
      "killer": 5218,
      "romance": 5219,
      "ughty": 5220,
      "intently": 5221,
      "families": 5222,
      "properly": 5223,
      "servants": 5224,
      "bathed": 5225,
      "claust": 5226,
      "considering": 5227,
      "variations": 5228,
      "rooster": 5229,
      "squiggly": 5230,
      "recognize": 5231,
      "constructed": 5232,
      "describe": 5233,
      "psyched": 5234,
      "bubble": 5235,
      "rushing": 5236,
      "lamb": 5237,
      "blossoms": 5238,
      "animated": 5239,
      "attempting": 5240,
      "resigned": 5241,
      "intelligent": 5242,
      "boots": 5243,
      "immense": 5244,
      "amateur": 5245,
      "lighthearted": 5246,
      "elongated": 5247,
      "lantern": 5248,
      "toilet": 5249,
      "dama": 5250,
      "lamp": 5251,
      "mouse": 5252,
      "nest": 5253,
      "pir": 5254,
      "ption": 5255,
      "ron": 5256,
      "tint": 5257,
      "tray": 5258,
      "tub": 5259,
      "ued": 5260,
      "za": 5261,
      "zoo": 5262,
      "ths": 5263,
      "rear": 5264,
      "return": 5265,
      "isto": 5266,
      "itation": 5267,
      "sear": 5268,
      "aristo": 5269,
      "stiff": 5270,
      "oring": 5271,
      "ene": 5272,
      "math": 5273,
      "feast": 5274,
      "iction": 5275,
      "utter": 5276,
      "geor": 5277,
      "ropho": 5278,
      "forgiven": 5279,
      "causing": 5280,
      "odds": 5281,
      "upbeat": 5282,
      "fox": 5283,
      "overlapping": 5284,
      "disci": 5285,
      "john": 5286,
      "ruined": 5287,
      "bug": 5288,
      "tele": 5289,
      "womens": 5290,
      "player": 5291,
      "dizzy": 5292,
      "diagon": 5293,
      "lands": 5294,
      "licit": 5295,
      "clay": 5296,
      "aster": 5297,
      "torso": 5298,
      "raining": 5299,
      "bottles": 5300,
      "shoe": 5301,
      "curvy": 5302,
      "alized": 5303,
      "elev": 5304,
      "alongside": 5305,
      "couch": 5306,
      "bows": 5307,
      "mustard": 5308,
      "flash": 5309,
      "trim": 5310,
      "aunt": 5311,
      "marily": 5312,
      "tending": 5313,
      "values": 5314,
      "melted": 5315,
      "identify": 5316,
      "sleeves": 5317,
      "grandeur": 5318,
      "dreamlike": 5319,
      "optim": 5320,
      "basically": 5321,
      "events": 5322,
      "levels": 5323,
      "generic": 5324,
      "rows": 5325,
      "cherry": 5326,
      "approach": 5327,
      "scribbled": 5328,
      "satisfaction": 5329,
      "intentions": 5330,
      "masks": 5331,
      "discussion": 5332,
      "commands": 5333,
      "signify": 5334,
      "grabbing": 5335,
      "smudges": 5336,
      "peaco": 5337,
      "holiday": 5338,
      "possessed": 5339,
      "bricks": 5340,
      "dignified": 5341,
      "saturated": 5342,
      "flee": 5343,
      "perplexed": 5344,
      "disproportionate": 5345,
      "glimpse": 5346,
      "plenty": 5347,
      "despondent": 5348,
      "recognizable": 5349,
      "sophisticated": 5350,
      "velvet": 5351,
      "claustropho": 5352,
      "psychedelic": 5353,
      "aristocr": 5354,
      "'.": 5355,
      "aver": 5356,
      "agree": 5357,
      "dawn": 5358,
      "eman": 5359,
      "gal": 5360,
      "grid": 5361,
      "jaw": 5362,
      "ker": 5363,
      "lust": 5364,
      "lunch": 5365,
      "rh": 5366,
      "rs": 5367,
      "sag": 5368,
      "swing": 5369,
      "twi": 5370,
      "tum": 5371,
      "init": 5372,
      "repul": 5373,
      "issu": 5374,
      "lock": 5375,
      "arily": 5376,
      "stature": 5377,
      "strolling": 5378,
      "staff": 5379,
      "accept": 5380,
      "cooking": 5381,
      "bean": 5382,
      "mash": 5383,
      "whi": 5384,
      "peice": 5385,
      "pathetic": 5386,
      "heard": 5387,
      "deli": 5388,
      "chan": 5389,
      "wire": 5390,
      "ads": 5391,
      "adding": 5392,
      "rail": 5393,
      "amor": 5394,
      "cage": 5395,
      "tapes": 5396,
      "gossi": 5397,
      "doctor": 5398,
      "poison": 5399,
      "sheets": 5400,
      "lava": 5401,
      "grew": 5402,
      "distor": 5403,
      "disney": 5404,
      "jovial": 5405,
      "relaxes": 5406,
      "factory": 5407,
      "teaching": 5408,
      "wonderland": 5409,
      "offset": 5410,
      "olden": 5411,
      "cubes": 5412,
      "amazes": 5413,
      "cling": 5414,
      "imagin": 5415,
      "emotionless": 5416,
      "mini": 5417,
      "grazing": 5418,
      "interacting": 5419,
      "surrounds": 5420,
      "tales": 5421,
      "mercy": 5422,
      "mermaid": 5423,
      "izes": 5424,
      "corners": 5425,
      "lays": 5426,
      "combine": 5427,
      "sketched": 5428,
      "randomness": 5429,
      "speaking": 5430,
      "grandma": 5431,
      "hurts": 5432,
      "covers": 5433,
      "drops": 5434,
      "relat": 5435,
      "relative": 5436,
      "baller": 5437,
      "planning": 5438,
      "organic": 5439,
      "unders": 5440,
      "jumble": 5441,
      "architect": 5442,
      "drinks": 5443,
      "reveal": 5444,
      "judged": 5445,
      "annoys": 5446,
      "glows": 5447,
      "screaming": 5448,
      "occas": 5449,
      "proportioned": 5450,
      "precious": 5451,
      "cabb": 5452,
      "cubism": 5453,
      "tornado": 5454,
      "swans": 5455,
      "physical": 5456,
      "cotton": 5457,
      "grainy": 5458,
      "affection": 5459,
      "sections": 5460,
      "sounds": 5461,
      "mildly": 5462,
      "pillar": 5463,
      "holidays": 5464,
      "shelf": 5465,
      "polluted": 5466,
      "wolf": 5467,
      "santa": 5468,
      "repetitive": 5469,
      "shield": 5470,
      "boobs": 5471,
      "mythical": 5472,
      "genitals": 5473,
      "necessary": 5474,
      "exudes": 5475,
      "zombie": 5476,
      "slumped": 5477,
      "reaper": 5478,
      "college": 5479,
      "halloween": 5480,
      "lisa": 5481,
      "pointillism": 5482,
      "searching": 5483,
      "enemy": 5484,
      "20": 5485,
      "athe": 5486,
      "bri": 5487,
      "bite": 5488,
      "chas": 5489,
      "dut": 5490,
      "dam": 5491,
      "echo": 5492,
      "mural": 5493,
      "pit": 5494,
      "phor": 5495,
      "rare": 5496,
      "sway": 5497,
      "vines": 5498,
      "yes": 5499,
      "information": 5500,
      "anas": 5501,
      "reass": 5502,
      "returning": 5503,
      "loy": 5504,
      "erup": 5505,
      "topless": 5506,
      "select": 5507,
      "liqu": 5508,
      "cook": 5509,
      "likeness": 5510,
      "beg": 5511,
      "beheaded": 5512,
      "haired": 5513,
      "colon": 5514,
      "whit": 5515,
      "asto": 5516,
      "asure": 5517,
      "wizard": 5518,
      "ripples": 5519,
      "rigid": 5520,
      "irregular": 5521,
      "const": 5522,
      "moves": 5523,
      "expensive": 5524,
      "impossible": 5525,
      "shy": 5526,
      "shif": 5527,
      "suffe": 5528,
      "plump": 5529,
      "weary": 5530,
      "compassion": 5531,
      "holiness": 5532,
      "brand": 5533,
      "worse": 5534,
      "caly": 5535,
      "calms": 5536,
      "creek": 5537,
      "overcast": 5538,
      "disconnected": 5539,
      "kingdom": 5540,
      "skyline": 5541,
      "worker": 5542,
      "sition": 5543,
      "standard": 5544,
      "wonders": 5545,
      "themes": 5546,
      "buried": 5547,
      "terms": 5548,
      "tear": 5549,
      "offers": 5550,
      "anywhere": 5551,
      "blocking": 5552,
      "licking": 5553,
      "wast": 5554,
      "waits": 5555,
      "club": 5556,
      "crou": 5557,
      "fron": 5558,
      "imagining": 5559,
      "emotionally": 5560,
      "minute": 5561,
      "curled": 5562,
      "morbid": 5563,
      "ideal": 5564,
      "reads": 5565,
      "bowed": 5566,
      "rectangular": 5567,
      "randomly": 5568,
      "fade": 5569,
      "balcon": 5570,
      "palate": 5571,
      "venice": 5572,
      "sexually": 5573,
      "summertime": 5574,
      "closeness": 5575,
      "craft": 5576,
      "starts": 5577,
      "pix": 5578,
      "apprehen": 5579,
      "planet": 5580,
      "cheek": 5581,
      "cheeky": 5582,
      "starkness": 5583,
      "celebrate": 5584,
      "supernatural": 5585,
      "drive": 5586,
      "candles": 5587,
      "mourn": 5588,
      "prepare": 5589,
      "universe": 5590,
      "toned": 5591,
      "profound": 5592,
      "ators": 5593,
      "roofs": 5594,
      "murdered": 5595,
      "chickens": 5596,
      "hunter": 5597,
      "service": 5598,
      "spectac": 5599,
      "maiden": 5600,
      "staircase": 5601,
      "construction": 5602,
      "jazz": 5603,
      "meditative": 5604,
      "humble": 5605,
      "repeated": 5606,
      "jungle": 5607,
      "sullen": 5608,
      "primitive": 5609,
      "members": 5610,
      "fisherman": 5611,
      "deserted": 5612,
      "descending": 5613,
      "russi": 5614,
      "metaphor": 5615,
      "wilderness": 5616,
      "caricature": 5617,
      "civili": 5618,
      "forgiveness": 5619,
      "occasion": 5620,
      "suffered": 5621,
      "!\"": 5622,
      "awaiting": 5623,
      "bt": 5624,
      "bic": 5625,
      "bount": 5626,
      "bons": 5627,
      "flies": 5628,
      "narr": 5629,
      "narrow": 5630,
      "pup": 5631,
      "sof": 5632,
      "slen": 5633,
      "tti": 5634,
      "vig": 5635,
      "wan": 5636,
      "wist": 5637,
      "xing": 5638,
      "refu": 5639,
      "isy": 5640,
      "lol": 5641,
      "logical": 5642,
      "anda": 5643,
      "itment": 5644,
      "secl": 5645,
      "severed": 5646,
      "ensive": 5647,
      "costum": 5648,
      "maint": 5649,
      "eden": 5650,
      "owl": 5651,
      "chat": 5652,
      "chal": 5653,
      "chilling": 5654,
      "ades": 5655,
      "conqu": 5656,
      "moil": 5657,
      "modest": 5658,
      "forth": 5659,
      "outing": 5660,
      "bom": 5661,
      "bothered": 5662,
      "urous": 5663,
      "ctic": 5664,
      "susp": 5665,
      "istine": 5666,
      "contemp": 5667,
      "shap": 5668,
      "illness": 5669,
      "lightning": 5670,
      "tire": 5671,
      "span": 5672,
      "splotchy": 5673,
      "discomfort": 5674,
      "disarray": 5675,
      "watermelon": 5676,
      "drag": 5677,
      "contents": 5678,
      "agram": 5679,
      "yellowish": 5680,
      "rudi": 5681,
      "tool": 5682,
      "hug": 5683,
      "huddled": 5684,
      "horrific": 5685,
      "fearsome": 5686,
      "mona": 5687,
      "monu": 5688,
      "iest": 5689,
      "chocol": 5690,
      "crad": 5691,
      "hip": 5692,
      "helmet": 5693,
      "turmoil": 5694,
      "minutes": 5695,
      "linework": 5696,
      "tomato": 5697,
      "morph": 5698,
      "correct": 5699,
      "falls": 5700,
      "flatt": 5701,
      "pudd": 5702,
      "puppy": 5703,
      "frames": 5704,
      "fragment": 5705,
      "casting": 5706,
      "crowds": 5707,
      "dancers": 5708,
      "tender": 5709,
      "classy": 5710,
      "tough": 5711,
      "effects": 5712,
      "burn": 5713,
      "burned": 5714,
      "hurry": 5715,
      "picturesque": 5716,
      "engul": 5717,
      "friendship": 5718,
      "techno": 5719,
      "adventurous": 5720,
      "driving": 5721,
      "reverent": 5722,
      "muscle": 5723,
      "genu": 5724,
      "certainly": 5725,
      "screams": 5726,
      "guessing": 5727,
      "filling": 5728,
      "determine": 5729,
      "product": 5730,
      "existence": 5731,
      "hitting": 5732,
      "scratches": 5733,
      "practice": 5734,
      "experienced": 5735,
      "wounded": 5736,
      "patchwork": 5737,
      "frowning": 5738,
      "crystal": 5739,
      "equal": 5740,
      "balloon": 5741,
      "darkened": 5742,
      "achieve": 5743,
      "communicate": 5744,
      "gift": 5745,
      "disappointing": 5746,
      "abundance": 5747,
      "companion": 5748,
      "african": 5749,
      "apocaly": 5750,
      "diagonal": 5751,
      "whiteness": 5752,
      "balcony": 5753,
      "slender": 5754,
      "contempor": 5755,
      "18": 5756,
      "bone": 5757,
      "bby": 5758,
      "bould": 5759,
      "cise": 5760,
      "ckey": 5761,
      "dated": 5762,
      "dav": 5763,
      "jel": 5764,
      "ko": 5765,
      "ng": 5766,
      "wint": 5767,
      "yor": 5768,
      "thic": 5769,
      "ince": 5770,
      "inhabit": 5771,
      "requ": 5772,
      "ero": 5773,
      "lier": 5774,
      "arity": 5775,
      "arches": 5776,
      "alert": 5777,
      "stir": 5778,
      "station": 5779,
      "stances": 5780,
      "lete": 5781,
      "orna": 5782,
      "cock": 5783,
      "cohes": 5784,
      "maga": 5785,
      "versus": 5786,
      "aside": 5787,
      "chim": 5788,
      "ramid": 5789,
      "abs": 5790,
      "absor": 5791,
      "concer": 5792,
      "moses": 5793,
      "unding": 5794,
      "uninspired": 5795,
      "blush": 5796,
      "urban": 5797,
      "laz": 5798,
      "scenar": 5799,
      "backwards": 5800,
      "mytho": 5801,
      "attle": 5802,
      "eyed": 5803,
      "cloaked": 5804,
      "portal": 5805,
      "jected": 5806,
      "jolly": 5807,
      "flows": 5808,
      "muddled": 5809,
      "navy": 5810,
      "iously": 5811,
      "offic": 5812,
      "sage": 5813,
      "sunday": 5814,
      "horrifying": 5815,
      "forefront": 5816,
      "assy": 5817,
      "couldn": 5818,
      "lication": 5819,
      "dressing": 5820,
      "waving": 5821,
      "carried": 5822,
      "clas": 5823,
      "prince": 5824,
      "serving": 5825,
      "torment": 5826,
      "humanoid": 5827,
      "creeping": 5828,
      "thank": 5829,
      "willing": 5830,
      "horseback": 5831,
      "interact": 5832,
      "interior": 5833,
      "worlds": 5834,
      "cutting": 5835,
      "tomb": 5836,
      "boldness": 5837,
      "shopping": 5838,
      "brushes": 5839,
      "glad": 5840,
      "grayscale": 5841,
      "letting": 5842,
      "write": 5843,
      "crossing": 5844,
      "iveness": 5845,
      "opened": 5846,
      "ballet": 5847,
      "mighty": 5848,
      "venge": 5849,
      "meaningless": 5850,
      "touched": 5851,
      "effective": 5852,
      "craf": 5853,
      "combinations": 5854,
      "opard": 5855,
      "imply": 5856,
      "chairs": 5857,
      "reaches": 5858,
      "pathway": 5859,
      "jumping": 5860,
      "indicating": 5861,
      "absolute": 5862,
      "ribbons": 5863,
      "threw": 5864,
      "protected": 5865,
      "dainty": 5866,
      "dense": 5867,
      "sexuality": 5868,
      "fascinated": 5869,
      "bananas": 5870,
      "neatly": 5871,
      "freaky": 5872,
      "seascape": 5873,
      "breakfast": 5874,
      "smells": 5875,
      "slide": 5876,
      "hollow": 5877,
      "distressing": 5878,
      "precision": 5879,
      "punishment": 5880,
      "separated": 5881,
      "fantastical": 5882,
      "adore": 5883,
      "illuminated": 5884,
      "sneaking": 5885,
      "predomin": 5886,
      "garbage": 5887,
      "judgement": 5888,
      "oppressive": 5889,
      "amidst": 5890,
      "electric": 5891,
      "patriotic": 5892,
      "assortment": 5893,
      "physically": 5894,
      "landscapes": 5895,
      "claustrophobic": 5896,
      "costumes": 5897,
      "rudimentary": 5898,
      "chocolate": 5899,
      "contemporary": 5900,
      "magaz": 5901,
      "70s": 5902,
      "aust": 5903,
      "bund": 5904,
      "cart": 5905,
      "dual": 5906,
      "egy": 5907,
      "flight": 5908,
      "hh": 5909,
      "mult": 5910,
      "phe": 5911,
      "pti": 5912,
      "vent": 5913,
      "yo": 5914,
      "thous": 5915,
      "inity": 5916,
      "infin": 5917,
      "revel": 5918,
      "essence": 5919,
      "meh": 5920,
      "search": 5921,
      "aly": 5922,
      "alco": 5923,
      "leopard": 5924,
      "enced": 5925,
      "beams": 5926,
      "mast": 5927,
      "haven": 5928,
      "mansion": 5929,
      "peak": 5930,
      "assuming": 5931,
      "veled": 5932,
      "chi": 5933,
      "changed": 5934,
      "role": 5935,
      "robot": 5936,
      "robed": 5937,
      "aby": 5938,
      "unfortun": 5939,
      "bla": 5940,
      "exhi": 5941,
      "expressing": 5942,
      "shut": 5943,
      "shimmer": 5944,
      "butts": 5945,
      "gogh": 5946,
      "pla": 5947,
      "plates": 5948,
      "docu": 5949,
      "weigh": 5950,
      "shepher": 5951,
      "comput": 5952,
      "holes": 5953,
      "hoping": 5954,
      "laund": 5955,
      "strings": 5956,
      "bye": 5957,
      "cany": 5958,
      "prefer": 5959,
      "personally": 5960,
      "treat": 5961,
      "perched": 5962,
      "provo": 5963,
      "bugs": 5964,
      "team": 5965,
      "temp": 5966,
      "horn": 5967,
      "diam": 5968,
      "embo": 5969,
      "blouse": 5970,
      "cube": 5971,
      "ignoring": 5972,
      "views": 5973,
      "waist": 5974,
      "pristine": 5975,
      "choose": 5976,
      "cracks": 5977,
      "aston": 5978,
      "hiking": 5979,
      "hips": 5980,
      "hardly": 5981,
      "turtle": 5982,
      "suggestive": 5983,
      "interpre": 5984,
      "medical": 5985,
      "airy": 5986,
      "flock": 5987,
      "matched": 5988,
      "couples": 5989,
      "steady": 5990,
      "circum": 5991,
      "yourself": 5992,
      "fireworks": 5993,
      "melt": 5994,
      "meaningful": 5995,
      "satin": 5996,
      "leaders": 5997,
      "cram": 5998,
      "gotten": 5999,
      "rolled": 6000,
      "drooping": 6001,
      "patience": 6002,
      "believ": 6003,
      "skulls": 6004,
      "appreciation": 6005,
      "miles": 6006,
      "growth": 6007,
      "comfortably": 6008,
      "slanted": 6009,
      "decorations": 6010,
      "entertained": 6011,
      "scribble": 6012,
      "numerous": 6013,
      "slavery": 6014,
      "vagu": 6015,
      "dotted": 6016,
      "rises": 6017,
      "sorrowful": 6018,
      "thorns": 6019,
      "distracted": 6020,
      "emphasis": 6021,
      "emphasizes": 6022,
      "honest": 6023,
      "stretch": 6024,
      "wrinkled": 6025,
      "roots": 6026,
      "radiating": 6027,
      "realized": 6028,
      "desperation": 6029,
      "salt": 6030,
      "smudged": 6031,
      "easter": 6032,
      "eastern": 6033,
      "film": 6034,
      "drugs": 6035,
      "peacful": 6036,
      "villagers": 6037,
      "personalities": 6038,
      "pyramid": 6039,
      "pollution": 6040,
      "stabbed": 6041,
      "dusty": 6042,
      "reinforces": 6043,
      "answer": 6044,
      "brutal": 6045,
      "groups": 6046,
      "contribute": 6047,
      "peasant": 6048,
      "ultimately": 6049,
      "peacock": 6050,
      "twilight": 6051,
      "astounding": 6052,
      "spectacular": 6053,
      "wanna": 6054,
      "wistful": 6055,
      "secluded": 6056,
      "maintain": 6057,
      "york": 6058,
      "laundry": 6059,
      "00s": 6060,
      "10": 6061,
      "bark": 6062,
      "blotchy": 6063,
      "cattle": 6064,
      "dun": 6065,
      "eac": 6066,
      "fy": 6067,
      "fist": 6068,
      "gang": 6069,
      "ggy": 6070,
      "kno": 6071,
      "mount": 6072,
      "ptic": 6073,
      "ran": 6074,
      "sple": 6075,
      "tile": 6076,
      "tasks": 6077,
      "uma": 6078,
      "xic": 6079,
      "locked": 6080,
      "itali": 6081,
      "meld": 6082,
      "lified": 6083,
      "armed": 6084,
      "ald": 6085,
      "alright": 6086,
      "states": 6087,
      "orch": 6088,
      "envision": 6089,
      "coy": 6090,
      "mail": 6091,
      "mathem": 6092,
      "feat": 6093,
      "icle": 6094,
      "haughty": 6095,
      "whis": 6096,
      "peter": 6097,
      "vern": 6098,
      "deck": 6099,
      "rob": 6100,
      "conscious": 6101,
      "movi": 6102,
      "unable": 6103,
      "unless": 6104,
      "unfriendly": 6105,
      "blast": 6106,
      "exposing": 6107,
      "acky": 6108,
      "enter": 6109,
      "entering": 6110,
      "enticing": 6111,
      "grues": 6112,
      "antique": 6113,
      "weeping": 6114,
      "pover": 6115,
      "commotion": 6116,
      "commer": 6117,
      "compet": 6118,
      "laven": 6119,
      "worris": 6120,
      "ulate": 6121,
      "linear": 6122,
      "spin": 6123,
      "prest": 6124,
      "treated": 6125,
      "tyle": 6126,
      "discontent": 6127,
      "disinterested": 6128,
      "disconcer": 6129,
      "evident": 6130,
      "perception": 6131,
      "differences": 6132,
      "ruin": 6133,
      "anymore": 6134,
      "gest": 6135,
      "tablet": 6136,
      "sell": 6137,
      "sels": 6138,
      "centre": 6139,
      "waking": 6140,
      "underwhel": 6141,
      "cler": 6142,
      "cracked": 6143,
      "astic": 6144,
      "brewing": 6145,
      "pursed": 6146,
      "winding": 6147,
      "softly": 6148,
      "meanings": 6149,
      "system": 6150,
      "warf": 6151,
      "cuts": 6152,
      "chain": 6153,
      "lessly": 6154,
      "airplane": 6155,
      "restful": 6156,
      "shovel": 6157,
      "curve": 6158,
      "corn": 6159,
      "trav": 6160,
      "stein": 6161,
      "pointy": 6162,
      "pasture": 6163,
      "layer": 6164,
      "collap": 6165,
      "split": 6166,
      "baskets": 6167,
      "transition": 6168,
      "archway": 6169,
      "expressed": 6170,
      "burdened": 6171,
      "messed": 6172,
      "geometrical": 6173,
      "farmers": 6174,
      "engine": 6175,
      "passes": 6176,
      "inspect": 6177,
      "exploding": 6178,
      "panic": 6179,
      "respected": 6180,
      "indicated": 6181,
      "techni": 6182,
      "travelers": 6183,
      "species": 6184,
      "rotten": 6185,
      "mirrors": 6186,
      "vacant": 6187,
      "juicy": 6188,
      "decision": 6189,
      "entertainment": 6190,
      "swirl": 6191,
      "victory": 6192,
      "bulls": 6193,
      "occup": 6194,
      "illustrated": 6195,
      "stains": 6196,
      "focusing": 6197,
      "monet": 6198,
      "luck": 6199,
      "privile": 6200,
      "irritating": 6201,
      "masterpiece": 6202,
      "beaten": 6203,
      "uminous": 6204,
      "stretching": 6205,
      "practicing": 6206,
      "billowing": 6207,
      "christianity": 6208,
      "defeat": 6209,
      "temple": 6210,
      "featured": 6211,
      "bothers": 6212,
      "apparently": 6213,
      "pulls": 6214,
      "students": 6215,
      "doubt": 6216,
      "nestled": 6217,
      "target": 6218,
      "wandering": 6219,
      "passen": 6220,
      "decaying": 6221,
      "terrified": 6222,
      "patiently": 6223,
      "blonde": 6224,
      "gallery": 6225,
      "interrupted": 6226,
      "lipstick": 6227,
      "leisurely": 6228,
      "downt": 6229,
      "weathered": 6230,
      "routine": 6231,
      "embarrassed": 6232,
      "recently": 6233,
      "swallowed": 6234,
      "architectural": 6235,
      "chasing": 6236,
      "david": 6237,
      "chimney": 6238,
      "magazine": 6239,
      "computer": 6240,
      "italian": 6241,
      "movies": 6242,
      "gruesome": 6243,
      "lavender": 6244,
      "worrisome": 6245,
      "disconcerting": 6246,
      "15": 6247,
      "100": 6248,
      "bis": 6249,
      "bery": 6250,
      "drif": 6251,
      "fal": 6252,
      "fanc": 6253,
      "ffed": 6254,
      "gas": 6255,
      "gart": 6256,
      "hut": 6257,
      "iable": 6258,
      "iose": 6259,
      "later": 6260,
      "nip": 6261,
      "ote": 6262,
      "obes": 6263,
      "opu": 6264,
      "tat": 6265,
      "tents": 6266,
      "tangled": 6267,
      "thod": 6268,
      "inde": 6269,
      "inely": 6270,
      "infect": 6271,
      "errat": 6272,
      "ergart": 6273,
      "mere": 6274,
      "method": 6275,
      "toe": 6276,
      "seat": 6277,
      "seph": 6278,
      "lice": 6279,
      "oker": 6280,
      "stamp": 6281,
      "beha": 6282,
      "hamed": 6283,
      "wheat": 6284,
      "paid": 6285,
      "ashamed": 6286,
      "deb": 6287,
      "raise": 6288,
      "rie": 6289,
      "ripped": 6290,
      "riot": 6291,
      "conce": 6292,
      "mote": 6293,
      "uncan": 6294,
      "unorganized": 6295,
      "bliss": 6296,
      "exer": 6297,
      "scal": 6298,
      "ounced": 6299,
      "capped": 6300,
      "ppling": 6301,
      "grat": 6302,
      "igno": 6303,
      "suits": 6304,
      "sudden": 6305,
      "pope": 6306,
      "contact": 6307,
      "contract": 6308,
      "compre": 6309,
      "hother": 6310,
      "bru": 6311,
      "ills": 6312,
      "spi": 6313,
      "spreading": 6314,
      "oversized": 6315,
      "disco": 6316,
      "discover": 6317,
      "kings": 6318,
      "evoked": 6319,
      "joseph": 6320,
      "etched": 6321,
      "gum": 6322,
      "headache": 6323,
      "nails": 6324,
      "herent": 6325,
      "teach": 6326,
      "offputting": 6327,
      "realm": 6328,
      "anyway": 6329,
      "stood": 6330,
      "kindergart": 6331,
      "abstraction": 6332,
      "psided": 6333,
      "monks": 6334,
      "surely": 6335,
      "borders": 6336,
      "carving": 6337,
      "senti": 6338,
      "clashing": 6339,
      "clarity": 6340,
      "crus": 6341,
      "brownish": 6342,
      "vibrate": 6343,
      "tors": 6344,
      "zebra": 6345,
      "apper": 6346,
      "cheap": 6347,
      "invis": 6348,
      "grade": 6349,
      "nighttime": 6350,
      "visited": 6351,
      "elementary": 6352,
      "elegance": 6353,
      "trait": 6354,
      "steal": 6355,
      "stepping": 6356,
      "stealing": 6357,
      "sketchy": 6358,
      "tribal": 6359,
      "pedes": 6360,
      "fail": 6361,
      "failed": 6362,
      "bald": 6363,
      "casts": 6364,
      "richness": 6365,
      "married": 6366,
      "identif": 6367,
      "hangs": 6368,
      "burden": 6369,
      "cleaning": 6370,
      "opy": 6371,
      "miracle": 6372,
      "markings": 6373,
      "barefoot": 6374,
      "sculptures": 6375,
      "earthly": 6376,
      "keys": 6377,
      "jumps": 6378,
      "skillful": 6379,
      "truth": 6380,
      "freezing": 6381,
      "experiment": 6382,
      "adventures": 6383,
      "hunger": 6384,
      "gency": 6385,
      "china": 6386,
      "skele": 6387,
      "banana": 6388,
      "connecting": 6389,
      "decorative": 6390,
      "melancholic": 6391,
      "cardboard": 6392,
      "wrap": 6393,
      "umpy": 6394,
      "conditions": 6395,
      "knights": 6396,
      "punished": 6397,
      "dominate": 6398,
      "dominates": 6399,
      "distinctive": 6400,
      "exists": 6401,
      "emphasize": 6402,
      "porch": 6403,
      "porno": 6404,
      "swan": 6405,
      "smirking": 6406,
      "stressful": 6407,
      "bonding": 6408,
      "accomplish": 6409,
      "transport": 6410,
      "continue": 6411,
      "problem": 6412,
      "impressively": 6413,
      "label": 6414,
      "passage": 6415,
      "response": 6416,
      "expansive": 6417,
      "revolution": 6418,
      "pillows": 6419,
      "trunks": 6420,
      "microscope": 6421,
      "scientific": 6422,
      "reclining": 6423,
      "rhyme": 6424,
      "divided": 6425,
      "professional": 6426,
      "motif": 6427,
      "pumpkin": 6428,
      "utilized": 6429,
      "bluish": 6430,
      "lifestyle": 6431,
      "george": 6432,
      "disciples": 6433,
      "television": 6434,
      "emanating": 6435,
      "tapestry": 6436,
      "reassuring": 6437,
      "russian": 6438,
      "jelly": 6439,
      "scenario": 6440,
      "eachother": 6441,
      "poverty": 6442,
      "uncanny": 6443,
      "bat": 6444,
      "blot": 6445,
      "broom": 6446,
      "bride": 6447,
      "dge": 6448,
      "dain": 6449,
      "dely": 6450,
      "eery": 6451,
      "gam": 6452,
      "gap": 6453,
      "hon": 6454,
      "ime": 6455,
      "kit": 6456,
      "kale": 6457,
      "mim": 6458,
      "mart": 6459,
      "matt": 6460,
      "olive": 6461,
      "pis": 6462,
      "pounce": 6463,
      "rac": 6464,
      "sar": 6465,
      "slic": 6466,
      "slaying": 6467,
      "sassy": 6468,
      "vit": 6469,
      "wicked": 6470,
      "ye": 6471,
      "yuck": 6472,
      "inappropriate": 6473,
      "thes": 6474,
      "retro": 6475,
      "lopsided": 6476,
      "ande": 6477,
      "onounced": 6478,
      "mechan": 6479,
      "tocks": 6480,
      "sewing": 6481,
      "liar": 6482,
      "libr": 6483,
      "stache": 6484,
      "leap": 6485,
      "enlight": 6486,
      "encounter": 6487,
      "comed": 6488,
      "beam": 6489,
      "bered": 6490,
      "becoming": 6491,
      "mashed": 6492,
      "hable": 6493,
      "decap": 6494,
      "rable": 6495,
      "rip": 6496,
      "iron": 6497,
      "nting": 6498,
      "abuse": 6499,
      "conso": 6500,
      "unfor": 6501,
      "uninterested": 6502,
      "uninviting": 6503,
      "forman": 6504,
      "useless": 6505,
      "entious": 6506,
      "camel": 6507,
      "capable": 6508,
      "buttocks": 6509,
      "goal": 6510,
      "plum": 6511,
      "poop": 6512,
      "hoo": 6513,
      "lakes": 6514,
      "worries": 6515,
      "strict": 6516,
      "skirts": 6517,
      "excess": 6518,
      "excitment": 6519,
      "performan": 6520,
      "donald": 6521,
      "aging": 6522,
      "prosp": 6523,
      "propag": 6524,
      "rayed": 6525,
      "saving": 6526,
      "thrilling": 6527,
      "partner": 6528,
      "assist": 6529,
      "centaur": 6530,
      "pretentious": 6531,
      "clad": 6532,
      "pric": 6533,
      "pronounced": 6534,
      "gaunt": 6535,
      "finery": 6536,
      "applied": 6537,
      "graves": 6538,
      "warning": 6539,
      "chap": 6540,
      "chase": 6541,
      "float": 6542,
      "curls": 6543,
      "coral": 6544,
      "matador": 6545,
      "squir": 6546,
      "berry": 6547,
      "glaring": 6548,
      "steam": 6549,
      "movements": 6550,
      "mixing": 6551,
      "perfection": 6552,
      "careful": 6553,
      "flaming": 6554,
      "intrigues": 6555,
      "popular": 6556,
      "postcard": 6557,
      "stately": 6558,
      "signed": 6559,
      "transl": 6560,
      "heartwarming": 6561,
      "grandfather": 6562,
      "blurr": 6563,
      "focuses": 6564,
      "implied": 6565,
      "cowboy": 6566,
      "cowering": 6567,
      "flame": 6568,
      "moustache": 6569,
      "pipes": 6570,
      "hooded": 6571,
      "yearning": 6572,
      "gripping": 6573,
      "eventually": 6574,
      "skills": 6575,
      "ribbon": 6576,
      "splashed": 6577,
      "rotting": 6578,
      "bearded": 6579,
      "coats": 6580,
      "adoring": 6581,
      "dimensions": 6582,
      "awkwardly": 6583,
      "greeting": 6584,
      "expecting": 6585,
      "clutter": 6586,
      "calling": 6587,
      "casually": 6588,
      "tilt": 6589,
      "vagina": 6590,
      "birthday": 6591,
      "followed": 6592,
      "container": 6593,
      "apartment": 6594,
      "collected": 6595,
      "claim": 6596,
      "stimulate": 6597,
      "hideous": 6598,
      "commanding": 6599,
      "commandments": 6600,
      "provoke": 6601,
      "radiates": 6602,
      "masses": 6603,
      "tempt": 6604,
      "wounds": 6605,
      "peaches": 6606,
      "seasons": 6607,
      "nightmares": 6608,
      "intellect": 6609,
      "villain": 6610,
      "shelter": 6611,
      "pitcher": 6612,
      "energized": 6613,
      "gestures": 6614,
      "dignity": 6615,
      "repeating": 6616,
      "potentially": 6617,
      "junk": 6618,
      "emerging": 6619,
      "blown": 6620,
      "answers": 6621,
      "terribly": 6622,
      "accentuates": 6623,
      "mushrooms": 6624,
      "halluc": 6625,
      "nipples": 6626,
      "cluster": 6627,
      "sinking": 6628,
      "obscure": 6629,
      "scowl": 6630,
      "argument": 6631,
      "devotion": 6632,
      "intertwined": 6633,
      "opera": 6634,
      "damaged": 6635,
      "average": 6636,
      "initially": 6637,
      "swaying": 6638,
      "liquid": 6639,
      "begins": 6640,
      "apprehensive": 6641,
      "civilization": 6642,
      "narrative": 6643,
      "flattering": 6644,
      "technology": 6645,
      "absorbed": 6646,
      "egypti": 6647,
      "thousands": 6648,
      "abyss": 6649,
      "commerci": 6650,
      "nipple": 6651,
      "erratic": 6652,
      "exercise": 6653,
      "invisible": 6654,
      "bact": 6655,
      "biting": 6656,
      "bony": 6657,
      "bicy": 6658,
      "cult": 6659,
      "dent": 6660,
      "daring": 6661,
      "driver": 6662,
      "eag": 6663,
      "gence": 6664,
      "ido": 6665,
      "nour": 6666,
      "piz": 6667,
      "slay": 6668,
      "snap": 6669,
      "ume": 6670,
      "thigh": 6671,
      "ann": 6672,
      "remain": 6673,
      "loom": 6674,
      "alle": 6675,
      "alley": 6676,
      "stam": 6677,
      "stacks": 6678,
      "enem": 6679,
      "engl": 6680,
      "aci": 6681,
      "acles": 6682,
      "coin": 6683,
      "bee": 6684,
      "bem": 6685,
      "becomes": 6686,
      "mage": 6687,
      "feared": 6688,
      "fetti": 6689,
      "icon": 6690,
      "edu": 6691,
      "whom": 6692,
      "verted": 6693,
      "ghou": 6694,
      "dear": 6695,
      "depress": 6696,
      "deliber": 6697,
      "chance": 6698,
      "rape": 6699,
      "seek": 6700,
      "conta": 6701,
      "conception": 6702,
      "confetti": 6703,
      "indul": 6704,
      "unic": 6705,
      "unaware": 6706,
      "blade": 6707,
      "forboding": 6708,
      "explan": 6709,
      "imperfect": 6710,
      "entry": 6711,
      "thern": 6712,
      "urgency": 6713,
      "ceive": 6714,
      "shack": 6715,
      "cting": 6716,
      "pics": 6717,
      "sumo": 6718,
      "ously": 6719,
      "shawl": 6720,
      "comically": 6721,
      "comfy": 6722,
      "hosp": 6723,
      "hockey": 6724,
      "mentally": 6725,
      "worst": 6726,
      "strand": 6727,
      "justice": 6728,
      "backs": 6729,
      "bygone": 6730,
      "angling": 6731,
      "mens": 6732,
      "attent": 6733,
      "attend": 6734,
      "upsets": 6735,
      "ulated": 6736,
      "six": 6737,
      "tier": 6738,
      "spr": 6739,
      "splotch": 6740,
      "overdone": 6741,
      "tyard": 6742,
      "disease": 6743,
      "disorder": 6744,
      "draft": 6745,
      "draping": 6746,
      "perse": 6747,
      "mug": 6748,
      "angered": 6749,
      "rum": 6750,
      "guide": 6751,
      "guards": 6752,
      "nailed": 6753,
      "sidewalk": 6754,
      "bucket": 6755,
      "stopped": 6756,
      "horri": 6757,
      "diverse": 6758,
      "dingy": 6759,
      "partying": 6760,
      "centric": 6761,
      "underwater": 6762,
      "underwear": 6763,
      "gazes": 6764,
      "hike": 6765,
      "breaks": 6766,
      "final": 6767,
      "patterned": 6768,
      "phen": 6769,
      "turqu": 6770,
      "ashed": 6771,
      "chained": 6772,
      "ffic": 6773,
      "shocking": 6774,
      "highlighting": 6775,
      "corpse": 6776,
      "alice": 6777,
      "alization": 6778,
      "streak": 6779,
      "glare": 6780,
      "complementary": 6781,
      "stee": 6782,
      "mistake": 6783,
      "aftermath": 6784,
      "layered": 6785,
      "obli": 6786,
      "obst": 6787,
      "kenned": 6788,
      "summers": 6789,
      "countries": 6790,
      "column": 6791,
      "balancing": 6792,
      "mson": 6793,
      "pallete": 6794,
      "crows": 6795,
      "marvel": 6796,
      "violet": 6797,
      "spoon": 6798,
      "valent": 6799,
      "silk": 6800,
      "arched": 6801,
      "sublime": 6802,
      "grandparents": 6803,
      "grandiose": 6804,
      "depths": 6805,
      "otes": 6806,
      "churches": 6807,
      "advan": 6808,
      "intricately": 6809,
      "intricacy": 6810,
      "breastfeeding": 6811,
      "south": 6812,
      "paths": 6813,
      "rowing": 6814,
      "skillfully": 6815,
      "welcome": 6816,
      "celebratory": 6817,
      "smear": 6818,
      "garish": 6819,
      "suffer": 6820,
      "banner": 6821,
      "scream": 6822,
      "opport": 6823,
      "scribbling": 6824,
      "aliens": 6825,
      "courtyard": 6826,
      "crime": 6827,
      "symbolizing": 6828,
      "luscious": 6829,
      "hyp": 6830,
      "fashionable": 6831,
      "allowed": 6832,
      "promise": 6833,
      "claws": 6834,
      "buttons": 6835,
      "questioning": 6836,
      "ponder": 6837,
      "pondering": 6838,
      "metallic": 6839,
      "projects": 6840,
      "islands": 6841,
      "juxtaposed": 6842,
      "dolls": 6843,
      "radiant": 6844,
      "harvesting": 6845,
      "polka": 6846,
      "lettering": 6847,
      "rules": 6848,
      "remembering": 6849,
      "extravag": 6850,
      "extraordinary": 6851,
      "nuns": 6852,
      "equally": 6853,
      "highlighted": 6854,
      "transparent": 6855,
      "possess": 6856,
      "bubbles": 6857,
      "received": 6858,
      "wander": 6859,
      "vinci": 6860,
      "hopelessness": 6861,
      "macab": 6862,
      "successful": 6863,
      "abundant": 6864,
      "survive": 6865,
      "device": 6866,
      "doodle": 6867,
      "contours": 6868,
      "nauseating": 6869,
      "eccentric": 6870,
      "trunk": 6871,
      "jackson": 6872,
      "enchanting": 6873,
      "convention": 6874,
      "shroud": 6875,
      "crayon": 6876,
      "wrestling": 6877,
      "majority": 6878,
      "conjures": 6879,
      "exceptional": 6880,
      "baptism": 6881,
      "railroad": 6882,
      "softer": 6883,
      "chatting": 6884,
      "fragmented": 6885,
      "clasped": 6886,
      "multitude": 6887,
      "provocative": 6888,
      "vaguely": 6889,
      "travelling": 6890,
      "techniques": 6891,
      "fanciful": 6892,
      "indeed": 6893,
      "skeletal": 6894,
      "decapitated": 6895,
      "performance": 6896,
      "propaganda": 6897,
      "blurriness": 6898,
      "pizza": 6899,
      "enemies": 6900,
      "english": 6901,
      "contagious": 6902,
      "kennedy": 6903,
      ".)": 6904,
      "60": 6905,
      "ail": 6906,
      "alous": 6907,
      "bend": 6908,
      "dapper": 6909,
      "fk": 6910,
      "gli": 6911,
      "gments": 6912,
      "groo": 6913,
      "hence": 6914,
      "ji": 6915,
      "kk": 6916,
      "lat": 6917,
      "luminous": 6918,
      "mm": 6919,
      "mme": 6920,
      "mery": 6921,
      "nal": 6922,
      "oly": 6923,
      "oise": 6924,
      "pou": 6925,
      "pine": 6926,
      "phi": 6927,
      "punch": 6928,
      "praising": 6929,
      "racing": 6930,
      "swo": 6931,
      "swa": 6932,
      "sque": 6933,
      "snu": 6934,
      "smel": 6935,
      "tables": 6936,
      "wrist": 6937,
      "yelling": 6938,
      "inves": 6939,
      "revenge": 6940,
      "tood": 6941,
      "secur": 6942,
      "lily": 6943,
      "lift": 6944,
      "arc": 6945,
      "allic": 6946,
      "altern": 6947,
      "ency": 6948,
      "encoura": 6949,
      "access": 6950,
      "colic": 6951,
      "cooked": 6952,
      "copy": 6953,
      "beer": 6954,
      "beak": 6955,
      "mag": 6956,
      "ication": 6957,
      "iconic": 6958,
      "edgy": 6959,
      "pecu": 6960,
      "heck": 6961,
      "depending": 6962,
      "furious": 6963,
      "veil": 6964,
      "velous": 6965,
      "lywood": 6966,
      "chun": 6967,
      "wiel": 6968,
      "riage": 6969,
      "rocking": 6970,
      "wore": 6971,
      "absence": 6972,
      "congr": 6973,
      "consum": 6974,
      "condu": 6975,
      "noise": 6976,
      "nobility": 6977,
      "moss": 6978,
      "blings": 6979,
      "ford": 6980,
      "scor": 6981,
      "resur": 6982,
      "redness": 6983,
      "shark": 6984,
      "caps": 6985,
      "artic": 6986,
      "tures": 6987,
      "anti": 6988,
      "suf": 6989,
      "doo": 6990,
      "ifying": 6991,
      "pots": 6992,
      "controlling": 6993,
      "idance": 6994,
      "hasn": 6995,
      "sadly": 6996,
      "bron": 6997,
      "strands": 6998,
      "appeared": 6999,
      "upwards": 7000,
      "lightly": 7001,
      "tip": 7002,
      "closet": 7003,
      "closing": 7004,
      "overpower": 7005,
      "overgrown": 7006,
      "treasure": 7007,
      "disdain": 7008,
      "waterway": 7009,
      "send": 7010,
      "daydreaming": 7011,
      "smoky": 7012,
      "interestingly": 7013,
      "ettes": 7014,
      "ruck": 7015,
      "rushed": 7016,
      "prostit": 7017,
      "bucolic": 7018,
      "togetherness": 7019,
      "dip": 7020,
      "diagram": 7021,
      "whenever": 7022,
      "clearing": 7023,
      "selling": 7024,
      "viewers": 7025,
      "mountainous": 7026,
      "wax": 7027,
      "pretending": 7028,
      "printed": 7029,
      "afar": 7030,
      "gau": 7031,
      "served": 7032,
      "roundness": 7033,
      "finely": 7034,
      "pinkish": 7035,
      "earlier": 7036,
      "empow": 7037,
      "phallic": 7038,
      "charging": 7039,
      "grape": 7040,
      "gravey": 7041,
      "golds": 7042,
      "sterile": 7043,
      "awest": 7044,
      "homely": 7045,
      "morose": 7046,
      "merry": 7047,
      "glued": 7048,
      "hatred": 7049,
      "steep": 7050,
      "length": 7051,
      "needing": 7052,
      "asymme": 7053,
      "harder": 7054,
      "ivory": 7055,
      "trium": 7056,
      "runs": 7057,
      "framed": 7058,
      "grasses": 7059,
      "palpable": 7060,
      "battlefield": 7061,
      "speck": 7062,
      "didnt": 7063,
      "richly": 7064,
      "sharpness": 7065,
      "marvelous": 7066,
      "marriage": 7067,
      "foods": 7068,
      "schemes": 7069,
      "crab": 7070,
      "bursting": 7071,
      "cleaned": 7072,
      "sickness": 7073,
      "dropping": 7074,
      "placing": 7075,
      "dining": 7076,
      "wishing": 7077,
      "plans": 7078,
      "planned": 7079,
      "ladder": 7080,
      "multicolored": 7081,
      "pane": 7082,
      "roads": 7083,
      "rowed": 7084,
      "elegantly": 7085,
      "madness": 7086,
      "itarian": 7087,
      "rolls": 7088,
      "memorable": 7089,
      "shirtless": 7090,
      "football": 7091,
      "adorned": 7092,
      "threatened": 7093,
      "banks": 7094,
      "vicious": 7095,
      "neglect": 7096,
      "splattering": 7097,
      "jealous": 7098,
      "crimson": 7099,
      "hollywood": 7100,
      "destination": 7101,
      "milling": 7102,
      "starving": 7103,
      "starring": 7104,
      "masterful": 7105,
      "lemonade": 7106,
      "models": 7107,
      "observing": 7108,
      "physi": 7109,
      "examine": 7110,
      "provokes": 7111,
      "gowns": 7112,
      "beasts": 7113,
      "bags": 7114,
      "expresses": 7115,
      "scrap": 7116,
      "illuminates": 7117,
      "procession": 7118,
      "chief": 7119,
      "bothering": 7120,
      "snack": 7121,
      "musicians": 7122,
      "presuma": 7123,
      "exhaustion": 7124,
      "stabbing": 7125,
      "sparkling": 7126,
      "liberty": 7127,
      "gloominess": 7128,
      "wilting": 7129,
      "gifts": 7130,
      "sailors": 7131,
      "responsi": 7132,
      "expanse": 7133,
      "blond": 7134,
      "grasp": 7135,
      "cuddling": 7136,
      "ruffles": 7137,
      "checker": 7138,
      "rapid": 7139,
      "slaught": 7140,
      "instills": 7141,
      "rescue": 7142,
      "sculpted": 7143,
      "beliefs": 7144,
      "pirate": 7145,
      "rhino": 7146,
      "issue": 7147,
      "distortion": 7148,
      "imaginative": 7149,
      "loyal": 7150,
      "selection": 7151,
      "colonial": 7152,
      "chalk": 7153,
      "monument": 7154,
      "genuine": 7155,
      "official": 7156,
      "alcohol": 7157,
      "shimmering": 7158,
      "document": 7159,
      "canyon": 7160,
      "splend": 7161,
      "obese": 7162,
      "discovery": 7163,
      "kaleido": 7164,
      "library": 7165,
      "priceless": 7166,
      "eagle": 7167,
      "phenomen": 7168,
      "advantage": 7169,
      "hypnot": 7170,
      "macabre": 7171,
      "peculiar": 7172,
      "resurrect": 7173,
      "graveyard": 7174,
      "\",": 7175,
      "90": 7176,
      "ax": 7177,
      "alo": 7178,
      "aqu": 7179,
      "awake": 7180,
      "apathetic": 7181,
      "bac": 7182,
      "cit": 7183,
      "coff": 7184,
      "cared": 7185,
      "cities": 7186,
      "dict": 7187,
      "emo": 7188,
      "ius": 7189,
      "imed": 7190,
      "iot": 7191,
      "jam": 7192,
      "jfk": 7193,
      "las": 7194,
      "mr": 7195,
      "oon": 7196,
      "osing": 7197,
      "poking": 7198,
      "sno": 7199,
      "sill": 7200,
      "sash": 7201,
      "tad": 7202,
      "trol": 7203,
      "uity": 7204,
      "uated": 7205,
      "vain": 7206,
      "thro": 7207,
      "thir": 7208,
      "thunder": 7209,
      "thent": 7210,
      "analy": 7211,
      "remor": 7212,
      "loc": 7213,
      "andro": 7214,
      "err": 7215,
      "eria": 7216,
      "escap": 7217,
      "atical": 7218,
      "tous": 7219,
      "seal": 7220,
      "lia": 7221,
      "lich": 7222,
      "alter": 7223,
      "alarming": 7224,
      "sti": 7225,
      "orting": 7226,
      "orating": 7227,
      "elvis": 7228,
      "ende": 7229,
      "covid": 7230,
      "beady": 7231,
      "beating": 7232,
      "begg": 7233,
      "bewil": 7234,
      "ician": 7235,
      "hast": 7236,
      "hael": 7237,
      "haze": 7238,
      "intro": 7239,
      "intru": 7240,
      "intest": 7241,
      "mankind": 7242,
      "manger": 7243,
      "whirl": 7244,
      "paiting": 7245,
      "hearing": 7246,
      "dejected": 7247,
      "veh": 7248,
      "raffe": 7249,
      "consu": 7250,
      "congre": 7251,
      "consuming": 7252,
      "indo": 7253,
      "modes": 7254,
      "mock": 7255,
      "moments": 7256,
      "mocking": 7257,
      "motiv": 7258,
      "uncle": 7259,
      "unnaturally": 7260,
      "blacked": 7261,
      "forcing": 7262,
      "outcome": 7263,
      "outlined": 7264,
      "outstretched": 7265,
      "bod": 7266,
      "bol": 7267,
      "reser": 7268,
      "pically": 7269,
      "tape": 7270,
      "goose": 7271,
      "gothic": 7272,
      "grit": 7273,
      "suspect": 7274,
      "plag": 7275,
      "weeds": 7276,
      "ids": 7277,
      "shady": 7278,
      "hopes": 7279,
      "lav": 7280,
      "giraffe": 7281,
      "brit": 7282,
      "strous": 7283,
      "backyard": 7284,
      "brighten": 7285,
      "angst": 7286,
      "mend": 7287,
      "upright": 7288,
      "silent": 7289,
      "silence": 7290,
      "siblings": 7291,
      "tizing": 7292,
      "sport": 7293,
      "spying": 7294,
      "creases": 7295,
      "overcome": 7296,
      "interests": 7297,
      "watercolors": 7298,
      "literal": 7299,
      "lonesome": 7300,
      "greenish": 7301,
      "showed": 7302,
      "showcas": 7303,
      "rude": 7304,
      "guests": 7305,
      "headpiece": 7306,
      "artistry": 7307,
      "teh": 7308,
      "differently": 7309,
      "goods": 7310,
      "goodbye": 7311,
      "wonderment": 7312,
      "anybody": 7313,
      "stolen": 7314,
      "stopping": 7315,
      "ssing": 7316,
      "greater": 7317,
      "parting": 7318,
      "bloated": 7319,
      "haircut": 7320,
      "track": 7321,
      "handing": 7322,
      "monstrous": 7323,
      "mountainside": 7324,
      "undertone": 7325,
      "motherly": 7326,
      "motherhood": 7327,
      "tick": 7328,
      "crit": 7329,
      "pengu": 7330,
      "serve": 7331,
      "formations": 7332,
      "eyeballs": 7333,
      "walked": 7334,
      "application": 7335,
      "migr": 7336,
      "invig": 7337,
      "invitation": 7338,
      "turkey": 7339,
      "turban": 7340,
      "realistically": 7341,
      "intersting": 7342,
      "rooms": 7343,
      "powers": 7344,
      "rests": 7345,
      "shock": 7346,
      "curving": 7347,
      "compon": 7348,
      "corpor": 7349,
      "alia": 7350,
      "priests": 7351,
      "complements": 7352,
      "tram": 7353,
      "traffic": 7354,
      "bowls": 7355,
      "studi": 7356,
      "missive": 7357,
      "misplaced": 7358,
      "wooded": 7359,
      "depend": 7360,
      "laughter": 7361,
      "storms": 7362,
      "kend": 7363,
      "harp": 7364,
      "simplified": 7365,
      "tribe": 7366,
      "frail": 7367,
      "godly": 7368,
      "crudely": 7369,
      "castles": 7370,
      "spears": 7371,
      "signal": 7372,
      "authent": 7373,
      "prayers": 7374,
      "marsh": 7375,
      "brook": 7376,
      "tenstein": 7377,
      "cartoons": 7378,
      "cartoony": 7379,
      "silky": 7380,
      "archy": 7381,
      "heartbreaking": 7382,
      "crawl": 7383,
      "barbed": 7384,
      "paralle": 7385,
      "gardens": 7386,
      "walkway": 7387,
      "impat": 7388,
      "impact": 7389,
      "england": 7390,
      "flav": 7391,
      "taller": 7392,
      "advice": 7393,
      "marker": 7394,
      "mouths": 7395,
      "rainbows": 7396,
      "gnar": 7397,
      "quilt": 7398,
      "planes": 7399,
      "furrowed": 7400,
      "generates": 7401,
      "generations": 7402,
      "technical": 7403,
      "cups": 7404,
      "potato": 7405,
      "grows": 7406,
      "mirroring": 7407,
      "denotes": 7408,
      "globe": 7409,
      "gloves": 7410,
      "reveals": 7411,
      "intimacy": 7412,
      "rats": 7413,
      "octop": 7414,
      "devilish": 7415,
      "cultures": 7416,
      "provided": 7417,
      "slime": 7418,
      "rusty": 7419,
      "learned": 7420,
      "tastes": 7421,
      "smoothness": 7422,
      "troubles": 7423,
      "irritation": 7424,
      "producing": 7425,
      "desolation": 7426,
      "separation": 7427,
      "brilliantly": 7428,
      "conflicting": 7429,
      "napkin": 7430,
      "michael": 7431,
      "saints": 7432,
      "peek": 7433,
      "graininess": 7434,
      "practically": 7435,
      "materials": 7436,
      "tightly": 7437,
      "youthful": 7438,
      "washington": 7439,
      "cherubic": 7440,
      "jewels": 7441,
      "arrogance": 7442,
      "president": 7443,
      "arousal": 7444,
      "coastal": 7445,
      "distinguish": 7446,
      "sparks": 7447,
      "arriving": 7448,
      "haphazardly": 7449,
      "achieved": 7450,
      "campbell": 7451,
      "mortality": 7452,
      "regardless": 7453,
      "disappointment": 7454,
      "inducing": 7455,
      "genitalia": 7456,
      "accentuate": 7457,
      "cello": 7458,
      "stems": 7459,
      "sombre": 7460,
      "teenager": 7461,
      "townspeople": 7462,
      "acceptable": 7463,
      "disoriented": 7464,
      "thanksgiving": 7465,
      "enhance": 7466,
      "weekend": 7467,
      "crayons": 7468,
      "demonstrates": 7469,
      "shells": 7470,
      "influence": 7471,
      "detached": 7472,
      "evocative": 7473,
      "brothers": 7474,
      "voyage": 7475,
      "marilyn": 7476,
      "optimistic": 7477,
      "sagging": 7478,
      "acceptance": 7479,
      "ballerina": 7480,
      "cabbage": 7481,
      "bountiful": 7482,
      "bomb": 7483,
      "spanish": 7484,
      "cradling": 7485,
      "inhabitants": 7486,
      "mythology": 7487,
      "infinite": 7488,
      "exhibit": 7489,
      "astonishing": 7490,
      "circumstances": 7491,
      "clergy": 7492,
      "passengers": 7493,
      "kindergarten": 7494,
      "pedestal": 7495,
      "consoling": 7496,
      "egyptian": 7497,
      "bacteria": 7498,
      "bemused": 7499,
      "education": 7500,
      "unicorn": 7501,
      "turquoise": 7502,
      "conventional": 7503,
      "olym": 7504,
      "security": 7505,
      "awestruck": 7506,
      "triumph": 7507,
      "physique": 7508,
      "presumably": 7509,
      "kaleidoscope": 7510,
      "coffin": 7511,
      "trolley": 7512,
      "escaping": 7513,
      "lichtenstein": 7514,
      "bewildered": 7515,
      "17": 7516,
      "2d": 7517,
      "70": 7518,
      "?!": 7519,
      "aqua": 7520,
      "bill": 7521,
      "bidden": 7522,
      "cact": 7523,
      "cles": 7524,
      "dumb": 7525,
      "dande": 7526,
      "ech": 7527,
      "fres": 7528,
      "font": 7529,
      "gly": 7530,
      "gay": 7531,
      "hend": 7532,
      "ium": 7533,
      "jer": 7534,
      "joker": 7535,
      "knot": 7536,
      "labo": 7537,
      "lane": 7538,
      "mit": 7539,
      "mish": 7540,
      "ore": 7541,
      "ops": 7542,
      "piled": 7543,
      "panting": 7544,
      "swatches": 7545,
      "tons": 7546,
      "tans": 7547,
      "uing": 7548,
      "wag": 7549,
      "xi": 7550,
      "yr": 7551,
      "zone": 7552,
      "zig": 7553,
      "ziness": 7554,
      "tha": 7555,
      "thie": 7556,
      "inery": 7557,
      "inhuman": 7558,
      "rep": 7559,
      "ret": 7560,
      "relea": 7561,
      "reactions": 7562,
      "recreation": 7563,
      "inge": 7564,
      "erity": 7565,
      "onward": 7566,
      "tock": 7567,
      "sequ": 7568,
      "seper": 7569,
      "lil": 7570,
      "liking": 7571,
      "arian": 7572,
      "kening": 7573,
      "allowing": 7574,
      "alities": 7575,
      "ordered": 7576,
      "ortho": 7577,
      "elated": 7578,
      "enment": 7579,
      "ences": 7580,
      "enthus": 7581,
      "cob": 7582,
      "bees": 7583,
      "beck": 7584,
      "haha": 7585,
      "educ": 7586,
      "coloured": 7587,
      "pep": 7588,
      "verge": 7589,
      "pads": 7590,
      "pages": 7591,
      "sober": 7592,
      "hectic": 7593,
      "illicit": 7594,
      "assem": 7595,
      "deco": 7596,
      "define": 7597,
      "develo": 7598,
      "painters": 7599,
      "paintbrush": 7600,
      "veying": 7601,
      "chick": 7602,
      "changes": 7603,
      "adise": 7604,
      "raft": 7605,
      "rodden": 7606,
      "maker": 7607,
      "confined": 7608,
      "unreal": 7609,
      "united": 7610,
      "unconcerned": 7611,
      "outstanding": 7612,
      "outlining": 7613,
      "exude": 7614,
      "scant": 7615,
      "entit": 7616,
      "alling": 7617,
      "cali": 7618,
      "oney": 7619,
      "ppers": 7620,
      "ppies": 7621,
      "artif": 7622,
      "tasty": 7623,
      "goats": 7624,
      "tured": 7625,
      "suck": 7626,
      "plish": 7627,
      "plastic": 7628,
      "dox": 7629,
      "week": 7630,
      "ifies": 7631,
      "theyre": 7632,
      "polar": 7633,
      "commentary": 7634,
      "lawn": 7635,
      "ody": 7636,
      "minds": 7637,
      "gile": 7638,
      "mention": 7639,
      "bris": 7640,
      "worms": 7641,
      "strate": 7642,
      "erect": 7643,
      "quely": 7644,
      "attending": 7645,
      "figur": 7646,
      "fool": 7647,
      "tide": 7648,
      "spraw": 7649,
      "precar": 7650,
      "tremend": 7651,
      "funn": 7652,
      "disappear": 7653,
      "dishes": 7654,
      "disaster": 7655,
      "watering": 7656,
      "evidence": 7657,
      "pering": 7658,
      "smokes": 7659,
      "armour": 7660,
      "aggrav": 7661,
      "showcase": 7662,
      "wholes": 7663,
      "rule": 7664,
      "timeless": 7665,
      "prophe": 7666,
      "guidance": 7667,
      "bud": 7668,
      "terrain": 7669,
      "offensive": 7670,
      "players": 7671,
      "sunken": 7672,
      "anytime": 7673,
      "partial": 7674,
      "stylish": 7675,
      "blocked": 7676,
      "hairy": 7677,
      "fires": 7678,
      "photorealistic": 7679,
      "clam": 7680,
      "chopped": 7681,
      "presenting": 7682,
      "avoid": 7683,
      "breathe": 7684,
      "purse": 7685,
      "purplish": 7686,
      "winds": 7687,
      "frank": 7688,
      "frilly": 7689,
      "creeped": 7690,
      "household": 7691,
      "invent": 7692,
      "turbu": 7693,
      "colouring": 7694,
      "suggested": 7695,
      "extended": 7696,
      "chains": 7697,
      "ffs": 7698,
      "deathbed": 7699,
      "merged": 7700,
      "gyn": 7701,
      "strewn": 7702,
      "privac": 7703,
      "primarily": 7704,
      "nativity": 7705,
      "deadly": 7706,
      "ggly": 7707,
      "grayish": 7708,
      "studies": 7709,
      "fails": 7710,
      "fragile": 7711,
      "nically": 7712,
      "cruise": 7713,
      "crushed": 7714,
      "wardrobe": 7715,
      "castic": 7716,
      "estab": 7717,
      "vividly": 7718,
      "dances": 7719,
      "march": 7720,
      "fitting": 7721,
      "spoiled": 7722,
      "broke": 7723,
      "classroom": 7724,
      "incites": 7725,
      "gardening": 7726,
      "explicit": 7727,
      "sleeve": 7728,
      "craw": 7729,
      "paradise": 7730,
      "attracted": 7731,
      "resembling": 7732,
      "blankness": 7733,
      "commit": 7734,
      "explor": 7735,
      "intensely": 7736,
      "wishes": 7737,
      "grosses": 7738,
      "eventful": 7739,
      "indicative": 7740,
      "sided": 7741,
      "concerning": 7742,
      "truck": 7743,
      "knee": 7744,
      "puzzling": 7745,
      "splashing": 7746,
      "fabulous": 7747,
      "fascination": 7748,
      "hotel": 7749,
      "drips": 7750,
      "revealing": 7751,
      "contemplate": 7752,
      "decoration": 7753,
      "livestock": 7754,
      "19th": 7755,
      "media": 7756,
      "arrangements": 7757,
      "greece": 7758,
      "frolicking": 7759,
      "include": 7760,
      "sociali": 7761,
      "religous": 7762,
      "machinery": 7763,
      "crimin": 7764,
      "streaming": 7765,
      "knives": 7766,
      "journal": 7767,
      "daunting": 7768,
      "starry": 7769,
      "blankets": 7770,
      "wheels": 7771,
      "condition": 7772,
      "noticeable": 7773,
      "controlled": 7774,
      "emphasized": 7775,
      "easier": 7776,
      "staying": 7777,
      "familiarity": 7778,
      "mickey": 7779,
      "marketplace": 7780,
      "piles": 7781,
      "forceful": 7782,
      "experiences": 7783,
      "pollock": 7784,
      "elephants": 7785,
      "intentionally": 7786,
      "temper": 7787,
      "pubic": 7788,
      "dessert": 7789,
      "jail": 7790,
      "worshiping": 7791,
      "filter": 7792,
      "pushed": 7793,
      "drum": 7794,
      "snd": 7795,
      "silhouettes": 7796,
      "sisters": 7797,
      "misty": 7798,
      "instantly": 7799,
      "indians": 7800,
      "sneaky": 7801,
      "nested": 7802,
      "vulnerability": 7803,
      "pearls": 7804,
      "blossoming": 7805,
      "inspirational": 7806,
      "perplexing": 7807,
      "mortal": 7808,
      "oppression": 7809,
      "fortune": 7810,
      "inogen": 7811,
      "necessarily": 7812,
      "doodles": 7813,
      "scripture": 7814,
      "script": 7815,
      "nauseous": 7816,
      "blooms": 7817,
      "scholarly": 7818,
      "hostile": 7819,
      "camping": 7820,
      "currently": 7821,
      "enhances": 7822,
      "rhyth": 7823,
      "gravity": 7824,
      "concentration": 7825,
      "slaughter": 7826,
      "amateurish": 7827,
      "approaches": 7828,
      "fleeing": 7829,
      "repulsive": 7830,
      "whipping": 7831,
      "gossiping": 7832,
      "clinging": 7833,
      "relatively": 7834,
      "understood": 7835,
      "crouched": 7836,
      "puddle": 7837,
      "apocalyptic": 7838,
      "boulders": 7839,
      "bundled": 7840,
      "shepherd": 7841,
      "diamond": 7842,
      "interpreted": 7843,
      "mathematical": 7844,
      "downtrodden": 7845,
      "opulent": 7846,
      "comprehend": 7847,
      "honor": 7848,
      "sarcastic": 7849,
      "unforgiving": 7850,
      "intellectual": 7851,
      "hallucinogen": 7852,
      "commercial": 7853,
      "stranded": 7854,
      "extravagant": 7855,
      "gliding": 7856,
      "suffoc": 7857,
      "prostitute": 7858,
      "slaughtered": 7859,
      "remorse": 7860,
      "modesty": 7861,
      "invigorating": 7862,
      "studio": 7863,
      "authentic": 7864,
      "octopus": 7865,
      "orthodox": 7866,
      "enthusi": 7867,
      "privacy": 7868,
      ",,": 7869,
      "ake": 7870,
      "awhile": 7871,
      "aerial": 7872,
      "bought": 7873,
      "braid": 7874,
      "cs": 7875,
      "cert": 7876,
      "del": 7877,
      "dic": 7878,
      "drying": 7879,
      "dagger": 7880,
      "dapple": 7881,
      "dwarf": 7882,
      "dangling": 7883,
      "eased": 7884,
      "gir": 7885,
      "gain": 7886,
      "glit": 7887,
      "gmental": 7888,
      "hides": 7889,
      "huts": 7890,
      "kite": 7891,
      "nie": 7892,
      "nia": 7893,
      "oe": 7894,
      "oy": 7895,
      "pace": 7896,
      "packed": 7897,
      "porn": 7898,
      "prai": 7899,
      "rhe": 7900,
      "spa": 7901,
      "scold": 7902,
      "sister": 7903,
      "smashed": 7904,
      "tress": 7905,
      "tacky": 7906,
      "ula": 7907,
      "uries": 7908,
      "vass": 7909,
      "vage": 7910,
      "ww": 7911,
      "wless": 7912,
      "wisp": 7913,
      "yang": 7914,
      "zag": 7915,
      "theless": 7916,
      "themed": 7917,
      "rema": 7918,
      "repose": 7919,
      "remote": 7920,
      "locks": 7921,
      "logs": 7922,
      "metic": 7923,
      "mexi": 7924,
      "sey": 7925,
      "lig": 7926,
      "lik": 7927,
      "limin": 7928,
      "archa": 7929,
      "arouses": 7930,
      "stability": 7931,
      "strained": 7932,
      "encom": 7933,
      "enance": 7934,
      "ension": 7935,
      "acid": 7936,
      "acies": 7937,
      "achable": 7938,
      "code": 7939,
      "beads": 7940,
      "icide": 7941,
      "inte": 7942,
      "inting": 7943,
      "manip": 7944,
      "managed": 7945,
      "peaking": 7946,
      "pairing": 7947,
      "hem": 7948,
      "ilation": 7949,
      "ilities": 7950,
      "assa": 7951,
      "defi": 7952,
      "degree": 7953,
      "chess": 7954,
      "charm": 7955,
      "chris": 7956,
      "chilly": 7957,
      "aded": 7958,
      "robo": 7959,
      "ropes": 7960,
      "rots": 7961,
      "ironic": 7962,
      "abra": 7963,
      "abused": 7964,
      "abilities": 7965,
      "plea": 7966,
      "connot": 7967,
      "consume": 7968,
      "noah": 7969,
      "noisy": 7970,
      "ung": 7971,
      "unlike": 7972,
      "uninspiring": 7973,
      "unimpressed": 7974,
      "unstable": 7975,
      "blance": 7976,
      "forbidden": 7977,
      "exper": 7978,
      "bore": 7979,
      "ami": 7980,
      "ambi": 7981,
      "resili": 7982,
      "cauc": 7983,
      "superi": 7984,
      "suicide": 7985,
      "idenced": 7986,
      "shakes": 7987,
      "usive": 7988,
      "darks": 7989,
      "oding": 7990,
      "worm": 7991,
      "happier": 7992,
      "brightens": 7993,
      "cane": 7994,
      "canvass": 7995,
      "owners": 7996,
      "blueprint": 7997,
      "qualities": 7998,
      "skating": 7999
    },
    "merges": [
      [
        "t",
        "h"
      ],
      [
        "i",
        "n"
      ],
      [
        "th",
        "e"
      ],
      [
        "a",
        "n"
      ],
      [
        "r",
        "e"
      ],
      [
        "i",
        "s"
      ],
      [
        "in",
        "g"
      ],
      [
        "l",
        "o"
      ],
      [
        "an",
        "d"
      ],
      [
        "e",
        "r"
      ],
      [
        "o",
        "n"
      ],
      [
        "e",
        "s"
      ],
      [
        "i",
        "t"
      ],
      [
        "o",
        "f"
      ],
      [
        "a",
        "t"
      ],
      [
        "m",
        "e"
      ],
      [
        "t",
        "o"
      ],
      [
        "s",
        "e"
      ],
      [
        "l",
        "i"
      ],
      [
        "a",
        "r"
      ],
      [
        "k",
        "e"
      ],
      [
        "o",
        "u"
      ],
      [
        "o",
        "k"
      ],
      [
        "a",
        "l"
      ],
      [
        "s",
        "t"
      ],
      [
        "lo",
        "ok"
      ],
      [
        "l",
        "e"
      ],
      [
        "o",
        "r"
      ],
      [
        "e",
        "l"
      ],
      [
        "e",
        "n"
      ],
      [
        "a",
        "c"
      ],
      [
        "c",
        "o"
      ],
      [
        "th",
        "is"
      ],
      [
        "li",
        "ke"
      ],
      [
        "b",
        "e"
      ],
      [
        "m",
        "a"
      ],
      [
        "f",
        "e"
      ],
      [
        "i",
        "c"
      ],
      [
        "h",
        "a"
      ],
      [
        "in",
        "t"
      ],
      [
        "look",
        "s"
      ],
      [
        "a",
        "re"
      ],
      [
        "e",
        "d"
      ],
      [
        "co",
        "lo"
      ],
      [
        "m",
        "an"
      ],
      [
        "w",
        "h"
      ],
      [
        "colo",
        "r"
      ],
      [
        "p",
        "e"
      ],
      [
        "v",
        "er"
      ],
      [
        "p",
        "a"
      ],
      [
        "s",
        "o"
      ],
      [
        "h",
        "e"
      ],
      [
        "i",
        "l"
      ],
      [
        "g",
        "h"
      ],
      [
        "fe",
        "el"
      ],
      [
        "a",
        "s"
      ],
      [
        "d",
        "e"
      ],
      [
        "f",
        "u"
      ],
      [
        "o",
        "w"
      ],
      [
        "pa",
        "int"
      ],
      [
        "v",
        "e"
      ],
      [
        "u",
        "t"
      ],
      [
        "u",
        "re"
      ],
      [
        "l",
        "y"
      ],
      [
        "c",
        "h"
      ],
      [
        "w",
        "i"
      ],
      [
        "a",
        "d"
      ],
      [
        "wi",
        "th"
      ],
      [
        "i",
        "on"
      ],
      [
        "color",
        "s"
      ],
      [
        "ver",
        "y"
      ],
      [
        "r",
        "a"
      ],
      [
        "paint",
        "ing"
      ],
      [
        "g",
        "e"
      ],
      [
        "r",
        "i"
      ],
      [
        "r",
        "o"
      ],
      [
        "ma",
        "k"
      ],
      [
        "w",
        "o"
      ],
      [
        "gh",
        "t"
      ],
      [
        "mak",
        "es"
      ],
      [
        "se",
        "e"
      ],
      [
        "i",
        "r"
      ],
      [
        "n",
        "t"
      ],
      [
        "a",
        "b"
      ],
      [
        "p",
        "le"
      ],
      [
        "fu",
        "l"
      ],
      [
        "c",
        "on"
      ],
      [
        "a",
        "y"
      ],
      [
        "th",
        "at"
      ],
      [
        "ac",
        "e"
      ],
      [
        "n",
        "o"
      ],
      [
        "l",
        "d"
      ],
      [
        "in",
        "d"
      ],
      [
        "m",
        "o"
      ],
      [
        "u",
        "n"
      ],
      [
        "b",
        "l"
      ],
      [
        "f",
        "or"
      ],
      [
        "ou",
        "t"
      ],
      [
        "e",
        "x"
      ],
      [
        "i",
        "m"
      ],
      [
        "u",
        "se"
      ],
      [
        "s",
        "c"
      ],
      [
        "ac",
        "k"
      ],
      [
        "so",
        "me"
      ],
      [
        "b",
        "o"
      ],
      [
        "th",
        "ing"
      ],
      [
        "wo",
        "man"
      ],
      [
        "a",
        "m"
      ],
      [
        "re",
        "s"
      ],
      [
        "en",
        "t"
      ],
      [
        "see",
        "m"
      ],
      [
        "h",
        "er"
      ],
      [
        "the",
        "r"
      ],
      [
        "ou",
        "n"
      ],
      [
        "re",
        "d"
      ],
      [
        "al",
        "l"
      ],
      [
        "u",
        "r"
      ],
      [
        "c",
        "e"
      ],
      [
        "s",
        "h"
      ],
      [
        "c",
        "t"
      ],
      [
        "c",
        "a"
      ],
      [
        "on",
        "e"
      ],
      [
        "b",
        "ut"
      ],
      [
        "er",
        "s"
      ],
      [
        "p",
        "ic"
      ],
      [
        "p",
        "p"
      ],
      [
        "ar",
        "t"
      ],
      [
        "t",
        "a"
      ],
      [
        "g",
        "o"
      ],
      [
        "es",
        "s"
      ],
      [
        "t",
        "ure"
      ],
      [
        "oun",
        "d"
      ],
      [
        "g",
        "r"
      ],
      [
        "u",
        "st"
      ],
      [
        "lo",
        "w"
      ],
      [
        "an",
        "t"
      ],
      [
        "i",
        "g"
      ],
      [
        "wh",
        "at"
      ],
      [
        "s",
        "u"
      ],
      [
        "p",
        "l"
      ],
      [
        "it",
        "e"
      ],
      [
        "d",
        "o"
      ],
      [
        "w",
        "e"
      ],
      [
        "i",
        "f"
      ],
      [
        "ar",
        "k"
      ],
      [
        "no",
        "t"
      ],
      [
        "ou",
        "s"
      ],
      [
        "is",
        "t"
      ],
      [
        "u",
        "e"
      ],
      [
        "pe",
        "o"
      ],
      [
        "the",
        "y"
      ],
      [
        "h",
        "is"
      ],
      [
        "peo",
        "ple"
      ],
      [
        "p",
        "o"
      ],
      [
        "res",
        "s"
      ],
      [
        "ma",
        "ke"
      ],
      [
        "the",
        "re"
      ],
      [
        "s",
        "he"
      ],
      [
        "con",
        "t"
      ],
      [
        "i",
        "d"
      ],
      [
        "s",
        "ha"
      ],
      [
        "co",
        "m"
      ],
      [
        "h",
        "o"
      ],
      [
        "u",
        "s"
      ],
      [
        "al",
        "ly"
      ],
      [
        "ri",
        "ght"
      ],
      [
        "d",
        "ark"
      ],
      [
        "i",
        "e"
      ],
      [
        "ca",
        "use"
      ],
      [
        "ha",
        "s"
      ],
      [
        "seem",
        "s"
      ],
      [
        "f",
        "ace"
      ],
      [
        "l",
        "a"
      ],
      [
        "be",
        "cause"
      ],
      [
        "w",
        "ay"
      ],
      [
        "o",
        "d"
      ],
      [
        "pic",
        "ture"
      ],
      [
        "m",
        "ind"
      ],
      [
        "a",
        "p"
      ],
      [
        "s",
        "ad"
      ],
      [
        "g",
        "i"
      ],
      [
        "n",
        "e"
      ],
      [
        "me",
        "nt"
      ],
      [
        "in",
        "k"
      ],
      [
        "g",
        "re"
      ],
      [
        "b",
        "r"
      ],
      [
        "il",
        "d"
      ],
      [
        "w",
        "or"
      ],
      [
        "ac",
        "t"
      ],
      [
        "re",
        "mind"
      ],
      [
        "a",
        "ut"
      ],
      [
        "sc",
        "en"
      ],
      [
        "st",
        "r"
      ],
      [
        "ha",
        "pp"
      ],
      [
        "be",
        "aut"
      ],
      [
        "i",
        "ma"
      ],
      [
        "el",
        "l"
      ],
      [
        "look",
        "ing"
      ],
      [
        "de",
        "ta"
      ],
      [
        "j",
        "ust"
      ],
      [
        "b",
        "ack"
      ],
      [
        "p",
        "ress"
      ],
      [
        "c",
        "al"
      ],
      [
        "e",
        "re"
      ],
      [
        "d",
        "er"
      ],
      [
        "m",
        "y"
      ],
      [
        "se",
        "d"
      ],
      [
        "b",
        "right"
      ],
      [
        "ro",
        "m"
      ],
      [
        "b",
        "y"
      ],
      [
        "ou",
        "ld"
      ],
      [
        "ap",
        "pe"
      ],
      [
        "scen",
        "e"
      ],
      [
        "lo",
        "ve"
      ],
      [
        "c",
        "an"
      ],
      [
        "r",
        "y"
      ],
      [
        "ow",
        "n"
      ],
      [
        "gr",
        "ound"
      ],
      [
        "bl",
        "ue"
      ],
      [
        "i",
        "ful"
      ],
      [
        "an",
        "g"
      ],
      [
        "f",
        "rom"
      ],
      [
        "beaut",
        "iful"
      ],
      [
        "me",
        "n"
      ],
      [
        "q",
        "u"
      ],
      [
        "t",
        "ing"
      ],
      [
        "s",
        "k"
      ],
      [
        "v",
        "es"
      ],
      [
        "or",
        "t"
      ],
      [
        "cal",
        "m"
      ],
      [
        "w",
        "at"
      ],
      [
        "at",
        "t"
      ],
      [
        "n",
        "ess"
      ],
      [
        "u",
        "p"
      ],
      [
        "il",
        "l"
      ],
      [
        "u",
        "l"
      ],
      [
        "ou",
        "gh"
      ],
      [
        "s",
        "i"
      ],
      [
        "some",
        "thing"
      ],
      [
        "appe",
        "ar"
      ],
      [
        "deta",
        "il"
      ],
      [
        "ab",
        "out"
      ],
      [
        "f",
        "ig"
      ],
      [
        "li",
        "ght"
      ],
      [
        "fig",
        "ure"
      ],
      [
        "y",
        "ou"
      ],
      [
        "remind",
        "s"
      ],
      [
        "i",
        "le"
      ],
      [
        "th",
        "ink"
      ],
      [
        "ar",
        "d"
      ],
      [
        "pe",
        "ace"
      ],
      [
        "ha",
        "ve"
      ],
      [
        "f",
        "o"
      ],
      [
        "h",
        "ow"
      ],
      [
        "l",
        "in"
      ],
      [
        "p",
        "ers"
      ],
      [
        "wh",
        "ite"
      ],
      [
        "t",
        "i"
      ],
      [
        "it",
        "y"
      ],
      [
        "press",
        "ion"
      ],
      [
        "ic",
        "e"
      ],
      [
        "s",
        "p"
      ],
      [
        "re",
        "ally"
      ],
      [
        "at",
        "ion"
      ],
      [
        "at",
        "e"
      ],
      [
        "bl",
        "ack"
      ],
      [
        "e",
        "y"
      ],
      [
        "c",
        "lo"
      ],
      [
        "ima",
        "ge"
      ],
      [
        "o",
        "ther"
      ],
      [
        "ch",
        "ild"
      ],
      [
        "happ",
        "y"
      ],
      [
        "a",
        "in"
      ],
      [
        "c",
        "re"
      ],
      [
        "ic",
        "h"
      ],
      [
        "feel",
        "ing"
      ],
      [
        "p",
        "re"
      ],
      [
        "back",
        "ground"
      ],
      [
        "it",
        "s"
      ],
      [
        "pers",
        "on"
      ],
      [
        "o",
        "ver"
      ],
      [
        "t",
        "re"
      ],
      [
        "t",
        "y"
      ],
      [
        "fu",
        "n"
      ],
      [
        "ex",
        "pression"
      ],
      [
        "w",
        "ell"
      ],
      [
        "int",
        "ere"
      ],
      [
        "intere",
        "st"
      ],
      [
        "d",
        "is"
      ],
      [
        "el",
        "y"
      ],
      [
        "k",
        "ing"
      ],
      [
        "wat",
        "er"
      ],
      [
        "e",
        "ct"
      ],
      [
        "e",
        "v"
      ],
      [
        "d",
        "ra"
      ],
      [
        "ex",
        "c"
      ],
      [
        "p",
        "ort"
      ],
      [
        "the",
        "ir"
      ],
      [
        "p",
        "er"
      ],
      [
        "n",
        "ow"
      ],
      [
        "d",
        "on"
      ],
      [
        "se",
        "n"
      ],
      [
        "cont",
        "ent"
      ],
      [
        "v",
        "i"
      ],
      [
        "d",
        "ay"
      ],
      [
        "j",
        "ect"
      ],
      [
        "wh",
        "ich"
      ],
      [
        "peace",
        "ful"
      ],
      [
        "d",
        "es"
      ],
      [
        "ac",
        "h"
      ],
      [
        "p",
        "es"
      ],
      [
        "s",
        "m"
      ],
      [
        "s",
        "im"
      ],
      [
        "ar",
        "y"
      ],
      [
        "ar",
        "m"
      ],
      [
        "j",
        "o"
      ],
      [
        "ab",
        "le"
      ],
      [
        "l",
        "it"
      ],
      [
        "lo",
        "n"
      ],
      [
        "f",
        "low"
      ],
      [
        "b",
        "ject"
      ],
      [
        "t",
        "le"
      ],
      [
        "con",
        "fu"
      ],
      [
        "la",
        "x"
      ],
      [
        "re",
        "lax"
      ],
      [
        "gre",
        "en"
      ],
      [
        "t",
        "s"
      ],
      [
        "i",
        "ve"
      ],
      [
        "be",
        "ing"
      ],
      [
        "d",
        "s"
      ],
      [
        "a",
        "g"
      ],
      [
        "n",
        "ice"
      ],
      [
        "v",
        "ing"
      ],
      [
        "e",
        "p"
      ],
      [
        "w",
        "as"
      ],
      [
        "b",
        "le"
      ],
      [
        "o",
        "m"
      ],
      [
        "appear",
        "s"
      ],
      [
        "sk",
        "y"
      ],
      [
        "d",
        "y"
      ],
      [
        "go",
        "ing"
      ],
      [
        "cont",
        "ra"
      ],
      [
        "f",
        "ac"
      ],
      [
        "p",
        "ie"
      ],
      [
        "contra",
        "st"
      ],
      [
        "wor",
        "k"
      ],
      [
        "is",
        "h"
      ],
      [
        "el",
        "low"
      ],
      [
        "lin",
        "es"
      ],
      [
        "interest",
        "ing"
      ],
      [
        "sh",
        "ow"
      ],
      [
        "mo",
        "st"
      ],
      [
        "y",
        "ellow"
      ],
      [
        "m",
        "u"
      ],
      [
        "li",
        "fe"
      ],
      [
        "ey",
        "es"
      ],
      [
        "an",
        "ge"
      ],
      [
        "sha",
        "pes"
      ],
      [
        "use",
        "d"
      ],
      [
        "at",
        "ure"
      ],
      [
        "s",
        "it"
      ],
      [
        "ou",
        "nt"
      ],
      [
        "sen",
        "se"
      ],
      [
        "it",
        "ing"
      ],
      [
        "wh",
        "o"
      ],
      [
        "fe",
        "re"
      ],
      [
        "w",
        "ould"
      ],
      [
        "d",
        "if"
      ],
      [
        "lit",
        "tle"
      ],
      [
        "dra",
        "w"
      ],
      [
        "e",
        "t"
      ],
      [
        "i",
        "ght"
      ],
      [
        "c",
        "k"
      ],
      [
        "the",
        "se"
      ],
      [
        "se",
        "t"
      ],
      [
        "e",
        "very"
      ],
      [
        "r",
        "u"
      ],
      [
        "ke",
        "d"
      ],
      [
        "ti",
        "me"
      ],
      [
        "p",
        "ro"
      ],
      [
        "g",
        "u"
      ],
      [
        "jo",
        "y"
      ],
      [
        "st",
        "and"
      ],
      [
        "he",
        "ad"
      ],
      [
        "pie",
        "ce"
      ],
      [
        "fere",
        "nt"
      ],
      [
        "n",
        "a"
      ],
      [
        "si",
        "de"
      ],
      [
        "t",
        "ion"
      ],
      [
        "w",
        "on"
      ],
      [
        "h",
        "im"
      ],
      [
        "the",
        "m"
      ],
      [
        "b",
        "u"
      ],
      [
        "ad",
        "y"
      ],
      [
        "art",
        "ist"
      ],
      [
        "to",
        "o"
      ],
      [
        "do",
        "es"
      ],
      [
        "ing",
        "s"
      ],
      [
        "he",
        "re"
      ],
      [
        "t",
        "er"
      ],
      [
        "w",
        "ant"
      ],
      [
        "feel",
        "s"
      ],
      [
        "i",
        "ous"
      ],
      [
        "t",
        "e"
      ],
      [
        "h",
        "u"
      ],
      [
        "dif",
        "ferent"
      ],
      [
        "lo",
        "t"
      ],
      [
        "go",
        "od"
      ],
      [
        "won",
        "der"
      ],
      [
        "wo",
        "men"
      ],
      [
        "t",
        "wo"
      ],
      [
        "gi",
        "ves"
      ],
      [
        "ra",
        "y"
      ],
      [
        "of",
        "f"
      ],
      [
        "re",
        "al"
      ],
      [
        "pl",
        "ay"
      ],
      [
        "b",
        "ab"
      ],
      [
        "ge",
        "ther"
      ],
      [
        "k",
        "now"
      ],
      [
        "to",
        "gether"
      ],
      [
        "mu",
        "ch"
      ],
      [
        "some",
        "one"
      ],
      [
        "s",
        "a"
      ],
      [
        "th",
        "ough"
      ],
      [
        "s",
        "un"
      ],
      [
        "an",
        "y"
      ],
      [
        "lon",
        "g"
      ],
      [
        "in",
        "to"
      ],
      [
        "o",
        "ld"
      ],
      [
        "mo",
        "re"
      ],
      [
        "su",
        "bject"
      ],
      [
        "flow",
        "ers"
      ],
      [
        "s",
        "to"
      ],
      [
        "an",
        "ce"
      ],
      [
        "tre",
        "es"
      ],
      [
        "n",
        "y"
      ],
      [
        "h",
        "or"
      ],
      [
        "al",
        "most"
      ],
      [
        "d",
        "i"
      ],
      [
        "d",
        "own"
      ],
      [
        "o",
        "l"
      ],
      [
        "ge",
        "t"
      ],
      [
        "s",
        "s"
      ],
      [
        "sim",
        "ple"
      ],
      [
        "g",
        "es"
      ],
      [
        "at",
        "ing"
      ],
      [
        "gre",
        "at"
      ],
      [
        "c",
        "i"
      ],
      [
        "fo",
        "re"
      ],
      [
        "th",
        "r"
      ],
      [
        "in",
        "e"
      ],
      [
        "t",
        "able"
      ],
      [
        "ry",
        "ing"
      ],
      [
        "ar",
        "ound"
      ],
      [
        "wh",
        "ile"
      ],
      [
        "v",
        "ie"
      ],
      [
        "d",
        "ing"
      ],
      [
        "at",
        "ed"
      ],
      [
        "p",
        "art"
      ],
      [
        "de",
        "pic"
      ],
      [
        "e",
        "m"
      ],
      [
        "s",
        "ing"
      ],
      [
        "to",
        "w"
      ],
      [
        "k",
        "ind"
      ],
      [
        "bo",
        "dy"
      ],
      [
        "st",
        "y"
      ],
      [
        "a",
        "we"
      ],
      [
        "ang",
        "el"
      ],
      [
        "en",
        "joy"
      ],
      [
        "b",
        "lo"
      ],
      [
        "ar",
        "ing"
      ],
      [
        "pl",
        "ace"
      ],
      [
        "l",
        "and"
      ],
      [
        ".",
        "."
      ],
      [
        "wh",
        "en"
      ],
      [
        "figure",
        "s"
      ],
      [
        "c",
        "le"
      ],
      [
        "ic",
        "al"
      ],
      [
        "ha",
        "ir"
      ],
      [
        "t",
        "r"
      ],
      [
        "ev",
        "en"
      ],
      [
        "se",
        "l"
      ],
      [
        "al",
        "so"
      ],
      [
        "str",
        "act"
      ],
      [
        "ab",
        "stract"
      ],
      [
        "c",
        "u"
      ],
      [
        "er",
        "n"
      ],
      [
        "ir",
        "d"
      ],
      [
        "p",
        "s"
      ],
      [
        "as",
        "s"
      ],
      [
        "ho",
        "ld"
      ],
      [
        "c",
        "ould"
      ],
      [
        "im",
        "al"
      ],
      [
        "f",
        "i"
      ],
      [
        "l",
        "es"
      ],
      [
        "re",
        "n"
      ],
      [
        "w",
        "arm"
      ],
      [
        "p",
        "ho"
      ],
      [
        "fe",
        "ar"
      ],
      [
        "c",
        "ent"
      ],
      [
        "d",
        "ist"
      ],
      [
        "u",
        "m"
      ],
      [
        "ig",
        "n"
      ],
      [
        "h",
        "and"
      ],
      [
        "li",
        "c"
      ],
      [
        "vie",
        "w"
      ],
      [
        "z",
        "ing"
      ],
      [
        "ount",
        "ain"
      ],
      [
        "m",
        "on"
      ],
      [
        "d",
        "ress"
      ],
      [
        "s",
        "ure"
      ],
      [
        "calm",
        "ing"
      ],
      [
        "pho",
        "to"
      ],
      [
        "com",
        "for"
      ],
      [
        "bab",
        "y"
      ],
      [
        "qu",
        "ite"
      ],
      [
        "confu",
        "sed"
      ],
      [
        "b",
        "it"
      ],
      [
        "m",
        "ountain"
      ],
      [
        "sty",
        "le"
      ],
      [
        "w",
        "a"
      ],
      [
        "b",
        "or"
      ],
      [
        "j",
        "es"
      ],
      [
        "bu",
        "ild"
      ],
      [
        "t",
        "ed"
      ],
      [
        "wh",
        "ere"
      ],
      [
        "c",
        "ar"
      ],
      [
        "an",
        "imal"
      ],
      [
        "fac",
        "es"
      ],
      [
        "le",
        "d"
      ],
      [
        "ple",
        "as"
      ],
      [
        "a",
        "ma"
      ],
      [
        "relax",
        "ing"
      ],
      [
        "sc",
        "ary"
      ],
      [
        "l",
        "ady"
      ],
      [
        "fun",
        "ny"
      ],
      [
        "thr",
        "ough"
      ],
      [
        "n",
        "ing"
      ],
      [
        "s",
        "ur"
      ],
      [
        "ir",
        "l"
      ],
      [
        "un",
        "der"
      ],
      [
        "port",
        "ra"
      ],
      [
        "t",
        "rying"
      ],
      [
        "ok",
        "es"
      ],
      [
        "man",
        "y"
      ],
      [
        "g",
        "irl"
      ],
      [
        "no",
        "thing"
      ],
      [
        "pre",
        "t"
      ],
      [
        "e",
        "ach"
      ],
      [
        "mo",
        "ther"
      ],
      [
        "i",
        "al"
      ],
      [
        "se",
        "nt"
      ],
      [
        "us",
        "ing"
      ],
      [
        "c",
        "l"
      ],
      [
        "i",
        "es"
      ],
      [
        "t",
        "ic"
      ],
      [
        "detail",
        "s"
      ],
      [
        "ist",
        "ic"
      ],
      [
        "na",
        "ked"
      ],
      [
        "n",
        "ature"
      ],
      [
        "show",
        "s"
      ],
      [
        "gi",
        "ve"
      ],
      [
        "portra",
        "it"
      ],
      [
        "l",
        "ing"
      ],
      [
        "ma",
        "y"
      ],
      [
        "hold",
        "ing"
      ],
      [
        "a",
        "th"
      ],
      [
        "p",
        "r"
      ],
      [
        "res",
        "sed"
      ],
      [
        "al",
        "e"
      ],
      [
        "exc",
        "iting"
      ],
      [
        "a",
        "f"
      ],
      [
        "v",
        "ely"
      ],
      [
        "bo",
        "at"
      ],
      [
        "en",
        "d"
      ],
      [
        "sm",
        "all"
      ],
      [
        "g",
        "a"
      ],
      [
        "sel",
        "f"
      ],
      [
        "cu",
        "ri"
      ],
      [
        "re",
        "li"
      ],
      [
        "be",
        "t"
      ],
      [
[...]
