{
  "version": "1.0",
  "truncation": {
    "direction": "Right",
    "max_length": 30,
    "strategy": "LongestFirst",
    "stride": 0
  },
  "padding": {
    "strategy": {
      "Fixed": 30
    },
    "direction": "Right",
    "pad_to_multiple_of": null,
    "pad_id": 1,
    "pad_type_id": 0,
    "pad_token": "<pad>"
  },
  "added_tokens": [
    {
      "id": 0,
      "content": "<unk",
      "single_word": false,
      "lstrip": false,
      "rstrip": false,
      "normalized": false,
      "special": true
    },
    {
      "id": 1,
      "content": "<pad>",
      "single_word": false,
      "lstrip": false,
      "rstrip": false,
      "normalized": false,
      "special": true
    },
    {
      "id": 2,
      "content": "<start>",
      "single_word": false,
      "lstrip": false,
      "rstrip": false,
      "normalized": false,
      "special": true
    },
    {
      "id": 3,
      "content": "<end>",
      "single_word": false,
      "lstrip": false,
      "rstrip": false,
      "normalized": false,
      "special": true
    }
  ],
  "normalizer": {
    "type": "Sequence",
    "normalizers": [
      {
        "type": "NFKC"
      },
      {
        "type": "Lowercase"
      }
    ]
  },
  "pre_tokenizer": {
    "type": "Whitespace"
  },
  "post_processor": {
    "type": "TemplateProcessing",
    "single": [
      {
        "SpecialToken": {
          "id": "<start>",
          "type_id": 0
        }
      },
      {
        "Sequence": {
          "id": "A",
          "type_id": 0
        }
      },
      {
        "SpecialToken": {
          "id": "<end>",
          "type_id": 0
        }
      }
    ],
    "pair": [
      {
        "Sequence": {
          "id": "A",
          "type_id": 0
        }
      },
      {
        "Sequence": {
          "id": "B",
          "type_id": 1
        }
      }
    ],
    "special_tokens": {
      "<end>": {
        "id": "<end>",
        "ids": [
          3
        ],
        "tokens": [
          "<end>"
        ]
      },
      "<start>": {
        "id": "<start>",
        "ids": [
          2
        ],
        "tokens": [
          "<start>"
        ]
      }
    }
  },
  "decoder": null,
  "model": {
    "type": "BPE",
    "dropout": null,
    "unk_token": "<unk>",
    "continuing_subword_prefix": null,
    "end_of_word_suffix": null,
    "fuse_unk": false,
    "byte_fallback": false,
    "ignore_merges": false,
    "vocab": {
      "<unk": 0,
      "<pad>": 1,
      "<start>": 2,
      "<end>": 3,
      "!": 4,
      "\"": 5,
      "$": 6,
      "&": 7,
      "'": 8,
      "(": 9,
      ")": 10,
      "*": 11,
      ",": 12,
      "-": 13,
      ".": 14,
      "/": 15,
      "0": 16,
      "1": 17,
      "2": 18,
      "3": 19,
      "4": 20,
      "5": 21,
      "6": 22,
      "7": 23,
      "8": 24,
      "9": 25,
      ":": 26,
      ";": 27,
      "?": 28,
      "[": 29,
      "]": 30,
      "a": 31,
      "b": 32,
      "c": 33,
      "d": 34,
      "e": 35,
      "f": 36,
      "g": 37,
      "h": 38,
      "i": 39,
      "j": 40,
      "k": 41,
      "l": 42,
      "m": 43,
      "n": 44,
      "o": 45,
      "p": 46,
      "q": 47,
      "r": 48,
      "s": 49,
      "t": 50,
      "u": 51,
      "v": 52,
      "w": 53,
      "x": 54,
      "y": 55,
      "z": 56,
      "é": 57,
      "í": 58,
      "́": 59,
      "‘": 60,
      "’": 61,
      "“": 62,
      "”": 63,
      "☺": 64,
      "️": 65,
      "th": 66,
      "in": 67,
      "the": 68,
      "an": 69,
      "re": 70,
      "is": 71,
      "ing": 72,
      "lo": 73,
      "and": 74,
      "er": 75,
      "on": 76,
      "es": 77,
      "it": 78,
      "of": 79,
      "at": 80,
      "me": 81,
      "se": 82,
      "to": 83,
      "li": 84,
      "ar": 85,
      "ke": 86,
      "ou": 87,
      "ok": 88,
      "al": 89,
      "st": 90,
      "look": 91,
      "le": 92,
      "el": 93,
      "or": 94,
      "ac": 95,
      "co": 96,
      "en": 97,
      "this": 98,
      "like": 99,
      "ma": 100,
      "fe": 101,
      "be": 102,
      "ic": 103,
      "int": 104,
      "ha": 105,
      "looks": 106,
      "colo": 107,
      "ed": 108,
      "wh": 109,
      "are": 110,
      "color": 111,
      "man": 112,
      "ver": 113,
      "pa": 114,
      "feel": 115,
      "pe": 116,
      "so": 117,
      "he": 118,
      "fu": 119,
      "as": 120,
      "gh": 121,
      "il": 122,
      "paint": 123,
      "ow": 124,
      "de": 125,
      "ure": 126,
      "ve": 127,
      "ut": 128,
      "colors": 129,
      "ly": 130,
      "wi": 131,
      "very": 132,
      "painting": 133,
      "ion": 134,
      "ch": 135,
      "mak": 136,
      "ad": 137,
      "with": 138,
      "ge": 139,
      "ra": 140,
      "makes": 141,
      "ri": 142,
      "ght": 143,
      "ro": 144,
      "nt": 145,
      "con": 146,
      "see": 147,
      "wo": 148,
      "ace": 149,
      "ay": 150,
      "ful": 151,
      "that": 152,
      "ir": 153,
      "ab": 154,
      "no": 155,
      "ind": 156,
      "ple": 157,
      "un": 158,
      "use": 159,
      "ld": 160,
      "mo": 161,
      "out": 162,
      "ex": 163,
      "for": 164,
      "bl": 165,
      "ack": 166,
      "some": 167,
      "im": 168,
      "thing": 169,
      "ca": 170,
      "bo": 171,
      "ent": 172,
      "sc": 173,
      "pre": 174,
      "sh": 175,
      "hap": 176,
      "red": 177,
      "seem": 178,
      "am": 179,
      "ture": 180,
      "pic": 181,
      "nd": 182,
      "ss": 183,
      "ce": 184,
      "woman": 185,
      "ers": 186,
      "all": 187,
      "her": 188,
      "su": 189,
      "ther": 190,
      "art": 191,
      "but": 192,
      "ct": 193,
      "ess": 194,
      "one": 195,
      "go": 196,
      "rou": 197,
      "what": 198,
      "ant": 199,
      "do": 200,
      "ite": 201,
      "ust": 202,
      "if": 203,
      "ark": 204,
      "po": 205,
      "pl": 206,
      "ta": 207,
      "ig": 208,
      "we": 209,
      "ist": 210,
      "ur": 211,
      "make": 212,
      "there": 213,
      "low": 214,
      "not": 215,
      "ap": 216,
      "dark": 217,
      "com": 218,
      "his": 219,
      "ous": 220,
      "cause": 221,
      "cont": 222,
      "ie": 223,
      "she": 224,
      "because": 225,
      "us": 226,
      "ue": 227,
      "picture": 228,
      "str": 229,
      "peo": 230,
      "ne": 231,
      "face": 232,
      "they": 233,
      "right": 234,
      "people": 235,
      "mind": 236,
      "gre": 237,
      "way": 238,
      "id": 239,
      "has": 240,
      "ally": 241,
      "ang": 242,
      "seems": 243,
      "ho": 244,
      "ry": 245,
      "ment": 246,
      "la": 247,
      "gi": 248,
      "od": 249,
      "remind": 250,
      "act": 251,
      "round": 252,
      "sad": 253,
      "ink": 254,
      "br": 255,
      "py": 256,
      "scen": 257,
      "aut": 258,
      "cal": 259,
      "rest": 260,
      "you": 261,
      "just": 262,
      "ell": 263,
      "wor": 264,
      "beaut": 265,
      "lin": 266,
      "looking": 267,
      "ima": 268,
      "der": 269,
      "by": 270,
      "bright": 271,
      "my": 272,
      "press": 273,
      "back": 274,
      "ild": 275,
      "scene": 276,
      "calm": 277,
      "something": 278,
      "appe": 279,
      "ort": 280,
      "can": 281,
      "sed": 282,
      "ould": 283,
      "fro": 284,
      "ground": 285,
      "qu": 286,
      "own": 287,
      "tt": 288,
      "iful": 289,
      "up": 290,
      "deta": 291,
      "wat": 292,
      "reminds": 293,
      "love": 294,
      "from": 295,
      "black": 296,
      "beautiful": 297,
      "att": 298,
      "ves": 299,
      "peace": 300,
      "sk": 301,
      "ness": 302,
      "think": 303,
      "ity": 304,
      "ard": 305,
      "fo": 306,
      "appear": 307,
      "blue": 308,
      "ation": 309,
      "white": 310,
      "light": 311,
      "ill": 312,
      "about": 313,
      "ul": 314,
      "have": 315,
      "ice": 316,
      "dis": 317,
      "ile": 318,
      "pers": 319,
      "its": 320,
      "ey": 321,
      "fig": 322,
      "happy": 323,
      "sp": 324,
      "figure": 325,
      "feeling": 326,
      "over": 327,
      "sha": 328,
      "ate": 329,
      "really": 330,
      "inte": 331,
      "pression": 332,
      "men": 333,
      "interest": 334,
      "detail": 335,
      "confu": 336,
      "cre": 337,
      "shap": 338,
      "how": 339,
      "ti": 340,
      "clo": 341,
      "other": 342,
      "fun": 343,
      "image": 344,
      "port": 345,
      "well": 346,
      "itt": 347,
      "lines": 348,
      "ely": 349,
      "tre": 350,
      "ich": 351,
      "background": 352,
      "ng": 353,
      "ain": 354,
      "peaceful": 355,
      "ev": 356,
      "content": 357,
      "green": 358,
      "water": 359,
      "person": 360,
      "shapes": 361,
      "exc": 362,
      "expression": 363,
      "per": 364,
      "ive": 365,
      "don": 366,
      "est": 367,
      "now": 368,
      "sen": 369,
      "ide": 370,
      "ect": 371,
      "ble": 372,
      "king": 373,
      "day": 374,
      "ach": 375,
      "sim": 376,
      "thou": 377,
      "ight": 378,
      "pie": 379,
      "lax": 380,
      "interesting": 381,
      "relax": 382,
      "which": 383,
      "des": 384,
      "their": 385,
      "dra": 386,
      "ange": 387,
      "arm": 388,
      "om": 389,
      "was": 390,
      "vi": 391,
      "ject": 392,
      "dre": 393,
      "ag": 394,
      "child": 395,
      "nice": 396,
      "sm": 397,
      "sky": 398,
      "fac": 399,
      "ary": 400,
      "dif": 401,
      "ud": 402,
      "rent": 403,
      "being": 404,
      "able": 405,
      "most": 406,
      "going": 407,
      "bject": 408,
      "life": 409,
      "jo": 410,
      "used": 411,
      "gu": 412,
      "flow": 413,
      "ving": 414,
      "appears": 415,
      "who": 416,
      "rast": 417,
      "would": 418,
      "contrast": 419,
      "ellow": 420,
      "yellow": 421,
      "ferent": 422,
      "sense": 423,
      "pro": 424,
      "eyes": 425,
      "work": 426,
      "ish": 427,
      "iting": 428,
      "piece": 429,
      "show": 430,
      "lot": 431,
      "does": 432,
      "et": 433,
      "different": 434,
      "stand": 435,
      "artist": 436,
      "uch": 437,
      "sa": 438,
      "want": 439,
      "sun": 440,
      "ature": 441,
      "litt": 442,
      "off": 443,
      "pen": 444,
      "little": 445,
      "feels": 446,
      "ious": 447,
      "ount": 448,
      "any": 449,
      "ound": 450,
      "draw": 451,
      "won": 452,
      "too": 453,
      "bu": 454,
      "ty": 455,
      "dy": 456,
      "gives": 457,
      "know": 458,
      "here": 459,
      "ked": 460,
      "two": 461,
      "ings": 462,
      "ny": 463,
      "side": 464,
      "play": 465,
      "abstr": 466,
      "abstract": 467,
      "ird": 468,
      "these": 469,
      "long": 470,
      "wonder": 471,
      "ck": 472,
      "cle": 473,
      "him": 474,
      "head": 475,
      "every": 476,
      "real": 477,
      "ray": 478,
      "na": 479,
      "almost": 480,
      "ady": 481,
      "joy": 482,
      "into": 483,
      "ol": 484,
      "much": 485,
      "toge": 486,
      "together": 487,
      "um": 488,
      "though": 489,
      "tion": 490,
      "ern": 491,
      "sto": 492,
      "ft": 493,
      "gg": 494,
      "them": 495,
      "good": 496,
      "trees": 497,
      "confus": 498,
      "fr": 499,
      "time": 500,
      "hor": 501,
      "try": 502,
      "when": 503,
      "old": 504,
      "ical": 505,
      "more": 506,
      "simple": 507,
      "kind": 508,
      "ign": 509,
      "table": 510,
      "ep": 511,
      "someone": 512,
      "flowers": 513,
      "down": 514,
      "end": 515,
      "subject": 516,
      "also": 517,
      "tr": 518,
      "ance": 519,
      "ands": 520,
      "great": 521,
      "ts": 522,
      "sty": 523,
      "women": 524,
      "awe": 525,
      "wa": 526,
      "around": 527,
      "depic": 528,
      "even": 529,
      "gr": 530,
      "vie": 531,
      "angel": 532,
      "while": 533,
      "place": 534,
      "blo": 535,
      "les": 536,
      "okes": 537,
      "ating": 538,
      "confused": 539,
      "ine": 540,
      "ci": 541,
      "ated": 542,
      "tting": 543,
      "aring": 544,
      "hu": 545,
      "warm": 546,
      "tow": 547,
      "sel": 548,
      "dist": 549,
      "cu": 550,
      "bor": 551,
      "part": 552,
      "bab": 553,
      "di": 554,
      "fear": 555,
      "calming": 556,
      "orange": 557,
      "rough": 558,
      "comfor": 559,
      "quite": 560,
      "shad": 561,
      "zing": 562,
      "enjoy": 563,
      "imag": 564,
      "could": 565,
      "relaxing": 566,
      "em": 567,
      "view": 568,
      "sure": 569,
      "whe": 570,
      "many": 571,
      "led": 572,
      "style": 573,
      "funny": 574,
      "ass": 575,
      "build": 576,
      "hair": 577,
      "pleas": 578,
      "portra": 579,
      "cent": 580,
      "pos": 581,
      "..": 582,
      "ale": 583,
      "body": 584,
      "ama": 585,
      "sur": 586,
      "ial": 587,
      "scary": 588,
      "portrait": 589,
      "boat": 590,
      "cr": 591,
      "mon": 592,
      "pho": 593,
      "te": 594,
      "nothing": 595,
      "where": 596,
      "bit": 597,
      "fi": 598,
      "give": 599,
      "ssed": 600,
      "under": 601,
      "faces": 602,
      "lady": 603,
      "nature": 604,
      "figures": 605,
      "ot": 606,
      "shows": 607,
      "gir": 608,
      "ip": 609,
      "hold": 610,
      "city": 611,
      "ush": 612,
      "vely": 613,
      "istic": 614,
      "fore": 615,
      "dress": 616,
      "trying": 617,
      "photo": 618,
      "girl": 619,
      "ery": 620,
      "done": 621,
      "ning": 622,
      "cl": 623,
      "may": 624,
      "get": 625,
      "using": 626,
      "details": 627,
      "ountain": 628,
      "ited": 629,
      "ull": 630,
      "ser": 631,
      "ition": 632,
      "cha": 633,
      "hou": 634,
      "imal": 635,
      "wind": 636,
      "sent": 637,
      "patt": 638,
      "again": 639,
      "doesn": 640,
      "fin": 641,
      "ton": 642,
      "made": 643,
      "pattern": 644,
      "lack": 645,
      "mountain": 646,
      "sin": 647,
      "ted": 648,
      "stru": 649,
      "idd": 650,
      "age": 651,
      "ting": 652,
      "fect": 653,
      "exciting": 654,
      "each": 655,
      "through": 656,
      "ong": 657,
      "mean": 658,
      "motion": 659,
      "sugg": 660,
      "brown": 661,
      "self": 662,
      "boring": 663,
      "ren": 664,
      "suggest": 665,
      "ily": 666,
      "eye": 667,
      "cho": 668,
      "cape": 669,
      "ling": 670,
      "lea": 671,
      "strokes": 672,
      "bird": 673,
      "car": 674,
      "iz": 675,
      "lect": 676,
      "why": 677,
      "set": 678,
      "excited": 679,
      "ga": 680,
      "mi": 681,
      "dog": 682,
      "curi": 683,
      "angry": 684,
      "cloud": 685,
      "que": 686,
      "mother": 687,
      "amazing": 688,
      "pr": 689,
      "find": 690,
      "gra": 691,
      "ket": 692,
      "bored": 693,
      "guy": 694,
      "baby": 695,
      "house": 696,
      "ak": 697,
      "tell": 698,
      "our": 699,
      "sadness": 700,
      "facial": 701,
      "hard": 702,
      "min": 703,
      "stre": 704,
      "prett": 705,
      "present": 706,
      "av": 707,
      "sy": 708,
      "anc": 709,
      "tor": 710,
      "line": 711,
      "pretty": 712,
      "loo": 713,
      "been": 714,
      "ross": 715,
      "naked": 716,
      "ies": 717,
      "pect": 718,
      "painted": 719,
      "young": 720,
      "small": 721,
      "clear": 722,
      "against": 723,
      "vid": 724,
      "relaxed": 725,
      "shadow": 726,
      "ping": 727,
      "animal": 728,
      "reli": 729,
      "ick": 730,
      "ast": 731,
      "ear": 732,
      "lar": 733,
      "ual": 734,
      "oft": 735,
      "happen": 736,
      "itting": 737,
      "holding": 738,
      "cool": 739,
      "ph": 740,
      "ref": 741,
      "vibr": 742,
      "bre": 743,
      "lands": 744,
      "mess": 745,
      "ash": 746,
      "making": 747,
      "emotion": 748,
      "jes": 749,
      "bet": 750,
      "ween": 751,
      "design": 752,
      "jesus": 753,
      "fra": 754,
      "pur": 755,
      "war": 756,
      "iness": 757,
      "left": 758,
      "che": 759,
      "epy": 760,
      "pli": 761,
      "soft": 762,
      "iled": 763,
      "angels": 764,
      "since": 765,
      "inter": 766,
      "form": 767,
      "things": 768,
      "mix": 769,
      "ff": 770,
      "fam": 771,
      "hand": 772,
      "lovely": 773,
      "char": 774,
      "ath": 775,
      "mus": 776,
      "wal": 777,
      "inv": 778,
      "top": 779,
      "still": 780,
      "coming": 781,
      "ways": 782,
      "drawing": 783,
      "horse": 784,
      "put": 785,
      "ext": 786,
      "big": 787,
      "flo": 788,
      "having": 789,
      "ching": 790,
      "between": 791,
      "ele": 792,
      "realistic": 793,
      "confusing": 794,
      "emp": 795,
      "hind": 796,
      "ter": 797,
      "tur": 798,
      "rene": 799,
      "setting": 800,
      "behind": 801,
      "book": 802,
      "weird": 803,
      "human": 804,
      "comfortable": 805,
      "yet": 806,
      "than": 807,
      "ates": 808,
      "med": 809,
      "reflect": 810,
      "ds": 811,
      "amusing": 812,
      "point": 813,
      "new": 814,
      "gious": 815,
      "shape": 816,
      "landscape": 817,
      "ner": 818,
      "brush": 819,
      "iddle": 820,
      "vibrant": 821,
      "middle": 822,
      "serene": 823,
      "beach": 824,
      "ship": 825,
      "clouds": 826,
      "bad": 827,
      "cut": 828,
      "object": 829,
      "take": 830,
      "darkness": 831,
      "confusion": 832,
      "curious": 833,
      "aw": 834,
      "sitting": 835,
      "another": 836,
      "ower": 837,
      "wearing": 838,
      "anger": 839,
      "creepy": 840,
      "town": 841,
      "tones": 842,
      "night": 843,
      "rip": 844,
      "anything": 845,
      "otic": 846,
      "bus": 847,
      "always": 848,
      "pleasant": 849,
      "position": 850,
      "comple": 851,
      "rand": 852,
      "tho": 853,
      "ative": 854,
      "colorful": 855,
      "bold": 856,
      "religious": 857,
      "ome": 858,
      "power": 859,
      "represent": 860,
      "ener": 861,
      "colour": 862,
      "such": 863,
      "ments": 864,
      "ali": 865,
      "gust": 866,
      "arp": 867,
      "random": 868,
      "sort": 869,
      "wall": 870,
      "ise": 871,
      "amused": 872,
      "strange": 873,
      "disgust": 874,
      "blood": 875,
      "air": 876,
      "hi": 877,
      "thre": 878,
      "ster": 879,
      "exture": 880,
      "tree": 881,
      "texture": 882,
      "insp": 883,
      "sea": 884,
      "rain": 885,
      "world": 886,
      "detailed": 887,
      "blend": 888,
      "building": 889,
      "ral": 890,
      "uted": 891,
      "sharp": 892,
      "lay": 893,
      "oce": 894,
      "pink": 895,
      "iling": 896,
      "pop": 897,
      "home": 898,
      "everything": 899,
      "surround": 900,
      "ocean": 901,
      "peci": 902,
      "standing": 903,
      "playing": 904,
      "vis": 905,
      "lon": 906,
      "full": 907,
      "both": 908,
      "sup": 909,
      "charact": 910,
      "ug": 911,
      "will": 912,
      "thought": 913,
      "maybe": 914,
      "spl": 915,
      "lic": 916,
      "gold": 917,
      "large": 918,
      "ding": 919,
      "dull": 920,
      "muted": 921,
      "sket": 922,
      "import": 923,
      "cap": 924,
      "chaotic": 925,
      "window": 926,
      "res": 927,
      "ont": 928,
      "only": 929,
      "tom": 930,
      "drawn": 931,
      "along": 932,
      "ique": 933,
      "os": 934,
      "ude": 935,
      "seeing": 936,
      "smile": 937,
      "everyone": 938,
      "those": 939,
      "away": 940,
      "cur": 941,
      "hel": 942,
      "mis": 943,
      "posed": 944,
      "ural": 945,
      "sym": 946,
      "busy": 947,
      "mer": 948,
      "contentment": 949,
      "enjoying": 950,
      "ef": 951,
      "gy": 952,
      "open": 953,
      "squ": 954,
      "heav": 955,
      "move": 956,
      "odd": 957,
      "excite": 958,
      "ase": 959,
      "less": 960,
      "ped": 961,
      "snow": 962,
      "tra": 963,
      "ze": 964,
      "past": 965,
      "soo": 966,
      "clothe": 967,
      "mountains": 968,
      "music": 969,
      "sketch": 970,
      "ges": 971,
      "nic": 972,
      "come": 973,
      "unch": 974,
      "bot": 975,
      "hope": 976,
      "ished": 977,
      "fru": 978,
      "bow": 979,
      "gl": 980,
      "ues": 981,
      "vel": 982,
      "ering": 983,
      "colored": 984,
      "ions": 985,
      "shades": 986,
      "create": 987,
      "story": 988,
      "fter": 989,
      "serious": 990,
      "family": 991,
      "high": 992,
      "after": 993,
      "hat": 994,
      "might": 995,
      "ready": 996,
      "intri": 997,
      "deep": 998,
      "brings": 999,
      "beauty": 1000,
      "foc": 1001,
      "ular": 1002,
      "buildings": 1003,
      "center": 1004,
      "soothing": 1005,
      "cat": 1006,
      "ward": 1007,
      "asy": 1008,
      "room": 1009,
      "were": 1010,
      "clothing": 1011,
      "excitement": 1012,
      "fri": 1013,
      "gloo": 1014,
      "land": 1015,
      "nat": 1016,
      "vil": 1017,
      "zy": 1018,
      "ence": 1019,
      "doing": 1020,
      "pose": 1021,
      "clothes": 1022,
      "bottom": 1023,
      "gloomy": 1024,
      "tal": 1025,
      "lone": 1026,
      "especi": 1027,
      "angles": 1028,
      "animals": 1029,
      "especially": 1030,
      "fall": 1031,
      "var": 1032,
      "then": 1033,
      "pain": 1034,
      "appeal": 1035,
      "same": 1036,
      "dead": 1037,
      "ading": 1038,
      "ention": 1039,
      "tain": 1040,
      "comb": 1041,
      "perfect": 1042,
      "count": 1043,
      "fre": 1044,
      "ib": 1045,
      "ian": 1046,
      "op": 1047,
      "wood": 1048,
      "sum": 1049,
      "skin": 1050,
      "forest": 1051,
      "understand": 1052,
      "cture": 1053,
      "ever": 1054,
      "fir": 1055,
      "sing": 1056,
      "wr": 1057,
      "cold": 1058,
      "ared": 1059,
      "paper": 1060,
      "ches": 1061,
      "important": 1062,
      "cou": 1063,
      "gray": 1064,
      "hands": 1065,
      "mat": 1066,
      "ugh": 1067,
      "ination": 1068,
      "iring": 1069,
      "strong": 1070,
      "bring": 1071,
      "alle": 1072,
      "fish": 1073,
      "ll": 1074,
      "sle": 1075,
      "ved": 1076,
      "front": 1077,
      "objects": 1078,
      "intrigu": 1079,
      "cor": 1080,
      "gent": 1081,
      "male": 1082,
      "ring": 1083,
      "say": 1084,
      "ying": 1085,
      "rect": 1086,
      "ste": 1087,
      "uncomfortable": 1088,
      "vio": 1089,
      "waiting": 1090,
      "leaves": 1091,
      "har": 1092,
      "ible": 1093,
      "kes": 1094,
      "ses": 1095,
      "ality": 1096,
      "bed": 1097,
      "pressive": 1098,
      "friend": 1099,
      "natural": 1100,
      "first": 1101,
      "pri": 1102,
      "run": 1103,
      "sign": 1104,
      "tim": 1105,
      "ars": 1106,
      "illed": 1107,
      "iet": 1108,
      "portray": 1109,
      "viewer": 1110,
      "suggests": 1111,
      "lonely": 1112,
      "spo": 1113,
      "children": 1114,
      "ces": 1115,
      "ob": 1116,
      "pale": 1117,
      "anx": 1118,
      "getting": 1119,
      "abo": 1120,
      "somewhat": 1121,
      "door": 1122,
      "quiet": 1123,
      "dressed": 1124,
      "tran": 1125,
      "cross": 1126,
      "inous": 1127,
      "mans": 1128,
      "pressed": 1129,
      "your": 1130,
      "expressions": 1131,
      "three": 1132,
      "bal": 1133,
      "bro": 1134,
      "fl": 1135,
      "kid": 1136,
      "ken": 1137,
      "death": 1138,
      "blues": 1139,
      "taking": 1140,
      "need": 1141,
      "lage": 1142,
      "atures": 1143,
      "waves": 1144,
      "shadows": 1145,
      "supposed": 1146,
      "bing": 1147,
      "care": 1148,
      "fight": 1149,
      "hal": 1150,
      "hill": 1151,
      "next": 1152,
      "ps": 1153,
      "ric": 1154,
      "seen": 1155,
      "should": 1156,
      "grey": 1157,
      "laugh": 1158,
      "fiel": 1159,
      "purple": 1160,
      "colours": 1161,
      "batt": 1162,
      "ually": 1163,
      "ven": 1164,
      "thr": 1165,
      "ism": 1166,
      "ening": 1167,
      "had": 1168,
      "post": 1169,
      "uses": 1170,
      "atter": 1171,
      "ards": 1172,
      "images": 1173,
      "imagine": 1174,
      "pleasing": 1175,
      "fruit": 1176,
      "above": 1177,
      "ber": 1178,
      "bunch": 1179,
      "cir": 1180,
      "easy": 1181,
      "hang": 1182,
      "slight": 1183,
      "lost": 1184,
      "conve": 1185,
      "boy": 1186,
      "patterns": 1187,
      "appealing": 1188,
      "alone": 1189,
      "did": 1190,
      "ms": 1191,
      "must": 1192,
      "par": 1193,
      "vas": 1194,
      "ens": 1195,
      "ense": 1196,
      "moon": 1197,
      "artwork": 1198,
      "near": 1199,
      "ominous": 1200,
      "...": 1201,
      "movement": 1202,
      "pray": 1203,
      "instru": 1204,
      "edges": 1205,
      "rid": 1206,
      "plain": 1207,
      "whole": 1208,
      "cks": 1209,
      "happening": 1210,
      "ger": 1211,
      "ither": 1212,
      "pu": 1213,
      "tone": 1214,
      "attention": 1215,
      "dont": 1216,
      "vivid": 1217,
      "clean": 1218,
      "turn": 1219,
      "country": 1220,
      "battle": 1221,
      "mor": 1222,
      "sou": 1223,
      "unique": 1224,
      "impressive": 1225,
      "sche": 1226,
      "ustr": 1227,
      "canvas": 1228,
      "simpli": 1229,
      "stor": 1230,
      "inspiring": 1231,
      "nicely": 1232,
      "summer": 1233,
      "rich": 1234,
      "inside": 1235,
      "stri": 1236,
      "col": 1237,
      "paintings": 1238,
      "ants": 1239,
      "food": 1240,
      "overall": 1241,
      "fire": 1242,
      "carto": 1243,
      "walking": 1244,
      "times": 1245,
      "convey": 1246,
      "either": 1247,
      "ire": 1248,
      "oke": 1249,
      "smo": 1250,
      "stat": 1251,
      "lying": 1252,
      "ples": 1253,
      "action": 1254,
      "interested": 1255,
      "depiction": 1256,
      "depicted": 1257,
      "boats": 1258,
      "meaning": 1259,
      "energy": 1260,
      "symbo": 1261,
      "couple": 1262,
      "half": 1263,
      "scheme": 1264,
      "cartoon": 1265,
      "bas": 1266,
      "nude": 1267,
      "mel": 1268,
      "else": 1269,
      "cover": 1270,
      "outside": 1271,
      "poss": 1272,
      "iety": 1273,
      "dream": 1274,
      "smiling": 1275,
      "dogs": 1276,
      "gentle": 1277,
      "due": 1278,
      "iv": 1279,
      "mul": 1280,
      "ru": 1281,
      "arr": 1282,
      "defin": 1283,
      "rather": 1284,
      "bles": 1285,
      "greens": 1286,
      "pieces": 1287,
      "sail": 1288,
      "playful": 1289,
      "wonderful": 1290,
      "class": 1291,
      "powerful": 1292,
      "simplicity": 1293,
      "utral": 1294,
      "sho": 1295,
      "comp": 1296,
      "neutral": 1297,
      "feelings": 1298,
      "finished": 1299,
      "ather": 1300,
      "gan": 1301,
      "ied": 1302,
      "ient": 1303,
      "rist": 1304,
      "lent": 1305,
      "area": 1306,
      "add": 1307,
      "geome": 1308,
      "roy": 1309,
      "god": 1310,
      "others": 1311,
      "sunset": 1312,
      "grass": 1313,
      "shading": 1314,
      "inviting": 1315,
      "empty": 1316,
      "square": 1317,
      "focus": 1318,
      "ks": 1319,
      "spe": 1320,
      "ught": 1321,
      "zz": 1322,
      "inc": 1323,
      "stal": 1324,
      "stra": 1325,
      "start": 1326,
      "dep": 1327,
      "christ": 1328,
      "rib": 1329,
      "conf": 1330,
      "exp": 1331,
      "cast": 1332,
      "reds": 1333,
      "lake": 1334,
      "evil": 1335,
      "frame": 1336,
      "ugly": 1337,
      "field": 1338,
      "cra": 1339,
      "dr": 1340,
      "danc": 1341,
      "fit": 1342,
      "mar": 1343,
      "ror": 1344,
      "ract": 1345,
      "tall": 1346,
      "ond": 1347,
      "happ": 1348,
      "watching": 1349,
      "characters": 1350,
      "effect": 1351,
      "village": 1352,
      "depth": 1353,
      "din": 1354,
      "jum": 1355,
      "uc": 1356,
      "ese": 1357,
      "arch": 1358,
      "although": 1359,
      "order": 1360,
      "organ": 1361,
      "cow": 1362,
      "before": 1363,
      "coloring": 1364,
      "ason": 1365,
      "moder": 1366,
      "ident": 1367,
      "space": 1368,
      "type": 1369,
      "foreground": 1370,
      "chaos": 1371,
      "pective": 1372,
      "harsh": 1373,
      "storm": 1374,
      "multi": 1375,
      "bar": 1376,
      "sil": 1377,
      "val": 1378,
      "thy": 1379,
      "keep": 1380,
      "adv": 1381,
      "bland": 1382,
      "blur": 1383,
      "thinking": 1384,
      "evokes": 1385,
      "lots": 1386,
      "stands": 1387,
      "crow": 1388,
      "graph": 1389,
      "street": 1390,
      "capture": 1391,
      "modern": 1392,
      "far": 1393,
      "fant": 1394,
      "mir": 1395,
      "sit": 1396,
      "sat": 1397,
      "tic": 1398,
      "female": 1399,
      "ried": 1400,
      "blan": 1401,
      "pictures": 1402,
      "giving": 1403,
      "treme": 1404,
      "sunny": 1405,
      "distur": 1406,
      "sleep": 1407,
      "cli": 1408,
      "sick": 1409,
      "rel": 1410,
      "itar": 1411,
      "sett": 1412,
      "ough": 1413,
      "maj": 1414,
      "shin": 1415,
      "working": 1416,
      "contrasts": 1417,
      "distance": 1418,
      "walk": 1419,
      "cute": 1420,
      "combination": 1421,
      "hanging": 1422,
      "zed": 1423,
      "isn": 1424,
      "key": 1425,
      "features": 1426,
      "ilar": 1427,
      "extreme": 1428,
      "word": 1429,
      "perspective": 1430,
      "close": 1431,
      "structure": 1432,
      "bes": 1433,
      "cer": 1434,
      "fic": 1435,
      "grou": 1436,
      "sex": 1437,
      "intense": 1438,
      "whim": 1439,
      "without": 1440,
      "nostal": 1441,
      "sub": 1442,
      "lowing": 1443,
      "tte": 1444,
      "lighting": 1445,
      "guitar": 1446,
      "proport": 1447,
      "subjects": 1448,
      "elements": 1449,
      "terri": 1450,
      "character": 1451,
      "anxious": 1452,
      "instrument": 1453,
      "gic": 1454,
      "lit": 1455,
      "mal": 1456,
      "sight": 1457,
      "unt": 1458,
      "winter": 1459,
      "reg": 1460,
      "esome": 1461,
      "stu": 1462,
      "enough": 1463,
      "chur": 1464,
      "poor": 1465,
      "spring": 1466,
      "bled": 1467,
      "flower": 1468,
      "contrasting": 1469,
      "showing": 1470,
      "fearful": 1471,
      "birds": 1472,
      "mixed": 1473,
      "glass": 1474,
      "incred": 1475,
      "explo": 1476,
      "fel": 1477,
      "hur": 1478,
      "matter": 1479,
      "touch": 1480,
      "staring": 1481,
      "sold": 1482,
      "cep": 1483,
      "comm": 1484,
      "rying": 1485,
      "creates": 1486,
      "estic": 1487,
      "idea": 1488,
      "probab": 1489,
      "depicts": 1490,
      "clearly": 1491,
      "surrounded": 1492,
      "ibly": 1493,
      "praying": 1494,
      "royal": 1495,
      "organiz": 1496,
      "crowd": 1497,
      "probably": 1498,
      "gs": 1499,
      "ged": 1500,
      "mou": 1501,
      "mark": 1502,
      "sion": 1503,
      "ligh": 1504,
      "eng": 1505,
      "pass": 1506,
      "heart": 1507,
      "adds": 1508,
      "rol": 1509,
      "haps": 1510,
      "got": 1511,
      "ific": 1512,
      "giant": 1513,
      "pressing": 1514,
      "perhaps": 1515,
      "grand": 1516,
      "comforting": 1517,
      "ancy": 1518,
      "messy": 1519,
      "cheer": 1520,
      "straight": 1521,
      "church": 1522,
      "soldi": 1523,
      "ered": 1524,
      "fact": 1525,
      "ging": 1526,
      "gant": 1527,
      "ivid": 1528,
      "ming": 1529,
      "vir": 1530,
      "ins": 1531,
      "reason": 1532,
      "beard": 1533,
      "demon": 1534,
      "within": 1535,
      "river": 1536,
      "individ": 1537,
      "moment": 1538,
      "box": 1539,
      "never": 1540,
      "scenery": 1541,
      "quality": 1542,
      "gather": 1543,
      "intrigued": 1544,
      "posture": 1545,
      "basic": 1546,
      "geometr": 1547,
      "individual": 1548,
      "danger": 1549,
      "mary": 1550,
      "sical": 1551,
      "year": 1552,
      "anno": 1553,
      "reading": 1554,
      "stark": 1555,
      "ched": 1556,
      "road": 1557,
      "mood": 1558,
      "bodi": 1559,
      "roud": 1560,
      "items": 1561,
      "uring": 1562,
      "comes": 1563,
      "angle": 1564,
      "peri": 1565,
      "dying": 1566,
      "horses": 1567,
      "looked": 1568,
      "floating": 1569,
      "puzz": 1570,
      "ba": 1571,
      "jap": 1572,
      "sand": 1573,
      "reach": 1574,
      "ones": 1575,
      "live": 1576,
      "stud": 1577,
      "mad": 1578,
      "few": 1579,
      "enture": 1580,
      "scrib": 1581,
      "amuse": 1582,
      "hood": 1583,
      "actually": 1584,
      "myster": 1585,
      "quil": 1586,
      "evoke": 1587,
      "sence": 1588,
      "towards": 1589,
      "earth": 1590,
      "floor": 1591,
      "reflection": 1592,
      "awesome": 1593,
      "mysterious": 1594,
      "dro": 1595,
      "ease": 1596,
      "gor": 1597,
      "nor": 1598,
      "pped": 1599,
      "ans": 1600,
      "orn": 1601,
      "intric": 1602,
      "geous": 1603,
      "amount": 1604,
      "waters": 1605,
      "display": 1606,
      "shade": 1607,
      "days": 1608,
      "selves": 1609,
      "party": 1610,
      "direct": 1611,
      "splatt": 1612,
      "help": 1613,
      "broken": 1614,
      "slightly": 1615,
      "dancing": 1616,
      "geometric": 1617,
      "japan": 1618,
      "afra": 1619,
      "bs": 1620,
      "cup": 1621,
      "fa": 1622,
      "gross": 1623,
      "proud": 1624,
      "ined": 1625,
      "ising": 1626,
      "lively": 1627,
      "acked": 1628,
      "fee": 1629,
      "vered": 1630,
      "fully": 1631,
      "unfinished": 1632,
      "moving": 1633,
      "herself": 1634,
      "hol": 1635,
      "tter": 1636,
      "ult": 1637,
      "desp": 1638,
      "depict": 1639,
      "partic": 1640,
      "torted": 1641,
      "complex": 1642,
      "heaven": 1643,
      "pastel": 1644,
      "tranquil": 1645,
      "fighting": 1646,
      "happiness": 1647,
      "adventure": 1648,
      "blank": 1649,
      "whimsical": 1650,
      "bodies": 1651,
      "amusement": 1652,
      "afraid": 1653,
      "du": 1654,
      "farm": 1655,
      "fying": 1656,
      "oc": 1657,
      "tri": 1658,
      "tect": 1659,
      "vac": 1660,
      "tory": 1661,
      "stare": 1662,
      "ified": 1663,
      "appre": 1664,
      "ouses": 1665,
      "ations": 1666,
      "tired": 1667,
      "safe": 1668,
      "tech": 1669,
      "various": 1670,
      "ridge": 1671,
      "disturbing": 1672,
      "extremely": 1673,
      "cheerful": 1674,
      "particular": 1675,
      "bare": 1676,
      "bur": 1677,
      "cern": 1678,
      "fan": 1679,
      "fright": 1680,
      "ls": 1681,
      "mes": 1682,
      "tin": 1683,
      "usu": 1684,
      "ised": 1685,
      "lie": 1686,
      "ows": 1687,
      "depressing": 1688,
      "uneasy": 1689,
      "composition": 1690,
      "neck": 1691,
      "yellows": 1692,
      "prov": 1693,
      "themselves": 1694,
      "lacks": 1695,
      "elegant": 1696,
      "alive": 1697,
      "allen": 1698,
      "ivity": 1699,
      "majestic": 1700,
      "group": 1701,
      "gorgeous": 1702,
      "ball": 1703,
      "da": 1704,
      "eat": 1705,
      "fancy": 1706,
      "kne": 1707,
      "rese": 1708,
      "ons": 1709,
      "outfit": 1710,
      "dots": 1711,
      "domin": 1712,
      "watch": 1713,
      "thouse": 1714,
      "arms": 1715,
      "block": 1716,
      "distre": 1717,
      "emotions": 1718,
      "laying": 1719,
      "osity": 1720,
      "missing": 1721,
      "statue": 1722,
      "mouth": 1723,
      "resem": 1724,
      "flying": 1725,
      "kn": 1726,
      "lap": 1727,
      "mil": 1728,
      "ost": 1729,
      "siz": 1730,
      "wild": 1731,
      "thered": 1732,
      "itive": 1733,
      "seas": 1734,
      "coat": 1735,
      "sol": 1736,
      "concern": 1737,
      "und": 1738,
      "unsett": 1739,
      "scared": 1740,
      "beautifully": 1741,
      "vious": 1742,
      "protect": 1743,
      "parts": 1744,
      "idden": 1745,
      "avor": 1746,
      "musical": 1747,
      "inspi": 1748,
      "circ": 1749,
      "multiple": 1750,
      "intricate": 1751,
      "despite": 1752,
      "bridge": 1753,
      "dir": 1754,
      "fing": 1755,
      "gar": 1756,
      "gard": 1757,
      "hum": 1758,
      "hidden": 1759,
      "swi": 1760,
      "itch": 1761,
      "level": 1762,
      "mag": 1763,
      "painter": 1764,
      "rock": 1765,
      "nose": 1766,
      "ung": 1767,
      "impression": 1768,
      "shown": 1769,
      "among": 1770,
      "pot": 1771,
      "plac": 1772,
      "compli": 1773,
      "iding": 1774,
      "cannot": 1775,
      "upset": 1776,
      "skull": 1777,
      "dreary": 1778,
      "guess": 1779,
      "older": 1780,
      "intriguing": 1781,
      "soup": 1782,
      "archite": 1783,
      "lighthouse": 1784,
      "techn": 1785,
      "cof": 1786,
      "favor": 1787,
      "gin": 1788,
      "gri": 1789,
      "houses": 1790,
      "ju": 1791,
      "ky": 1792,
      "mud": 1793,
      "sme": 1794,
      "scho": 1795,
      "ert": 1796,
      "ites": 1797,
      "state": 1798,
      "feet": 1799,
      "vert": 1800,
      "ghost": 1801,
      "fol": 1802,
      "lights": 1803,
      "illing": 1804,
      "distorted": 1805,
      "spir": 1806,
      "diffic": 1807,
      "imagery": 1808,
      "posing": 1809,
      "rence": 1810,
      "curiosity": 1811,
      "print": 1812,
      "aks": 1813,
      "empt": 1814,
      "disgusting": 1815,
      "splash": 1816,
      "woods": 1817,
      "running": 1818,
      "morning": 1819,
      "sleeping": 1820,
      "engag": 1821,
      "unsettling": 1822,
      "coffee": 1823,
      "19": 1824,
      "call": 1825,
      "fla": 1826,
      "fine": 1827,
      "fallen": 1828,
      "gener": 1829,
      "lab": 1830,
      "pi": 1831,
      "sna": 1832,
      "wel": 1833,
      "onto": 1834,
      "ities": 1835,
      "stain": 1836,
      "stern": 1837,
      "strip": 1838,
      "acing": 1839,
      "main": 1840,
      "vers": 1841,
      "fur": 1842,
      "dec": 1843,
      "roman": 1844,
      "history": 1845,
      "sphere": 1846,
      "frustr": 1847,
      "ending": 1848,
      "comfort": 1849,
      "chee": 1850,
      "represents": 1851,
      "rainbow": 1852,
      "hills": 1853,
      "turned": 1854,
      "mirror": 1855,
      "satis": 1856,
      "rolling": 1857,
      "tiny": 1858,
      "school": 1859,
      "filled": 1860,
      "park": 1861,
      "swe": 1862,
      "wise": 1863,
      "onment": 1864,
      "secre": 1865,
      "len": 1866,
      "inted": 1867,
      "path": 1868,
      "som": 1869,
      "robe": 1870,
      "exact": 1871,
      "plan": 1872,
      "darker": 1873,
      "illustr": 1874,
      "creating": 1875,
      "similar": 1876,
      "wondering": 1877,
      "horiz": 1878,
      "huge": 1879,
      "girls": 1880,
      "leave": 1881,
      "break": 1882,
      "news": 1883,
      "brushstrokes": 1884,
      "ships": 1885,
      "complete": 1886,
      "textures": 1887,
      "symme": 1888,
      "heavy": 1889,
      "travel": 1890,
      "friendly": 1891,
      "palette": 1892,
      "nostalgic": 1893,
      "cept": 1894,
      "annoy": 1895,
      "appreci": 1896,
      "garden": 1897,
      "difficult": 1898,
      "gon": 1899,
      "glow": 1900,
      "harm": 1901,
      "rit": 1902,
      "vase": 1903,
      "wish": 1904,
      "theme": 1905,
      "reve": 1906,
      "once": 1907,
      "itely": 1908,
      "itself": 1909,
      "covered": 1910,
      "below": 1911,
      "intim": 1912,
      "whel": 1913,
      "asc": 1914,
      "uni": 1915,
      "impressed": 1916,
      "entire": 1917,
      "presence": 1918,
      "suff": 1919,
      "nect": 1920,
      "last": 1921,
      "wash": 1922,
      "flowing": 1923,
      "lotches": 1924,
      "saw": 1925,
      "anyone": 1926,
      "dimen": 1927,
      "throughout": 1928,
      "breast": 1929,
      "circle": 1930,
      "striking": 1931,
      "organized": 1932,
      "gathering": 1933,
      "japanese": 1934,
      "cess": 1935,
      "cul": 1936,
      "during": 1937,
      "hiding": 1938,
      "anci": 1939,
      "andy": 1940,
      "atmo": 1941,
      "sever": 1942,
      "lid": 1943,
      "althy": 1944,
      "lett": 1945,
      "across": 1946,
      "envir": 1947,
      "better": 1948,
      "depressed": 1949,
      "connect": 1950,
      "absol": 1951,
      "boding": 1952,
      "pret": 1953,
      "histor": 1954,
      "neg": 1955,
      "neat": 1956,
      "given": 1957,
      "words": 1958,
      "myst": 1959,
      "calmness": 1960,
      "overwhel": 1961,
      "cloth": 1962,
      "bleak": 1963,
      "childhood": 1964,
      "wants": 1965,
      "umn": 1966,
      "early": 1967,
      "message": 1968,
      "taken": 1969,
      "free": 1970,
      "wrong": 1971,
      "violent": 1972,
      "kids": 1973,
      "definitely": 1974,
      "silly": 1975,
      "shining": 1976,
      "proportions": 1977,
      "incredible": 1978,
      "felt": 1979,
      "vacation": 1980,
      "dirty": 1981,
      "favorite": 1982,
      "ancient": 1983,
      "environment": 1984,
      "best": 1985,
      "card": 1986,
      "dest": 1987,
      "drip": 1988,
      "lad": 1989,
      "lush": 1990,
      "mp": 1991,
      "pan": 1992,
      "pes": 1993,
      "sl": 1994,
      "sid": 1995,
      "tle": 1996,
      "usc": 1997,
      "vol": 1998,
      "ately": 1999,
      "living": 2000,
      "oking": 2001,
      "stick": 2002,
      "lead": 2003,
      "arent": 2004,
      "ries": 2005,
      "rocks": 2006,
      "irt": 2007,
      "indic": 2008,
      "somewhere": 2009,
      "enter": 2010,
      "super": 2011,
      "takes": 2012,
      "ister": 2013,
      "angu": 2014,
      "resting": 2015,
      "skill": 2016,
      "creature": 2017,
      "event": 2018,
      "simpl": 2019,
      "vibe": 2020,
      "mostly": 2021,
      "distract": 2022,
      "cub": 2023,
      "clut": 2024,
      "boredom": 2025,
      "purpose": 2026,
      "surrounding": 2027,
      "golden": 2028,
      "respect": 2029,
      "falling": 2030,
      "portrayed": 2031,
      "obvious": 2032,
      "smoo": 2033,
      "classic": 2034,
      "confident": 2035,
      "sexual": 2036,
      "architecture": 2037,
      "absolut": 2038,
      "0s": 2039,
      "chair": 2040,
      "fat": 2041,
      "hon": 2042,
      "hung": 2043,
      "ili": 2044,
      "pat": 2045,
      "pping": 2046,
      "sor": 2047,
      "sword": 2048,
      "inno": 2049,
      "ony": 2050,
      "stun": 2051,
      "orient": 2052,
      "belie": 2053,
      "unhappy": 2054,
      "outline": 2055,
      "outdoor": 2056,
      "fort": 2057,
      "prec": 2058,
      "cele": 2059,
      "myself": 2060,
      "upon": 2061,
      "tive": 2062,
      "ngth": 2063,
      "provid": 2064,
      "doesnt": 2065,
      "knows": 2066,
      "warmth": 2067,
      "surpr": 2068,
      "foreboding": 2069,
      "means": 2070,
      "choice": 2071,
      "gaze": 2072,
      "ashing": 2073,
      "fresh": 2074,
      "needs": 2075,
      "possibly": 2076,
      "cliff": 2077,
      "soldiers": 2078,
      "puzzle": 2079,
      "frightening": 2080,
      "technique": 2081,
      "dimension": 2082,
      "atmosphere": 2083,
      "smooth": 2084,
      "bra": 2085,
      "cking": 2086,
      "fair": 2087,
      "list": 2088,
      "pal": 2089,
      "ply": 2090,
      "pture": 2091,
      "tro": 2092,
      "wing": 2093,
      "wow": 2094,
      "wings": 2095,
      "ison": 2096,
      "lor": 2097,
      "lous": 2098,
      "als": 2099,
      "pair": 2100,
      "pet": 2101,
      "sole": 2102,
      "asian": 2103,
      "owing": 2104,
      "deter": 2105,
      "cher": 2106,
      "movie": 2107,
      "scul": 2108,
      "ction": 2109,
      "whatever": 2110,
      "plant": 2111,
      "comic": 2112,
      "ney": 2113,
      "hot": 2114,
      "brightness": 2115,
      "attract": 2116,
      "works": 2117,
      "himself": 2118,
      "hunt": 2119,
      "toward": 2120,
      "cruc": 2121,
      "monster": 2122,
      "photograph": 2123,
      "prof": 2124,
      "complet": 2125,
      "disgusted": 2126,
      "layers": 2127,
      "matic": 2128,
      "corner": 2129,
      "spirit": 2130,
      "sweet": 2131,
      "intimid": 2132,
      "several": 2133,
      "stunning": 2134,
      "believe": 2135,
      "celebr": 2136,
      "--": 2137,
      "ced": 2138,
      "hate": 2139,
      "kward": 2140,
      "sits": 2141,
      "trip": 2142,
      "uation": 2143,
      "inste": 2144,
      "read": 2145,
      "erie": 2146,
      "took": 2147,
      "stone": 2148,
      "eling": 2149,
      "ices": 2150,
      "halo": 2151,
      "page": 2152,
      "solid": 2153,
      "future": 2154,
      "asso": 2155,
      "rior": 2156,
      "womans": 2157,
      "plants": 2158,
      "comical": 2159,
      "fold": 2160,
      "appearance": 2161,
      "shaped": 2162,
      "however": 2163,
      "job": 2164,
      "hues": 2165,
      "strugg": 2166,
      "minimal": 2167,
      "emotional": 2168,
      "warrior": 2169,
      "awkward": 2170,
      "hopeful": 2171,
      "bowl": 2172,
      "variety": 2173,
      "perfectly": 2174,
      "writing": 2175,
      "violin": 2176,
      "spots": 2177,
      "anxiety": 2178,
      "shore": 2179,
      "jumbled": 2180,
      "captured": 2181,
      "certain": 2182,
      "terrible": 2183,
      "regal": 2184,
      "commun": 2185,
      "usual": 2186,
      "exactly": 2187,
      "instead": 2188,
      "?)": 2189,
      "cas": 2190,
      "cour": 2191,
      "fill": 2192,
      "jud": 2193,
      "rust": 2194,
      "vous": 2195,
      "zard": 2196,
      "incl": 2197,
      "loving": 2198,
      "ator": 2199,
      "lear": 2200,
      "els": 2201,
      "ordin": 2202,
      "dered": 2203,
      "veget": 2204,
      "cond": 2205,
      "indif": 2206,
      "exag": 2207,
      "causes": 2208,
      "seeming": 2209,
      "picnic": 2210,
      "antic": 2211,
      "holy": 2212,
      "autumn": 2213,
      "worried": 2214,
      "disjo": 2215,
      "contented": 2216,
      "drab": 2217,
      "artists": 2218,
      "pens": 2219,
      "longing": 2220,
      "heads": 2221,
      "gging": 2222,
      "blocks": 2223,
      "sinister": 2224,
      "guys": 2225,
      "stream": 2226,
      "interpret": 2227,
      "thoughts": 2228,
      "catching": 2229,
      "match": 2230,
      "friends": 2231,
      "flat": 2232,
      "didn": 2233,
      "gerated": 2234,
      "symbol": 2235,
      "compared": 2236,
      "drink": 2237,
      "stuff": 2238,
      "ornate": 2239,
      "splatters": 2240,
      "known": 2241,
      "secret": 2242,
      "letters": 2243,
      "ladies": 2244,
      "absolutely": 2245,
      "provides": 2246,
      "sculpture": 2247,
      "completely": 2248,
      "disjointed": 2249,
      "af": 2250,
      "ased": 2251,
      "eerie": 2252,
      "fes": 2253,
      "fasc": 2254,
      "je": 2255,
      "killed": 2256,
      "mur": 2257,
      "mach": 2258,
      "musc": 2259,
      "ned": 2260,
      "num": 2261,
      "och": 2262,
      "pig": 2263,
      "parent": 2264,
      "rising": 2265,
      "son": 2266,
      "ske": 2267,
      "sla": 2268,
      "went": 2269,
      "thin": 2270,
      "lips": 2271,
      "legs": 2272,
      "master": 2273,
      "begin": 2274,
      "ility": 2275,
      "rage": 2276,
      "noon": 2277,
      "unusual": 2278,
      "experi": 2279,
      "board": 2280,
      "prep": 2281,
      "igg": 2282,
      "lown": 2283,
      "appro": 2284,
      "attack": 2285,
      "sailing": 2286,
      "depicting": 2287,
      "evening": 2288,
      "fied": 2289,
      "choices": 2290,
      "carrying": 2291,
      "visit": 2292,
      "focused": 2293,
      "gentleman": 2294,
      "cows": 2295,
      "blurry": 2296,
      "dangerous": 2297,
      "distress": 2298,
      "resembles": 2299,
      "size": 2300,
      "symmetry": 2301,
      "annoyed": 2302,
      "culture": 2303,
      "negative": 2304,
      "exaggerated": 2305,
      "fascin": 2306,
      "3d": 2307,
      "au": 2308,
      "den": 2309,
      "fad": 2310,
      "gun": 2311,
      "jag": 2312,
      "nam": 2313,
      "ppy": 2314,
      "pull": 2315,
      "rat": 2316,
      "tw": 2317,
      "vast": 2318,
      "meet": 2319,
      "array": 2320,
      "stars": 2321,
      "orig": 2322,
      "cozy": 2323,
      "feather": 2324,
      "aspect": 2325,
      "ured": 2326,
      "chin": 2327,
      "conside": 2328,
      "expect": 2329,
      "somehow": 2330,
      "cave": 2331,
      "shine": 2332,
      "shop": 2333,
      "shirt": 2334,
      "pical": 2335,
      "suit": 2336,
      "contem": 2337,
      "sheet": 2338,
      "gress": 2339,
      "activity": 2340,
      "bran": 2341,
      "spid": 2342,
      "desert": 2343,
      "draws": 2344,
      "kinda": 2345,
      "imagination": 2346,
      "poses": 2347,
      "monoch": 2348,
      "browns": 2349,
      "strength": 2350,
      "torn": 2351,
      "mixture": 2352,
      "pointing": 2353,
      "alien": 2354,
      "threat": 2355,
      "fruits": 2356,
      "afternoon": 2357,
      "combined": 2358,
      "spot": 2359,
      "countryside": 2360,
      "soul": 2361,
      "cartoonish": 2362,
      "arrange": 2363,
      "castle": 2364,
      "dinner": 2365,
      "situation": 2366,
      "normal": 2367,
      "stained": 2368,
      "appreciate": 2369,
      "suffering": 2370,
      "simplistic": 2371,
      "attractive": 2372,
      "ordinary": 2373,
      "considered": 2374,
      "monochro": 2375,
      "ago": 2376,
      "aking": 2377,
      "ban": 2378,
      "bir": 2379,
      "bust": 2380,
      "clown": 2381,
      "fil": 2382,
      "found": 2383,
      "ia": 2384,
      "knight": 2385,
      "langu": 2386,
      "mb": 2387,
      "mn": 2388,
      "nud": 2389,
      "ane": 2390,
      "remin": 2391,
      "loom": 2392,
      "loved": 2393,
      "itary": 2394,
      "ats": 2395,
      "medi": 2396,
      "let": 2397,
      "elder": 2398,
      "edge": 2399,
      "aren": 2400,
      "devil": 2401,
      "dom": 2402,
      "weap": 2403,
      "disap": 2404,
      "creatures": 2405,
      "tiv": 2406,
      "simply": 2407,
      "ages": 2408,
      "sunlight": 2409,
      "true": 2410,
      "surreal": 2411,
      "holds": 2412,
      "gathered": 2413,
      "happened": 2414,
      "purples": 2415,
      "famili": 2416,
      "putting": 2417,
      "talent": 2418,
      "talking": 2419,
      "alley": 2420,
      "obser": 2421,
      "smoke": 2422,
      "covering": 2423,
      "explore": 2424,
      "hurt": 2425,
      "marks": 2426,
      "reaching": 2427,
      "study": 2428,
      "kneeling": 2429,
      "compliment": 2430,
      "snake": 2431,
      "lence": 2432,
      "somber": 2433,
      "mystery": 2434,
      "entertain": 2435,
      "honest": 2436,
      "hungry": 2437,
      "determin": 2438,
      "jagged": 2439,
      "contempl": 2440,
      "arrangement": 2441,
      "language": 2442,
      "nudity": 2443,
      "bou": 2444,
      "cant": 2445,
      "gen": 2446,
      "ige": 2447,
      "jour": 2448,
      "pher": 2449,
      "pian": 2450,
      "trou": 2451,
      "uck": 2452,
      "vic": 2453,
      "yond": 2454,
      "zes": 2455,
      "inj": 2456,
      "inct": 2457,
      "rend": 2458,
      "iti": 2459,
      "sect": 2460,
      "step": 2461,
      "fed": 2462,
      "beige": 2463,
      "beyond": 2464,
      "ican": 2465,
      "haunt": 2466,
      "ride": 2467,
      "riding": 2468,
      "irrit": 2469,
      "express": 2470,
      "bott": 2471,
      "scare": 2472,
      "scale": 2473,
      "amuses": 2474,
      "lows": 2475,
      "context": 2476,
      "menacing": 2477,
      "created": 2478,
      "desc": 2479,
      "horri": 2480,
      "downward": 2481,
      "div": 2482,
      "positive": 2483,
      "tered": 2484,
      "suggesting": 2485,
      "game": 2486,
      "ances": 2487,
      "reflects": 2488,
      "reflecting": 2489,
      "visually": 2490,
      "trapped": 2491,
      "balance": 2492,
      "laughing": 2493,
      "sailboat": 2494,
      "ughter": 2495,
      "crazy": 2496,
      "captures": 2497,
      "subtle": 2498,
      "individuals": 2499,
      "vertical": 2500,
      "emptiness": 2501,
      "engaging": 2502,
      "romantic": 2503,
      "cheeks": 2504,
      "obviously": 2505,
      "solemn": 2506,
      "intimidating": 2507,
      "indifferent": 2508,
      "reminis": 2509,
      "ade": 2510,
      "bib": 2511,
      "cy": 2512,
      "fash": 2513,
      "gro": 2514,
      "mild": 2515,
      "rs": 2516,
      "sac": 2517,
      "sam": 2518,
      "speci": 2519,
      "tan": 2520,
      "til": 2521,
      "text": 2522,
      "ulous": 2523,
      "wra": 2524,
      "ancho": 2525,
      "era": 2526,
      "oned": 2527,
      "ato": 2528,
      "memor": 2529,
      "separ": 2530,
      "lical": 2531,
      "leton": 2532,
      "elli": 2533,
      "areas": 2534,
      "ils": 2535,
      "delic": 2536,
      "change": 2537,
      "roll": 2538,
      "aband": 2539,
      "unappealing": 2540,
      "mom": 2541,
      "forward": 2542,
      "caught": 2543,
      "scre": 2544,
      "shes": 2545,
      "pol": 2546,
      "plus": 2547,
      "plate": 2548,
      "ury": 2549,
      "neath": 2550,
      "anges": 2551,
      "gia": 2552,
      "qua": 2553,
      "quis": 2554,
      "quick": 2555,
      "owning": 2556,
      "splotches": 2557,
      "dragon": 2558,
      "dread": 2559,
      "contrasted": 2560,
      "project": 2561,
      "dynam": 2562,
      "bloom": 2563,
      "embr": 2564,
      "amazed": 2565,
      "underneath": 2566,
      "serv": 2567,
      "grab": 2568,
      "streaks": 2569,
      "anced": 2570,
      "phant": 2571,
      "breath": 2572,
      "cheery": 2573,
      "bigger": 2574,
      "walls": 2575,
      "visible": 2576,
      "curtain": 2577,
      "fishing": 2578,
      "saying": 2579,
      "violence": 2580,
      "defined": 2581,
      "squares": 2582,
      "fantast": 2583,
      "fantasy": 2584,
      "proportion": 2585,
      "terrifying": 2586,
      "incredibly": 2587,
      "royalty": 2588,
      "soldier": 2589,
      "drop": 2590,
      "military": 2591,
      "inspired": 2592,
      "circles": 2593,
      "swir": 2594,
      "magical": 2595,
      "jux": 2596,
      "smell": 2597,
      "satisfying": 2598,
      "historical": 2599,
      "pensive": 2600,
      "skeleton": 2601,
      "threatening": 2602,
      "familiar": 2603,
      "piano": 2604,
      "biblical": 2605,
      "dynamic": 2606,
      "bell": 2607,
      "bul": 2608,
      "cing": 2609,
      "cards": 2610,
      "dign": 2611,
      "dance": 2612,
      "eating": 2613,
      "four": 2614,
      "father": 2615,
      "gn": 2616,
      "gone": 2617,
      "glowing": 2618,
      "hell": 2619,
      "hilar": 2620,
      "igh": 2621,
      "ience": 2622,
      "mid": 2623,
      "mill": 2624,
      "oid": 2625,
      "pil": 2626,
      "pond": 2627,
      "slo": 2628,
      "sist": 2629,
      "tu": 2630,
      "zzy": 2631,
      "inal": 2632,
      "reaction": 2633,
      "second": 2634,
      "lim": 2635,
      "lift": 2636,
      "stance": 2637,
      "lean": 2638,
      "eless": 2639,
      "mass": 2640,
      "constru": 2641,
      "ables": 2642,
      "unpleasant": 2643,
      "unnatural": 2644,
      "unknown": 2645,
      "bling": 2646,
      "came": 2647,
      "amer": 2648,
      "wear": 2649,
      "weather": 2650,
      "common": 2651,
      "usion": 2652,
      "creat": 2653,
      "aching": 2654,
      "desol": 2655,
      "wouldn": 2656,
      "artistic": 2657,
      "knowing": 2658,
      "everyday": 2659,
      "horror": 2660,
      "grad": 2661,
      "presented": 2662,
      "relig": 2663,
      "famous": 2664,
      "humans": 2665,
      "surroundings": 2666,
      "effort": 2667,
      "squigg": 2668,
      "says": 2669,
      "thrown": 2670,
      "nostalgia": 2671,
      "years": 2672,
      "scribbles": 2673,
      "direction": 2674,
      "barely": 2675,
      "provide": 2676,
      "inspires": 2677,
      "humor": 2678,
      "label": 2679,
      "horizon": 2680,
      "newspaper": 2681,
      "traveling": 2682,
      "distracting": 2683,
      "cheru": 2684,
      "includ": 2685,
      "learn": 2686,
      "affect": 2687,
      "beginning": 2688,
      "birth": 2689,
      "journey": 2690,
      "fashion": 2691,
      ").": 2692,
      "ben": 2693,
      "candy": 2694,
      "ek": 2695,
      "elic": 2696,
      "fli": 2697,
      "hes": 2698,
      "jack": 2699,
      "killing": 2700,
      "mic": 2701,
      "nest": 2702,
      "row": 2703,
      "rup": 2704,
      "sn": 2705,
      "thick": 2706,
      "incomplete": 2707,
      "isp": 2708,
      "iss": 2709,
      "island": 2710,
      "loss": 2711,
      "eral": 2712,
      "metal": 2713,
      "alth": 2714,
      "oranges": 2715,
      "mask": 2716,
      "soon": 2717,
      "hear": 2718,
      "ask": 2719,
      "demean": 2720,
      "velo": 2721,
      "rial": 2722,
      "rope": 2723,
      "contain": 2724,
      "unk": 2725,
      "unsure": 2726,
      "unclear": 2727,
      "camp": 2728,
      "short": 2729,
      "amp": 2730,
      "tured": 2731,
      "ided": 2732,
      "anged": 2733,
      "laid": 2734,
      "worry": 2735,
      "lined": 2736,
      "tten": 2737,
      "attire": 2738,
      "attered": 2739,
      "creep": 2740,
      "creative": 2741,
      "otherwise": 2742,
      "aged": 2743,
      "proper": 2744,
      "penc": 2745,
      "drawings": 2746,
      "types": 2747,
      "longer": 2748,
      "realism": 2749,
      "ump": 2750,
      "stop": 2751,
      "ends": 2752,
      "trash": 2753,
      "gras": 2754,
      "grace": 2755,
      "growing": 2756,
      "babies": 2757,
      "central": 2758,
      "dresses": 2759,
      "carri": 2760,
      "pract": 2761,
      "warhol": 2762,
      "softness": 2763,
      "representation": 2764,
      "blends": 2765,
      "pops": 2766,
      "support": 2767,
      "splatter": 2768,
      "importance": 2769,
      "captiv": 2770,
      "held": 2771,
      "heavens": 2772,
      "snowy": 2773,
      "wrink": 2774,
      "priest": 2775,
      "portrays": 2776,
      "symboli": 2777,
      "spec": 2778,
      "blurred": 2779,
      "graphic": 2780,
      "crowded": 2781,
      "passion": 2782,
      "based": 2783,
      "particularly": 2784,
      "lapping": 2785,
      "concerned": 2786,
      "finger": 2787,
      "muddy": 2788,
      "stripes": 2789,
      "further": 2790,
      "washed": 2791,
      "breasts": 2792,
      "connected": 2793,
      "cluttered": 2794,
      "spiritual": 2795,
      "struggling": 2796,
      "seemingly": 2797,
      "preparing": 2798,
      "fascinating": 2799,
      "spider": 2800,
      "reminiscent": 2801,
      "abandoned": 2802,
      "quaint": 2803,
      "desolate": 2804,
      "religion": 2805,
      "demeanor": 2806,
      "cab": 2807,
      "cation": 2808,
      "dou": 2809,
      "die": 2810,
      "eas": 2811,
      "fer": 2812,
      "fren": 2813,
      "glo": 2814,
      "gown": 2815,
      "hy": 2816,
      "hint": 2817,
      "kill": 2818,
      "kitch": 2819,
      "lace": 2820,
      "non": 2821,
      "por": 2822,
      "psy": 2823,
      "sal": 2824,
      "sco": 2825,
      "spre": 2826,
      "tally": 2827,
      "valley": 2828,
      "yard": 2829,
      "isol": 2830,
      "totally": 2831,
      "oky": 2832,
      "aly": 2833,
      "stim": 2834,
      "leg": 2835,
      "lend": 2836,
      "leading": 2837,
      "coast": 2838,
      "eness": 2839,
      "mas": 2840,
      "ference": 2841,
      "intent": 2842,
      "intelli": 2843,
      "eding": 2844,
      "verse": 2845,
      "ute": 2846,
      "ution": 2847,
      "adm": 2848,
      "ador": 2849,
      "adition": 2850,
      "gets": 2851,
      "robes": 2852,
      "indust": 2853,
      "unner": 2854,
      "except": 2855,
      "formed": 2856,
      "immedi": 2857,
      "scar": 2858,
      "picasso": 2859,
      "sul": 2860,
      "ctive": 2861,
      "pless": 2862,
      "weight": 2863,
      "wealthy": 2864,
      "ieval": 2865,
      "brightly": 2866,
      "quest": 2867,
      "cream": 2868,
      "cloak": 2869,
      "peacefully": 2870,
      "relaxation": 2871,
      "desk": 2872,
      "armor": 2873,
      "aggress": 2874,
      "ggy": 2875,
      "confuses": 2876,
      "distant": 2877,
      "viewing": 2878,
      "crisp": 2879,
      "lacking": 2880,
      "designs": 2881,
      "invoke": 2882,
      "puts": 2883,
      "element": 2884,
      "elephant": 2885,
      "medit": 2886,
      "medieval": 2887,
      "nervous": 2888,
      "business": 2889,
      "blending": 2890,
      "blended": 2891,
      "skinny": 2892,
      "rectangles": 2893,
      "balanced": 2894,
      "broad": 2895,
      "conveys": 2896,
      "melancho": 2897,
      "shoes": 2898,
      "confli": 2899,
      "streets": 2900,
      "period": 2901,
      "swim": 2902,
      "magn": 2903,
      "uniform": 2904,
      "surprised": 2905,
      "minimalist": 2906,
      "elderly": 2907,
      "injured": 2908,
      "bottle": 2909,
      "sacri": 2910,
      "juxta": 2911,
      "hilarious": 2912,
      "leaning": 2913,
      "pencil": 2914,
      "specific": 2915,
      "kitchen": 2916,
      "melancholy": 2917,
      "bi": 2918,
      "bap": 2919,
      "biz": 2920,
      "blowing": 2921,
      "cro": 2922,
      "crying": 2923,
      "drun": 2924,
      "equ": 2925,
      "fly": 2926,
      "fab": 2927,
      "io": 2928,
      "ially": 2929,
      "ja": 2930,
      "mour": 2931,
      "oil": 2932,
      "pul": 2933,
      "rise": 2934,
      "sw": 2935,
      "sound": 2936,
      "train": 2937,
      "vy": 2938,
      "vom": 2939,
      "vag": 2940,
      "wil": 2941,
      "wound": 2942,
      "thor": 2943,
      "thed": 2944,
      "regre": 2945,
      "erial": 2946,
      "itude": 2947,
      "lion": 2948,
      "stair": 2949,
      "stacked": 2950,
      "eliness": 2951,
      "aces": 2952,
      "ened": 2953,
      "belong": 2954,
      "begging": 2955,
      "icing": 2956,
      "iculous": 2957,
      "intention": 2958,
      "haust": 2959,
      "hazard": 2960,
      "whites": 2961,
      "manner": 2962,
      "soc": 2963,
      "healthy": 2964,
      "illi": 2965,
      "depression": 2966,
      "decor": 2967,
      "wife": 2968,
      "chest": 2969,
      "rious": 2970,
      "pleased": 2971,
      "exhaust": 2972,
      "haphazard": 2973,
      "ifi": 2974,
      "note": 2975,
      "neon": 2976,
      "idence": 2977,
      "angular": 2978,
      "hole": 2979,
      "actual": 2980,
      "brilli": 2981,
      "scenes": 2982,
      "youth": 2983,
      "backdrop": 2984,
      "cano": 2985,
      "blacks": 2986,
      "skies": 2987,
      "foot": 2988,
      "appearing": 2989,
      "illusion": 2990,
      "tight": 2991,
      "excel": 2992,
      "donkey": 2993,
      "sensu": 2994,
      "childlike": 2995,
      "udd": 2996,
      "headed": 2997,
      "everywhere": 2998,
      "ended": 2999,
      "tradition": 3000,
      "placement": 3001,
      "tower": 3002,
      "border": 3003,
      "died": 3004,
      "enjoyable": 3005,
      "ledge": 3006,
      "tea": 3007,
      "windmill": 3008,
      "least": 3009,
      "leaving": 3010,
      "graff": 3011,
      "telling": 3012,
      "bree": 3013,
      "forms": 3014,
      "books": 3015,
      "vision": 3016,
      "loneliness": 3017,
      "curves": 3018,
      "catch": 3019,
      "sleepy": 3020,
      "pride": 3021,
      "primary": 3022,
      "spooky": 3023,
      "fields": 3024,
      "throne": 3025,
      "moonlight": 3026,
      "instruments": 3027,
      "ridiculous": 3028,
      "collage": 3029,
      "possible": 3030,
      "dreamy": 3031,
      "keeps": 3032,
      "organization": 3033,
      "distressed": 3034,
      "engaged": 3035,
      "reverence": 3036,
      "overwhelming": 3037,
      "dripping": 3038,
      "sides": 3039,
      "cubism": 3040,
      "precise": 3041,
      "dimensional": 3042,
      "communic": 3043,
      "anticip": 3044,
      "festive": 3045,
      "weapon": 3046,
      "special": 3047,
      "stimul": 3048,
      "industrial": 3049,
      "conflict": 3050,
      "drunk": 3051,
      "graffiti": 3052,
      "bon": 3053,
      "bits": 3054,
      "bull": 3055,
      "bath": 3056,
      "cry": 3057,
      "dri": 3058,
      "fast": 3059,
      "fading": 3060,
      "ired": 3061,
      "jac": 3062,
      "nun": 3063,
      "nap": 3064,
      "pure": 3065,
      "pun": 3066,
      "race": 3067,
      "scape": 3068,
      "uous": 3069,
      "vary": 3070,
      "wine": 3071,
      "zen": 3072,
      "infant": 3073,
      "thetic": 3074,
      "reali": 3075,
      "meal": 3076,
      "seve": 3077,
      "lifel": 3078,
      "arre": 3079,
      "lets": 3080,
      "ors": 3081,
      "ache": 3082,
      "madon": 3083,
      "feature": 3084,
      "femin": 3085,
      "beat": 3086,
      "icon": 3087,
      "ically": 3088,
      "coloration": 3089,
      "deci": 3090,
      "wide": 3091,
      "chie": 3092,
      "adul": 3093,
      "mold": 3094,
      "exe": 3095,
      "impli": 3096,
      "case": 3097,
      "cafe": 3098,
      "shing": 3099,
      "shot": 3100,
      "goes": 3101,
      "taste": 3102,
      "theres": 3103,
      "brows": 3104,
      "worn": 3105,
      "upper": 3106,
      "lighter": 3107,
      "disorient": 3108,
      "spend": 3109,
      "overlapping": 3110,
      "creation": 3111,
      "closed": 3112,
      "funeral": 3113,
      "desper": 3114,
      "dramatic": 3115,
      "angelic": 3116,
      "smud": 3117,
      "facing": 3118,
      "lifelike": 3119,
      "wanted": 3120,
      "sunrise": 3121,
      "bub": 3122,
      "tru": 3123,
      "waste": 3124,
      "imagin": 3125,
      "pleasure": 3126,
      "century": 3127,
      "crack": 3128,
      "monkey": 3129,
      "choppy": 3130,
      "queen": 3131,
      "prison": 3132,
      "larger": 3133,
      "phone": 3134,
      "invokes": 3135,
      "emphas": 3136,
      "points": 3137,
      "windows": 3138,
      "musician": 3139,
      "gesture": 3140,
      "glance": 3141,
      "single": 3142,
      "signif": 3143,
      "melting": 3144,
      "arrow": 3145,
      "sails": 3146,
      "starting": 3147,
      "structures": 3148,
      "subdu": 3149,
      "regular": 3150,
      "touching": 3151,
      "splattered": 3152,
      "complexity": 3153,
      "usually": 3154,
      "potent": 3155,
      "grief": 3156,
      "follow": 3157,
      "general": 3158,
      "illustration": 3159,
      "horizont": 3160,
      "overwhelmed": 3161,
      "innocent": 3162,
      "celebration": 3163,
      "number": 3164,
      "faded": 3165,
      "twist": 3166,
      "chinese": 3167,
      "memories": 3168,
      "creativity": 3169,
      "captivating": 3170,
      "admiring": 3171,
      "immediately": 3172,
      "aggressive": 3173,
      "juxtaposition": 3174,
      "bizarre": 3175,
      "fabric": 3176,
      "brilliant": 3177,
      "excellent": 3178,
      "breeze": 3179,
      "severe": 3180,
      "lifeless": 3181,
      "madonna": 3182,
      "decipher": 3183,
      "adults": 3184,
      "subdued": 3185,
      ".\"": 3186,
      "00": 3187,
      "band": 3188,
      "bby": 3189,
      "blotches": 3190,
      "cand": 3191,
      "ders": 3192,
      "date": 3193,
      "elect": 3194,
      "fle": 3195,
      "fits": 3196,
      "fountain": 3197,
      "gue": 3198,
      "gment": 3199,
      "hide": 3200,
      "late": 3201,
      "muse": 3202,
      "mort": 3203,
      "pill": 3204,
      "palle": 3205,
      "range": 3206,
      "rings": 3207,
      "sile": 3208,
      "spect": 3209,
      "tes": 3210,
      "tical": 3211,
      "tense": 3212,
      "vint": 3213,
      "wed": 3214,
      "ys": 3215,
      "inst": 3216,
      "ana": 3217,
      "loves": 3218,
      "arse": 3219,
      "arching": 3220,
      "orm": 3221,
      "acy": 3222,
      "envelo": 3223,
      "icking": 3224,
      "icken": 3225,
      "ilities": 3226,
      "dev": 3227,
      "deli": 3228,
      "delight": 3229,
      "ado": 3230,
      "admir": 3231,
      "rai": 3232,
      "raised": 3233,
      "roof": 3234,
      "rosy": 3235,
      "convers": 3236,
      "consid": 3237,
      "consist": 3238,
      "thats": 3239,
      "noble": 3240,
      "uninteresting": 3241,
      "uncertain": 3242,
      "exist": 3243,
      "exquis": 3244,
      "sometimes": 3245,
      "aming": 3246,
      "ames": 3247,
      "pick": 3248,
      "ceiling": 3249,
      "sume": 3250,
      "gotten": 3251,
      "therefore": 3252,
      "lower": 3253,
      "notice": 3254,
      "apart": 3255,
      "appli": 3256,
      "string": 3257,
      "peoples": 3258,
      "activ": 3259,
      "worship": 3260,
      "uplift": 3261,
      "attach": 3262,
      "focal": 3263,
      "dish": 3264,
      "dismal": 3265,
      "treat": 3266,
      "excites": 3267,
      "sens": 3268,
      "despair": 3269,
      "faced": 3270,
      "lotch": 3271,
      "wanting": 3272,
      "sunshine": 3273,
      "bum": 3274,
      "stoic": 3275,
      "stomach": 3276,
      "gged": 3277,
      "wave": 3278,
      "crashing": 3279,
      "monst": 3280,
      "houe": 3281,
      "gazing": 3282,
      "cloudy": 3283,
      "grav": 3284,
      "framing": 3285,
      "formal": 3286,
      "handsome": 3287,
      "invol": 3288,
      "floral": 3289,
      "pointed": 3290,
      "awful": 3291,
      "nightma": 3292,
      "representing": 3293,
      "bloody": 3294,
      "helps": 3295,
      "unched": 3296,
      "highly": 3297,
      "highlights": 3298,
      "priv": 3299,
      "trans": 3300,
      "transp": 3301,
      "prayer": 3302,
      "pub": 3303,
      "collect": 3304,
      "collar": 3305,
      "basket": 3306,
      "possib": 3307,
      "compan": 3308,
      "geometry": 3309,
      "christmas": 3310,
      "drug": 3311,
      "silhoue": 3312,
      "clim": 3313,
      "command": 3314,
      "annoying": 3315,
      "puzzled": 3316,
      "scribbled": 3317,
      "heavenly": 3318,
      "safety": 3319,
      "daughter": 3320,
      "seaside": 3321,
      "garments": 3322,
      "rocky": 3323,
      "places": 3324,
      "placed": 3325,
      "statement": 3326,
      "splashes": 3327,
      "frustration": 3328,
      "satisfied": 3329,
      "destru": 3330,
      "hunting": 3331,
      "crucified": 3332,
      "profess": 3333,
      "muscles": 3334,
      "experience": 3335,
      "original": 3336,
      "monochromatic": 3337,
      "determined": 3338,
      "contemplative": 3339,
      "horrible": 3340,
      "samu": 3341,
      "grabbing": 3342,
      "fantastic": 3343,
      "cabin": 3344,
      "easily": 3345,
      "spread": 3346,
      "vomit": 3347,
      "regret": 3348,
      "exhausted": 3349,
      "sensual": 3350,
      "varying": 3351,
      "execut": 3352,
      "vintage": 3353,
      "admiration": 3354,
      "ah": 3355,
      "aud": 3356,
      "ahead": 3357,
      "bel": 3358,
      "bag": 3359,
      "cart": 3360,
      "cla": 3361,
      "cked": 3362,
      "dar": 3363,
      "ded": 3364,
      "epic": 3365,
      "fy": 3366,
      "fles": 3367,
      "hens": 3368,
      "kim": 3369,
      "ns": 3370,
      "ots": 3371,
      "pup": 3372,
      "pile": 3373,
      "sli": 3374,
      "tie": 3375,
      "tried": 3376,
      "thus": 3377,
      "inde": 3378,
      "ision": 3379,
      "ofy": 3380,
      "atic": 3381,
      "meant": 3382,
      "sees": 3383,
      "seren": 3384,
      "searching": 3385,
      "lives": 3386,
      "allow": 3387,
      "star": 3388,
      "stroll": 3389,
      "accom": 3390,
      "coal": 3391,
      "costu": 3392,
      "likely": 3393,
      "icy": 3394,
      "intens": 3395,
      "hazy": 3396,
      "edom": 3397,
      "version": 3398,
      "pee": 3399,
      "soci": 3400,
      "owl": 3401,
      "deer": 3402,
      "admi": 3403,
      "advert": 3404,
      "rider": 3405,
      "mod": 3406,
      "force": 3407,
      "forced": 3408,
      "somebody": 3409,
      "entr": 3410,
      "scu": 3411,
      "shed": 3412,
      "butter": 3413,
      "goat": 3414,
      "rous": 3415,
      "poll": 3416,
      "apparent": 3417,
      "pictured": 3418,
      "strang": 3419,
      "idy": 3420,
      "ides": 3421,
      "mental": 3422,
      "lazy": 3423,
      "actions": 3424,
      "worth": 3425,
      "brighter": 3426,
      "sedu": 3427,
      "upward": 3428,
      "watches": 3429,
      "attacked": 3430,
      "dislike": 3431,
      "spark": 3432,
      "closer": 3433,
      "greenery": 3434,
      "deser": 3435,
      "arming": 3436,
      "smir": 3437,
      "guard": 3438,
      "produ": 3439,
      "saint": 3440,
      "typical": 3441,
      "knowledge": 3442,
      "plays": 3443,
      "reality": 3444,
      "rays": 3445,
      "stories": 3446,
      "disting": 3447,
      "born": 3448,
      "ushing": 3449,
      "eyebrows": 3450,
      "grain": 3451,
      "tells": 3452,
      "tortured": 3453,
      "earthy": 3454,
      "ffy": 3455,
      "turning": 3456,
      "reflected": 3457,
      "positioning": 3458,
      "pinks": 3459,
      "helpless": 3460,
      "mischie": 3461,
      "opening": 3462,
      "oddly": 3463,
      "trail": 3464,
      "vari": 3465,
      "freedom": 3466,
      "wooden": 3467,
      "singing": 3468,
      "material": 3469,
      "flu": 3470,
      "boys": 3471,
      "strikes": 3472,
      "symbolic": 3473,
      "symbols": 3474,
      "speak": 3475,
      "confidence": 3476,
      "marily": 3477,
      "jump": 3478,
      "keeping": 3479,
      "sickly": 3480,
      "shiny": 3481,
      "beside": 3482,
      "stuck": 3483,
      "virgin": 3484,
      "bathing": 3485,
      "displays": 3486,
      "directly": 3487,
      "mesh": 3488,
      "dominates": 3489,
      "resemble": 3490,
      "snakes": 3491,
      "welcoming": 3492,
      "decay": 3493,
      "harmony": 3494,
      "ritual": 3495,
      "indicate": 3496,
      "cubist": 3497,
      "sorrow": 3498,
      "oriental": 3499,
      "listening": 3500,
      "tropical": 3501,
      "crucifi": 3502,
      "fills": 3503,
      "symbolism": 3504,
      "drinking": 3505,
      "jewel": 3506,
      "murder": 3507,
      "approaching": 3508,
      "attacking": 3509,
      "meeting": 3510,
      "feathers": 3511,
      "branch": 3512,
      "branches": 3513,
      "entertaining": 3514,
      "irritated": 3515,
      "scares": 3516,
      "divine": 3517,
      "breathtaking": 3518,
      "dignified": 3519,
      "american": 3520,
      "gradient": 3521,
      "micro": 3522,
      "campbell": 3523,
      "unnerving": 3524,
      "scarf": 3525,
      "magnific": 3526,
      "implies": 3527,
      "horizontal": 3528,
      "conversation": 3529,
      "exquisite": 3530,
      "activities": 3531,
      "silhouette": 3532,
      "samurai": 3533,
      "kimon": 3534,
      "serenity": 3535,
      "accompl": 3536,
      "costume": 3537,
      "crucifix": 3538,
      "80s": 3539,
      "aver": 3540,
      "aur": 3541,
      "alot": 3542,
      "awa": 3543,
      "bent": 3544,
      "bars": 3545,
      "ccess": 3546,
      "eu": 3547,
      "eur": 3548,
      "egg": 3549,
      "fell": 3550,
      "hitting": 3551,
      "ier": 3552,
      "izing": 3553,
      "ively": 3554,
      "jar": 3555,
      "lu": 3556,
      "ler": 3557,
      "mone": 3558,
      "mist": 3559,
      "matt": 3560,
      "none": 3561,
      "pitch": 3562,
      "ris": 3563,
      "rout": 3564,
      "rul": 3565,
      "slow": 3566,
      "scow": 3567,
      "tun": 3568,
      "uish": 3569,
      "vs": 3570,
      "wit": 3571,
      "ines": 3572,
      "revol": 3573,
      "repet": 3574,
      "resul": 3575,
      "reshing": 3576,
      "log": 3577,
      "escape": 3578,
      "mex": 3579,
      "send": 3580,
      "season": 3581,
      "severed": 3582,
      "arri": 3583,
      "kets": 3584,
      "okay": 3585,
      "alt": 3586,
      "already": 3587,
      "album": 3588,
      "stay": 3589,
      "stab": 3590,
      "acc": 3591,
      "accur": 3592,
      "enorm": 3593,
      "math": 3594,
      "mascu": 3595,
      "beli": 3596,
      "ict": 3597,
      "iced": 3598,
      "eds": 3599,
      "pear": 3600,
      "solit": 3601,
      "asking": 3602,
      "deformed": 3603,
      "ional": 3604,
      "chuck": 3605,
      "changed": 3606,
      "chicken": 3607,
      "rap": 3608,
      "const": 3609,
      "concer": 3610,
      "concept": 3611,
      "abor": 3612,
      "nowhere": 3613,
      "plex": 3614,
      "exam": 3615,
      "expressive": 3616,
      "bless": 3617,
      "camel": 3618,
      "cathed": 3619,
      "ams": 3620,
      "amid": 3621,
      "ambig": 3622,
      "cere": 3623,
      "sus": 3624,
      "whats": 3625,
      "pool": 3626,
      "polit": 3627,
      "wea": 3628,
      "wet": 3629,
      "wealth": 3630,
      "apple": 3631,
      "sheer": 3632,
      "greet": 3633,
      "hop": 3634,
      "holi": 3635,
      "laz": 3636,
      "reminder": 3637,
      "reminded": 3638,
      "acting": 3639,
      "rounded": 3640,
      "restaur": 3641,
      "displaying": 3642,
      "sparse": 3643,
      "persons": 3644,
      "personality": 3645,
      "perplex": 3646,
      "esty": 3647,
      "drew": 3648,
      "smug": 3649,
      "smoking": 3650,
      "process": 3651,
      "office": 3652,
      "buy": 3653,
      "umin": 3654,
      "trust": 3655,
      "blobs": 3656,
      "distinct": 3657,
      "partially": 3658,
      "enjoyment": 3659,
      "cru": 3660,
      "monot": 3661,
      "tears": 3662,
      "forefront": 3663,
      "clash": 3664,
      "clashing": 3665,
      "fined": 3666,
      "finish": 3667,
      "rendered": 3668,
      "quet": 3669,
      "stret": 3670,
      "shadowy": 3671,
      "aster": 3672,
      "refreshing": 3673,
      "breaking": 3674,
      "formation": 3675,
      "represented": 3676,
      "layout": 3677,
      "suppose": 3678,
      "thoughtful": 3679,
      "villa": 3680,
      "optical": 3681,
      "rectangle": 3682,
      "harbor": 3683,
      "signific": 3684,
      "carefree": 3685,
      "shoulder": 3686,
      "venice": 3687,
      "parade": 3688,
      "stripe": 3689,
      "dreaming": 3690,
      "ruined": 3691,
      "sailboats": 3692,
      "addition": 3693,
      "started": 3694,
      "craw": 3695,
      "market": 3696,
      "effects": 3697,
      "orderly": 3698,
      "blanket": 3699,
      "disturbed": 3700,
      "relation": 3701,
      "relate": 3702,
      "ception": 3703,
      "passing": 3704,
      "grandmother": 3705,
      "student": 3706,
      "madness": 3707,
      "necklace": 3708,
      "daily": 3709,
      "blocky": 3710,
      "kni": 3711,
      "circus": 3712,
      "fingers": 3713,
      "potato": 3714,
      "prints": 3715,
      "flag": 3716,
      "pier": 3717,
      "pipe": 3718,
      "historic": 3719,
      "sticks": 3720,
      "indicates": 3721,
      "outdoors": 3722,
      "fairy": 3723,
      "lord": 3724,
      "profile": 3725,
      "associ": 3726,
      "folds": 3727,
      "casual": 3728,
      "court": 3729,
      "judging": 3730,
      "interpretation": 3731,
      "murky": 3732,
      "slaves": 3733,
      "author": 3734,
      "expected": 3735,
      "monochrome": 3736,
      "disappointed": 3737,
      "observe": 3738,
      "honestly": 3739,
      "bouquet": 3740,
      "blooming": 3741,
      "wrinkles": 3742,
      "scope": 3743,
      "isolated": 3744,
      "swimming": 3745,
      "mourning": 3746,
      "stairs": 3747,
      "traditional": 3748,
      "anticipation": 3749,
      "jacket": 3750,
      "emphasiz": 3751,
      "twisted": 3752,
      "museum": 3753,
      "attached": 3754,
      "audience": 3755,
      "seductive": 3756,
      "kimono": 3757,
      "europe": 3758,
      "slowly": 3759,
      "enormous": 3760,
      "blessing": 3761,
      "cathedral": 3762,
      "!!": 3763,
      "\".": 3764,
      "80": 3765,
      "aes": 3766,
      "apo": 3767,
      "aqu": 3768,
      "bt": 3769,
      "bers": 3770,
      "brain": 3771,
      "bones": 3772,
      "cel": 3773,
      "cri": 3774,
      "coff": 3775,
      "dim": 3776,
      "dus": 3777,
      "dry": 3778,
      "eth": 3779,
      "eac": 3780,
      "gli": 3781,
      "gas": 3782,
      "gall": 3783,
      "gest": 3784,
      "hall": 3785,
      "hip": 3786,
      "lunch": 3787,
      "lamp": 3788,
      "mug": 3789,
      "mund": 3790,
      "ners": 3791,
      "omen": 3792,
      "oked": 3793,
      "rad": 3794,
      "rural": 3795,
      "sch": 3796,
      "tv": 3797,
      "tent": 3798,
      "tta": 3799,
      "task": 3800,
      "vul": 3801,
      "win": 3802,
      "wis": 3803,
      "wag": 3804,
      "ths": 3805,
      "ino": 3806,
      "infin": 3807,
      "repe": 3808,
      "resp": 3809,
      "isha": 3810,
      "islands": 3811,
      "local": 3812,
      "lock": 3813,
      "location": 3814,
      "erce": 3815,
      "erotic": 3816,
      "onlook": 3817,
      "italy": 3818,
      "told": 3819,
      "total": 3820,
      "liage": 3821,
      "lived": 3822,
      "arro": 3823,
      "army": 3824,
      "aling": 3825,
      "stum": 3826,
      "sticking": 3827,
      "letter": 3828,
      "elabor": 3829,
      "ork": 3830,
      "mast": 3831,
      "bewil": 3832,
      "papers": 3833,
      "height": 3834,
      "fuzzy": 3835,
      "assume": 3836,
      "iles": 3837,
      "paints": 3838,
      "deal": 3839,
      "decent": 3840,
      "chill": 3841,
      "ribut": 3842,
      "rotting": 3843,
      "roses": 3844,
      "conj": 3845,
      "abs": 3846,
      "plent": 3847,
      "outlines": 3848,
      "outfits": 3849,
      "expressed": 3850,
      "forgotten": 3851,
      "imm": 3852,
      "immer": 3853,
      "scrat": 3854,
      "scattered": 3855,
      "shi": 3856,
      "ami": 3857,
      "ssing": 3858,
      "success": 3859,
      "arted": 3860,
      "ctic": 3861,
      "gover": 3862,
      "gods": 3863,
      "goofy": 3864,
      "anting": 3865,
      "pling": 3866,
      "tap": 3867,
      "wee": 3868,
      "urally": 3869,
      "makeup": 3870,
      "contin": 3871,
      "gree": 3872,
      "angled": 3873,
      "host": 3874,
      "homes": 3875,
      "brut": 3876,
      "worthy": 3877,
      "owner": 3878,
      "upsetting": 3879,
      "foggy": 3880,
      "illumin": 3881,
      "discu": 3882,
      "disorganized": 3883,
      "disarray": 3884,
      "disorganization": 3885,
      "eyed": 3886,
      "span": 3887,
      "spent": 3888,
      "spilled": 3889,
      "splotch": 3890,
      "share": 3891,
      "ties": 3892,
      "itten": 3893,
      "bleeding": 3894,
      "relaxes": 3895,
      "wasn": 3896,
      "vibes": 3897,
      "agony": 3898,
      "smiles": 3899,
      "difference": 3900,
      "ishment": 3901,
      "said": 3902,
      "sunday": 3903,
      "sunflowers": 3904,
      "played": 3905,
      "abstractness": 3906,
      "wonderland": 3907,
      "name": 3908,
      "nasty": 3909,
      "nailed": 3910,
      "joyful": 3911,
      "ernal": 3912,
      "frowning": 3913,
      "trunk": 3914,
      "styles": 3915,
      "wait": 3916,
      "grown": 3917,
      "warming": 3918,
      "dizzy": 3919,
      "shaded": 3920,
      "enjoyed": 3921,
      "emer": 3922,
      "portraits": 3923,
      "amaze": 3924,
      "surface": 3925,
      "crown": 3926,
      "teeth": 3927,
      "fierce": 3928,
      "foreign": 3929,
      "getic": 3930,
      "windy": 3931,
      "leaf": 3932,
      "gave": 3933,
      "shadowing": 3934,
      "ashes": 3935,
      "designed": 3936,
      "warning": 3937,
      "extra": 3938,
      "turing": 3939,
      "turtle": 3940,
      "reflective": 3941,
      "awed": 3942,
      "complement": 3943,
      "energi": 3944,
      "randomness": 3945,
      "wallpaper": 3946,
      "isement": 3947,
      "lays": 3948,
      "curly": 3949,
      "zebra": 3950,
      "sketched": 3951,
      "hats": 3952,
      "intrigue": 3953,
      "written": 3954,
      "doorway": 3955,
      "turns": 3956,
      "strike": 3957,
      "status": 3958,
      "coupled": 3959,
      "mellow": 3960,
      "melted": 3961,
      "dreams": 3962,
      "arrows": 3963,
      "classical": 3964,
      "company": 3965,
      "craft": 3966,
      "jumble": 3967,
      "barn": 3968,
      "related": 3969,
      "majesty": 3970,
      "shines": 3971,
      "whimsy": 3972,
      "hurts": 3973,
      "hurting": 3974,
      "demons": 3975,
      "boxes": 3976,
      "answ": 3977,
      "faint": 3978,
      "farmer": 3979,
      "ocative": 3980,
      "occur": 3981,
      "stares": 3982,
      "burst": 3983,
      "knees": 3984,
      "sized": 3985,
      "protecting": 3986,
      "protection": 3987,
      "placid": 3988,
      "grim": 3989,
      "smeared": 3990,
      "following": 3991,
      "mainly": 3992,
      "decided": 3993,
      "frustrated": 3994,
      "plane": 3995,
      "universe": 3996,
      "leads": 3997,
      "cliffs": 3998,
      "fairly": 3999,
      "palace": 4000,
      "halos": 4001,
      "folded": 4002,
      "rustic": 4003,
      "vegetation": 4004,
      "vegetables": 4005,
      "parents": 4006,
      "experien": 4007,
      "fades": 4008,
      "pulls": 4009,
      "bustling": 4010,
      "looming": 4011,
      "domestic": 4012,
      "disappointing": 4013,
      "victo": 4014,
      "haunting": 4015,
      "delicious": 4016,
      "embrace": 4017,
      "service": 4018,
      "swirls": 4019,
      "cherub": 4020,
      "cherubs": 4021,
      "including": 4022,
      "included": 4023,
      "elicit": 4024,
      "jackson": 4025,
      "carriage": 4026,
      "passionate": 4027,
      "coastal": 4028,
      "intelligent": 4029,
      "question": 4030,
      "meditative": 4031,
      "sacrific": 4032,
      "specifically": 4033,
      "bapt": 4034,
      "pulled": 4035,
      "vague": 4036,
      "society": 4037,
      "stimulating": 4038,
      "feminine": 4039,
      "truly": 4040,
      "potential": 4041,
      "candle": 4042,
      "electric": 4043,
      "silent": 4044,
      "delightful": 4045,
      "uplifting": 4046,
      "nightmare": 4047,
      "private": 4048,
      "public": 4049,
      "possibilities": 4050,
      "mischievous": 4051,
      "marilyn": 4052,
      "magnificent": 4053,
      "accomplished": 4054,
      "money": 4055,
      "chuckle": 4056,
      "ceremon": 4057,
      "restaurant": 4058,
      "monotone": 4059,
      "knife": 4060,
      "aesthetic": 4061,
      "coffin": 4062,
      "dusk": 4063,
      "elaborate": 4064,
      "??": 4065,
      "bbit": 4066,
      "bible": 4067,
      "cell": 4068,
      "cence": 4069,
      "dow": 4070,
      "dain": 4071,
      "dude": 4072,
      "dried": 4073,
      "eper": 4074,
      "five": 4075,
      "grip": 4076,
      "hn": 4077,
      "hue": 4078,
      "hunched": 4079,
      "iving": 4080,
      "jaw": 4081,
      "kin": 4082,
      "knew": 4083,
      "lis": 4084,
      "lers": 4085,
      "llic": 4086,
      "mally": 4087,
      "mine": 4088,
      "oo": 4089,
      "ose": 4090,
      "plo": 4091,
      "pse": 4092,
      "pack": 4093,
      "rows": 4094,
      "sour": 4095,
      "swing": 4096,
      "ten": 4097,
      "tint": 4098,
      "tly": 4099,
      "test": 4100,
      "va": 4101,
      "van": 4102,
      "wand": 4103,
      "york": 4104,
      "thod": 4105,
      "inner": 4106,
      "information": 4107,
      "thearted": 4108,
      "anato": 4109,
      "reco": 4110,
      "rema": 4111,
      "rece": 4112,
      "rena": 4113,
      "recent": 4114,
      "return": 4115,
      "logo": 4116,
      "loud": 4117,
      "loween": 4118,
      "erous": 4119,
      "mem": 4120,
      "memb": 4121,
      "method": 4122,
      "today": 4123,
      "tough": 4124,
      "arou": 4125,
      "ory": 4126,
      "accent": 4127,
      "cott": 4128,
      "coll": 4129,
      "cotta": 4130,
      "liked": 4131,
      "mashed": 4132,
      "feat": 4133,
      "beast": 4134,
      "become": 4135,
      "intro": 4136,
      "vering": 4137,
      "pay": 4138,
      "pasto": 4139,
      "passed": 4140,
      "peas": 4141,
      "peach": 4142,
      "petal": 4143,
      "ilt": 4144,
      "dem": 4145,
      "uts": 4146,
      "utes": 4147,
      "ads": 4148,
      "geisha": 4149,
      "raught": 4150,
      "ramid": 4151,
      "rot": 4152,
      "rose": 4153,
      "conta": 4154,
      "wol": 4155,
      "ably": 4156,
      "ability": 4157,
      "uncle": 4158,
      "unexpected": 4159,
      "mosa": 4160,
      "exposed": 4161,
      "acks": 4162,
      "causing": 4163,
      "prey": 4164,
      "shut": 4165,
      "picious": 4166,
      "ssip": 4167,
      "butt": 4168,
      "gossip": 4169,
      "doll": 4170,
      "item": 4171,
      "pope": 4172,
      "web": 4173,
      "noticed": 4174,
      "comfy": 4175,
      "control": 4176,
      "neigh": 4177,
      "grew": 4178,
      "hother": 4179,
      "brand": 4180,
      "brick": 4181,
      "pyramid": 4182,
      "caly": 4183,
      "bye": 4184,
      "frozen": 4185,
      "attempt": 4186,
      "attitude": 4187,
      "fog": 4188,
      "foliage": 4189,
      "disci": 4190,
      "disproportion": 4191,
      "disconcer": 4192,
      "spray": 4193,
      "spaces": 4194,
      "overly": 4195,
      "shame": 4196,
      "personal": 4197,
      "senses": 4198,
      "skyline": 4199,
      "john": 4200,
      "etc": 4201,
      "sai": 4202,
      "offset": 4203,
      "tools": 4204,
      "clever": 4205,
      "heading": 4206,
      "umbre": 4207,
      "store": 4208,
      "trical": 4209,
      "grow": 4210,
      "towel": 4211,
      "distraught": 4212,
      "enjoys": 4213,
      "whether": 4214,
      "assort": 4215,
      "ushed": 4216,
      "suggestion": 4217,
      "chose": 4218,
      "chosen": 4219,
      "grave": 4220,
      "minent": 4221,
      "stress": 4222,
      "loose": 4223,
      "ears": 4224,
      "often": 4225,
      "vibrancy": 4226,
      "bread": 4227,
      "purse": 4228,
      "warf": 4229,
      "forming": 4230,
      "charcoal": 4231,
      "flood": 4232,
      "turbu": 4233,
      "thanks": 4234,
      "reflections": 4235,
      "aware": 4236,
      "ripples": 4237,
      "positioned": 4238,
      "energetic": 4239,
      "threw": 4240,
      "raining": 4241,
      "worldly": 4242,
      "popping": 4243,
      "homey": 4244,
      "surrounds": 4245,
      "visual": 4246,
      "curved": 4247,
      "helping": 4248,
      "squir": 4249,
      "sketches": 4250,
      "seriously": 4251,
      "naturally": 4252,
      "talk": 4253,
      "painful": 4254,
      "suming": 4255,
      "gently": 4256,
      "bedroom": 4257,
      "signs": 4258,
      "portrayal": 4259,
      "transl": 4260,
      "crossing": 4261,
      "yourself": 4262,
      "ballo": 4263,
      "halloween": 4264,
      "throw": 4265,
      "throwing": 4266,
      "paralle": 4267,
      "moonlit": 4268,
      "stormy": 4269,
      "statues": 4270,
      "ruins": 4271,
      "wonderfully": 4272,
      "speaks": 4273,
      "ughty": 4274,
      "drowning": 4275,
      "dancer": 4276,
      "happily": 4277,
      "barren": 4278,
      "value": 4279,
      "values": 4280,
      "satur": 4281,
      "groups": 4282,
      "poorly": 4283,
      "glasses": 4284,
      "lighthearted": 4285,
      "grandeur": 4286,
      "demonic": 4287,
      "demonstr": 4288,
      "normally": 4289,
      "displayed": 4290,
      "directions": 4291,
      "fake": 4292,
      "holly": 4293,
      "tranquility": 4294,
      "occup": 4295,
      "tribal": 4296,
      "provoking": 4297,
      "dominance": 4298,
      "milk": 4299,
      "garb": 4300,
      "humble": 4301,
      "impressionist": 4302,
      "compliments": 4303,
      "ghostly": 4304,
      "labor": 4305,
      "frustrating": 4306,
      "cheek": 4307,
      "breakfast": 4308,
      "symmetrical": 4309,
      "reverent": 4310,
      "destination": 4311,
      "panels": 4312,
      "patient": 4313,
      "innocence": 4314,
      "listen": 4315,
      "community": 4316,
      "machine": 4317,
      "muscular": 4318,
      "aspects": 4319,
      "film": 4320,
      "entertained": 4321,
      "determination": 4322,
      "rendition": 4323,
      "rendering": 4324,
      "haunted": 4325,
      "grotes": 4326,
      "mildly": 4327,
      "tiles": 4328,
      "wrapping": 4329,
      "screen": 4330,
      "pollock": 4331,
      "quickly": 4332,
      "smells": 4333,
      "pillows": 4334,
      "construct": 4335,
      "squiggly": 4336,
      "flies": 4337,
      "snif": 4338,
      "practicing": 4339,
      "double": 4340,
      "doubt": 4341,
      "french": 4342,
      "wedding": 4343,
      "consider": 4344,
      "consistent": 4345,
      "applied": 4346,
      "monstrous": 4347,
      "collection": 4348,
      "destruction": 4349,
      "flesh": 4350,
      "social": 4351,
      "advertisement": 4352,
      "strangely": 4353,
      "idyllic": 4354,
      "smirk": 4355,
      "produce": 4356,
      "jewelry": 4357,
      "average": 4358,
      "repetitive": 4359,
      "result": 4360,
      "accident": 4361,
      "accurate": 4362,
      "masculine": 4363,
      "ambiguous": 4364,
      "suspicious": 4365,
      "significance": 4366,
      "crawling": 4367,
      "potatoes": 4368,
      "apocaly": 4369,
      "eachother": 4370,
      "wagon": 4371,
      "infinite": 4372,
      "onlookers": 4373,
      "discussing": 4374,
      "amazement": 4375,
      "energizing": 4376,
      "anatomy": 4377,
      "recogn": 4378,
      "remains": 4379,
      "aroused": 4380,
      "cotton": 4381,
      "pastoral": 4382,
      "petals": 4383,
      "contagious": 4384,
      "neighbor": 4385,
      "disconcerting": 4386,
      "(?)": 4387,
      "20": 4388,
      "alo": 4389,
      "bun": 4390,
      "base": 4391,
      "crou": 4392,
      "cig": 4393,
      "cated": 4394,
      "ctor": 4395,
      "dig": 4396,
      "dama": 4397,
      "dden": 4398,
      "ec": 4399,
      "eing": 4400,
      "fis": 4401,
      "fice": 4402,
      "fate": 4403,
      "fond": 4404,
      "gal": 4405,
      "gence": 4406,
      "gins": 4407,
      "hit": 4408,
      "ith": 4409,
      "ior": 4410,
      "iqu": 4411,
      "ka": 4412,
      "kno": 4413,
      "lant": 4414,
      "lur": 4415,
      "lla": 4416,
      "oper": 4417,
      "pt": 4418,
      "pin": 4419,
      "pit": 4420,
      "pent": 4421,
      "pour": 4422,
      "pants": 4423,
      "packed": 4424,
      "ran": 4425,
      "rus": 4426,
      "ration": 4427,
      "rug": 4428,
      "sne": 4429,
      "spy": 4430,
      "sident": 4431,
      "tale": 4432,
      "tangled": 4433,
      "uity": 4434,
      "vig": 4435,
      "void": 4436,
      "wre": 4437,
      "wrest": 4438,
      "witch": 4439,
      "zation": 4440,
      "thous": 4441,
      "thorn": 4442,
      "inci": 4443,
      "inquis": 4444,
      "rec": 4445,
      "ress": 4446,
      "remark": 4447,
      "refined": 4448,
      "ises": 4449,
      "loun": 4450,
      "lovers": 4451,
      "errat": 4452,
      "essence": 4453,
      "itment": 4454,
      "itated": 4455,
      "itali": 4456,
      "ater": 4457,
      "met": 4458,
      "mead": 4459,
      "sets": 4460,
      "seated": 4461,
      "semi": 4462,
      "toy": 4463,
      "lig": 4464,
      "lies": 4465,
      "argu": 4466,
      "arily": 4467,
      "arian": 4468,
      "kening": 4469,
      "allowing": 4470,
      "alert": 4471,
      "leis": 4472,
      "aced": 4473,
      "acher": 4474,
      "acular": 4475,
      "accept": 4476,
      "costum": 4477,
      "map": 4478,
      "mail": 4479,
      "maze": 4480,
      "feeding": 4481,
      "beheaded": 4482,
      "begins": 4483,
      "hay": 4484,
      "edgy": 4485,
      "whale": 4486,
      "colorless": 4487,
      "manic": 4488,
      "pable": 4489,
      "pets": 4490,
      "peak": 4491,
      "peering": 4492,
      "pears": 4493,
      "heal": 4494,
      "herent": 4495,
      "health": 4496,
      "hectic": 4497,
      "ases": 4498,
      "aside": 4499,
      "deck": 4500,
      "deeper": 4501,
      "vet": 4502,
      "wire": 4503,
      "wizard": 4504,
      "chal": 4505,
      "ades": 4506,
      "ram": 4507,
      "raw": 4508,
      "rabbit": 4509,
      "rian": 4510,
      "roots": 4511,
      "contorted": 4512,
      "seeking": 4513,
      "seemed": 4514,
      "irregular": 4515,
      "please": 4516,
      "pleading": 4517,
      "uneven": 4518,
      "unrealistic": 4519,
      "mob": 4520,
      "explain": 4521,
      "forth": 4522,
      "forlor": 4523,
      "someones": 4524,
      "imposing": 4525,
      "cake": 4526,
      "caping": 4527,
      "catho": 4528,
      "bother": 4529,
      "scent": 4530,
      "scient": 4531,
      "pregn": 4532,
      "president": 4533,
      "shell": 4534,
      "sharing": 4535,
      "redness": 4536,
      "amate": 4537,
      "picking": 4538,
      "hero": 4539,
      "rought": 4540,
      "antly": 4541,
      "antage": 4542,
      "doom": 4543,
      "wears": 4544,
      "notes": 4545,
      "compre": 4546,
      "contempt": 4547,
      "contribut": 4548,
      "ieve": 4549,
      "usage": 4550,
      "net": 4551,
      "called": 4552,
      "restful": 4553,
      "elling": 4554,
      "frog": 4555,
      "quir": 4556,
      "tted": 4557,
      "upside": 4558,
      "watched": 4559,
      "attemp": 4560,
      "skirt": 4561,
      "thinks": 4562,
      "disinterested": 4563,
      "discover": 4564,
      "disorder": 4565,
      "discomfort": 4566,
      "disrup": 4567,
      "disdain": 4568,
      "overlooking": 4569,
      "overhead": 4570,
      "overtones": 4571,
      "tied": 4572,
      "tival": 4573,
      "contents": 4574,
      "ideas": 4575,
      "daydreaming": 4576,
      "achieve": 4577,
      "drama": 4578,
      "vior": 4579,
      "proble": 4580,
      "progress": 4581,
      "prominent": 4582,
      "offering": 4583,
      "bug": 4584,
      "bush": 4585,
      "bushes": 4586,
      "built": 4587,
      "everybody": 4588,
      "nause": 4589,
      "tions": 4590,
      "frown": 4591,
      "frantic": 4592,
      "igned": 4593,
      "downcast": 4594,
      "blob": 4595,
      "blocking": 4596,
      "comforted": 4597,
      "viewed": 4598,
      "crud": 4599,
      "cracked": 4600,
      "monk": 4601,
      "teacher": 4602,
      "fiery": 4603,
      "understanding": 4604,
      "clue": 4605,
      "hours": 4606,
      "meanings": 4607,
      "torso": 4608,
      "smaller": 4609,
      "phys": 4610,
      "brewing": 4611,
      "fragment": 4612,
      "interaction": 4613,
      "interrup": 4614,
      "handle": 4615,
      "walked": 4616,
      "tops": 4617,
      "stillness": 4618,
      "floats": 4619,
      "medical": 4620,
      "badly": 4621,
      "cutting": 4622,
      "positions": 4623,
      "alice": 4624,
      "disgusts": 4625,
      "inspire": 4626,
      "rainy": 4627,
      "split": 4628,
      "sketching": 4629,
      "misshap": 4630,
      "movements": 4631,
      "lessly": 4632,
      "tragic": 4633,
      "velvet": 4634,
      "seriousness": 4635,
      "highlight": 4636,
      "aftermath": 4637,
      "pained": 4638,
      "combine": 4639,
      "couples": 4640,
      "grays": 4641,
      "bringing": 4642,
      "cord": 4643,
      "signed": 4644,
      "signature": 4645,
      "bald": 4646,
      "flames": 4647,
      "greys": 4648,
      "ension": 4649,
      "nearly": 4650,
      "smog": 4651,
      "cartoony": 4652,
      "gentlemen": 4653,
      "rub": 4654,
      "arranged": 4655,
      "definite": 4656,
      "blessed": 4657,
      "shoe": 4658,
      "expans": 4659,
      "casting": 4660,
      "cram": 4661,
      "jumping": 4662,
      "silver": 4663,
      "climb": 4664,
      "rels": 4665,
      "sexy": 4666,
      "males": 4667,
      "passes": 4668,
      "hearted": 4669,
      "starkness": 4670,
      "roads": 4671,
      "fade": 4672,
      "adventures": 4673,
      "farming": 4674,
      "burned": 4675,
      "frightened": 4676,
      "balls": 4677,
      "eaten": 4678,
      "unders": 4679,
      "garment": 4680,
      "levels": 4681,
      "amongst": 4682,
      "skulls": 4683,
      "architect": 4684,
      "flags": 4685,
      "stains": 4686,
      "strips": 4687,
      "illustrates": 4688,
      "harmon": 4689,
      "entirely": 4690,
      "washing": 4691,
      "neatly": 4692,
      "mystical": 4693,
      "destroy": 4694,
      "panel": 4695,
      "volcano": 4696,
      "events": 4697,
      "clutching": 4698,
      "innov": 4699,
      "surprising": 4700,
      "violins": 4701,
      "vegetarian": 4702,
      "festival": 4703,
      "masterpiece": 4704,
      "sheets": 4705,
      "tornado": 4706,
      "clowns": 4707,
      "filter": 4708,
      "weapons": 4709,
      "complimentary": 4710,
      "trouble": 4711,
      "sections": 4712,
      "descending": 4713,
      "embracing": 4714,
      "servants": 4715,
      "curtains": 4716,
      "fantastical": 4717,
      "bulging": 4718,
      "dignity": 4719,
      "midst": 4720,
      "pillow": 4721,
      "sloppy": 4722,
      "massive": 4723,
      "construction": 4724,
      "humorous": 4725,
      "fashioned": 4726,
      "issance": 4727,
      "contains": 4728,
      "creeps": 4729,
      "grasshop": 4730,
      "graceful": 4731,
      "symbolizes": 4732,
      "adorable": 4733,
      "sacrifice": 4734,
      "crossed": 4735,
      "jazz": 4736,
      "sounds": 4737,
      "uddle": 4738,
      "communicate": 4739,
      "nuns": 4740,
      "realized": 4741,
      "desperate": 4742,
      "pillar": 4743,
      "spectacular": 4744,
      "sensation": 4745,
      "gravity": 4746,
      "involved": 4747,
      "transport": 4748,
      "companion": 4749,
      "drugs": 4750,
      "climate": 4751,
      "professional": 4752,
      "intensity": 4753,
      "entrance": 4754,
      "deserted": 4755,
      "variations": 4756,
      "jarring": 4757,
      "pitcher": 4758,
      "scowl": 4759,
      "witness": 4760,
      "revolution": 4761,
      "amidst": 4762,
      "hopeless": 4763,
      "perplexed": 4764,
      "cruel": 4765,
      "stretched": 4766,
      "relationship": 4767,
      "european": 4768,
      "mundane": 4769,
      "vulner": 4770,
      "respon": 4771,
      "plenty": 4772,
      "shiel": 4773,
      "spanish": 4774,
      "experiencing": 4775,
      "plotting": 4776,
      "source": 4777,
      "receiving": 4778,
      "renaissance": 4779,
      "recently": 4780,
      "cottage": 4781,
      "mosaic": 4782,
      "sailor": 4783,
      "assortment": 4784,
      "parallel": 4785,
      "grotesque": 4786,
      "sniffing": 4787,
      "fisher": 4788,
      "inquisitive": 4789,
      "erratic": 4790,
      "costumes": 4791,
      "forlorn": 4792,
      "catholic": 4793,
      "pregnant": 4794,
      "amateur": 4795,
      "expansive": 4796,
      "15": 4797,
      "70s": 4798,
      "athe": 4799,
      "awaiting": 4800,
      "agree": 4801,
      "bis": 4802,
      "bly": 4803,
      "bay": 4804,
      "blow": 4805,
      "bid": 4806,
      "bud": 4807,
      "blot": 4808,
      "bound": 4809,
      "barr": 4810,
      "bending": 4811,
      "cus": 4812,
      "caring": 4813,
      "cared": 4814,
      "dad": 4815,
      "dun": 4816,
      "dust": 4817,
      "daw": 4818,
      "dwarf": 4819,
      "eves": 4820,
      "east": 4821,
      "eath": 4822,
      "fist": 4823,
      "flight": 4824,
      "fellow": 4825,
      "fence": 4826,
      "filling": 4827,
      "gif": 4828,
      "gate": 4829,
      "gments": 4830,
      "gigg": 4831,
      "games": 4832,
      "hits": 4833,
      "hound": 4834,
      "hence": 4835,
      "hudd": 4836,
      "hino": 4837,
      "iot": 4838,
      "kiss": 4839,
      "luck": 4840,
      "mr": 4841,
      "nit": 4842,
      "nel": 4843,
      "nur": 4844,
      "native": 4845,
      "oh": 4846,
      "pp": 4847,
      "pon": 4848,
      "pra": 4849,
      "pper": 4850,
      "pious": 4851,
      "pump": 4852,
      "pushing": 4853,
      "ron": 4854,
      "rac": 4855,
      "rhino": 4856,
      "sink": 4857,
      "swa": 4858,
      "sque": 4859,
      "smashed": 4860,
      "tit": 4861,
      "ub": 4862,
      "udes": 4863,
      "uali": 4864,
      "uished": 4865,
      "vit": 4866,
      "wn": 4867,
      "wint": 4868,
      "wist": 4869,
      "inion": 4870,
      "incon": 4871,
      "inity": 4872,
      "analy": 4873,
      "rein": 4874,
      "rear": 4875,
      "reas": 4876,
      "isy": 4877,
      "isto": 4878,
      "isnt": 4879,
      "issu": 4880,
      "logy": 4881,
      "erally": 4882,
      "erable": 4883,
      "essed": 4884,
      "escaping": 4885,
      "itation": 4886,
      "atop": 4887,
      "meld": 4888,
      "search": 4889,
      "section": 4890,
      "topic": 4891,
      "lip": 4892,
      "likes": 4893,
      "liber": 4894,
      "lions": 4895,
      "arches": 4896,
      "aristo": 4897,
      "oker": 4898,
      "allows": 4899,
      "alarming": 4900,
      "stes": 4901,
      "stit": 4902,
      "stam": 4903,
      "stif": 4904,
      "stup": 4905,
      "stable": 4906,
      "stip": 4907,
      "stances": 4908,
      "length": 4909,
      "orgy": 4910,
      "ordered": 4911,
      "actured": 4912,
      "cock": 4913,
      "comed": 4914,
      "ene": 4915,
      "enh": 4916,
      "ende": 4917,
      "enance": 4918,
      "engl": 4919,
      "maid": 4920,
      "feed": 4921,
      "females": 4922,
      "beer": 4923,
      "bear": 4924,
      "bearing": 4925,
      "bears": 4926,
      "became": 4927,
      "inty": 4928,
      "ham": 4929,
      "whil": 4930,
      "whip": 4931,
      "manages": 4932,
      "peer": 4933,
      "soph": 4934,
      "heck": 4935,
      "futur": 4936,
      "illy": 4937,
      "paintbrush": 4938,
      "decap": 4939,
      "ures": 4940,
      "vege": 4941,
      "chim": 4942,
      "chilling": 4943,
      "charming": 4944,
      "ripe": 4945,
      "rome": 4946,
      "rocking": 4947,
      "cone": 4948,
      "conto": 4949,
      "congre": 4950,
      "concent": 4951,
      "abl": 4952,
      "absur": 4953,
      "absence": 4954,
      "abund": 4955,
      "absor": 4956,
      "nobody": 4957,
      "noise": 4958,
      "novel": 4959,
      "indist": 4960,
      "indian": 4961,
      "pled": 4962,
      "unease": 4963,
      "unorganized": 4964,
      "unattractive": 4965,
      "moses": 4966,
      "exotic": 4967,
      "forman": 4968,
      "forces": 4969,
      "forgiven": 4970,
      "blind": 4971,
      "blah": 4972,
      "immen": 4973,
      "camer": 4974,
      "capable": 4975,
      "boob": 4976,
      "bothered": 4977,
      "scan": 4978,
      "science": 4979,
      "pred": 4980,
      "preted": 4981,
      "prefer": 4982,
      "shel": 4983,
      "shimmer": 4984,
      "reddish": 4985,
      "picked": 4986,
      "suf": 4987,
      "suic": 4988,
      "sumo": 4989,
      "superi": 4990,
      "doctor": 4991,
      "ify": 4992,
      "pole": 4993,
      "poster": 4994,
      "poop": 4995,
      "plast": 4996,
      "tail": 4997,
      "tastes": 4998,
      "weary": 4999,
      "weeds": 5000,
      "ists": 5001,
      "comput": 5002,
      "contact": 5003,
      "strings": 5004,
      "greek": 5005,
      "angling": 5006,
      "hoping": 5007,
      "hovering": 5008,
      "odds": 5009,
      "scenic": 5010,
      "calmed": 5011,
      "liness": 5012,
      "myth": 5013,
      "presses": 5014,
      "calms": 5015,
      "calmly": 5016,
      "cane": 5017,
      "attend": 5018,
      "attending": 5019,
      "vest": 5020,
      "skilled": 5021,
      "ills": 5022,
      "sprout": 5023,
      "spaced": 5024,
      "overcast": 5025,
      "detailing": 5026,
      "crete": 5027,
      "tizing": 5028,
      "portal": 5029,
      "portun": 5030,
      "peacefulness": 5031,
      "evocative": 5032,
      "perched": 5033,
      "performan": 5034,
      "establ": 5035,
      "drag": 5036,
      "ager": 5037,
      "aggrav": 5038,
      "childs": 5039,
      "smart": 5040,
      "faceless": 5041,
      "uded": 5042,
      "beings": 5043,
      "join": 5044,
      "guide": 5045,
      "flows": 5046,
      "whose": 5047,
      "yellowish": 5048,
      "promo": 5049,
      "prosp": 5050,
      "sausage": 5051,
      "savior": 5052,
      "penis": 5053,
      "pending": 5054,
      "anymore": 5055,
      "anywhere": 5056,
      "headless": 5057,
      "headache": 5058,
      "navy": 5059,
      "joyous": 5060,
      "stood": 5061,
      "stokes": 5062,
      "goodbye": 5063,
      "fron": 5064,
      "fractured": 5065,
      "whenever": 5066,
      "kinds": 5067,
      "hugging": 5068,
      "towering": 5069,
      "cubes": 5070,
      "wheat": 5071,
      "amazes": 5072,
      "survi": 5073,
      "mona": 5074,
      "phob": 5075,
      "tear": 5076,
      "teen": 5077,
      "oting": 5078,
      "photos": 5079,
      "club": 5080,
      "cluded": 5081,
      "serving": 5082,
      "series": 5083,
      "serpent": 5084,
      "finally": 5085,
      "tons": 5086,
      "mothers": 5087,
      "minutes": 5088,
      "linework": 5089,
      "nakedness": 5090,
      "younger": 5091,
      "messiness": 5092,
      "emotionally": 5093,
      "frames": 5094,
      "check": 5095,
      "cheese": 5096,
      "sincere": 5097,
      "interpreted": 5098,
      "ffles": 5099,
      "invite": 5100,
      "humanity": 5101,
      "newborn": 5102,
      "brushes": 5103,
      "curiousity": 5104,
      "representative": 5105,
      "sorts": 5106,
      "airplane": 5107,
      "rained": 5108,
      "layered": 5109,
      "golds": 5110,
      "capturing": 5111,
      "resigned": 5112,
      "current": 5113,
      "helmet": 5114,
      "mission": 5115,
      "opened": 5116,
      "heavily": 5117,
      "trait": 5118,
      "paste": 5119,
      "clothed": 5120,
      "bowed": 5121,
      "glaring": 5122,
      "highlighting": 5123,
      "deeply": 5124,
      "focusing": 5125,
      "varied": 5126,
      "appeals": 5127,
      "counter": 5128,
      "countenance": 5129,
      "freak": 5130,
      "opinion": 5131,
      "opportun": 5132,
      "corpor": 5133,
      "priate": 5134,
      "signal": 5135,
      "portraying": 5136,
      "kened": 5137,
      "carefully": 5138,
      "shouldn": 5139,
      "shoulders": 5140,
      "postcard": 5141,
      "conveying": 5142,
      "mustard": 5143,
      "ensive": 5144,
      "nearby": 5145,
      "cleaning": 5146,
      "fireplace": 5147,
      "static": 5148,
      "possessed": 5149,
      "added": 5150,
      "speck": 5151,
      "marching": 5152,
      "ucing": 5153,
      "organic": 5154,
      "barbed": 5155,
      "blurring": 5156,
      "crowds": 5157,
      "closely": 5158,
      "closeness": 5159,
      "literally": 5160,
      "exploring": 5161,
      "engul": 5162,
      "rolled": 5163,
      "basically": 5164,
      "chedelic": 5165,
      "sandy": 5166,
      "scribble": 5167,
      "scribbling": 5168,
      "drops": 5169,
      "hollow": 5170,
      "triangle": 5171,
      "apprehens": 5172,
      "burnt": 5173,
      "knee": 5174,
      "dominate": 5175,
      "concerning": 5176,
      "dirt": 5177,
      "complicated": 5178,
      "griev": 5179,
      "ghosts": 5180,
      "folks": 5181,
      "spirits": 5182,
      "splashed": 5183,
      "196": 5184,
      "1980s": 5185,
      "calling": 5186,
      "generic": 5187,
      "generally": 5188,
      "pix": 5189,
      "furnit": 5190,
      "mirrors": 5191,
      "secrets": 5192,
      "planet": 5193,
      "planning": 5194,
      "illustrated": 5195,
      "annoys": 5196,
      "appreciation": 5197,
      "gonna": 5198,
      "reveal": 5199,
      "lettering": 5200,
      "connecting": 5201,
      "cardboard": 5202,
      "drips": 5203,
      "slashes": 5204,
      "leader": 5205,
      "simpler": 5206,
      "distracted": 5207,
      "sorry": 5208,
      "fortun": 5209,
      "precious": 5210,
      "precision": 5211,
      "surprise": 5212,
      "freshly": 5213,
      "intimidated": 5214,
      "celebrate": 5215,
      "celebrating": 5216,
      "struggle": 5217,
      "warriors": 5218,
      "shoreline": 5219,
      "course": 5220,
      "judge": 5221,
      "condition": 5222,
      "numbers": 5223,
      "slaughter": 5224,
      "appropriate": 5225,
      "distressing": 5226,
      "aura": 5227,
      "guns": 5228,
      "vastness": 5229,
      "origin": 5230,
      "shopping": 5231,
      "banana": 5232,
      "talented": 5233,
      "explorers": 5234,
      "bought": 5235,
      "troubled": 5236,
      "victim": 5237,
      "tilted": 5238,
      "delicate": 5239,
      "screams": 5240,
      "swirling": 5241,
      "skeletons": 5242,
      "ighs": 5243,
      "limited": 5244,
      "americ": 5245,
      "squiggles": 5246,
      "affection": 5247,
      "fashionable": 5248,
      "bench": 5249,
      "practice": 5250,
      "symbolize": 5251,
      "frenzy": 5252,
      "hints": 5253,
      "psychedelic": 5254,
      "isolation": 5255,
      "intelligence": 5256,
      "decorated": 5257,
      "driving": 5258,
      "realize": 5259,
      "iconic": 5260,
      "disorienting": 5261,
      "disoriented": 5262,
      "smudged": 5263,
      "bubble": 5264,
      "bubbles": 5265,
      "signify": 5266,
      "fleeing": 5267,
      "pallet": 5268,
      "pallete": 5269,
      "deliber": 5270,
      "climbing": 5271,
      "commandments": 5272,
      "executed": 5273,
      "darkening": 5274,
      "peeking": 5275,
      "admire": 5276,
      "models": 5277,
      "polluted": 5278,
      "distinguish": 5279,
      "graininess": 5280,
      "fluffy": 5281,
      "decaying": 5282,
      "crucifixion": 5283,
      "lux": 5284,
      "matters": 5285,
      "rules": 5286,
      "altern": 5287,
      "stabbed": 5288,
      "belief": 5289,
      "solitude": 5290,
      "example": 5291,
      "weathered": 5292,
      "greeting": 5293,
      "holiday": 5294,
      "lazily": 5295,
      "associated": 5296,
      "authority": 5297,
      "emphasizes": 5298,
      "glimp": 5299,
      "wisdom": 5300,
      "arrogant": 5301,
      "bewilder": 5302,
      "successful": 5303,
      "tapest": 5304,
      "emerging": 5305,
      "victorian": 5306,
      "silently": 5307,
      "ceremony": 5308,
      "aesthetically": 5309,
      "downt": 5310,
      "lisa": 5311,
      "member": 5312,
      "members": 5313,
      "collap": 5314,
      "pyramids": 5315,
      "disciples": 5316,
      "umbrella": 5317,
      "flooded": 5318,
      "turbulent": 5319,
      "squirrels": 5320,
      "balloons": 5321,
      "patiently": 5322,
      "constructed": 5323,
      "recogniz": 5324,
      "neighborhood": 5325,
      "20th": 5326,
      "crouched": 5327,
      "damaged": 5328,
      "lantern": 5329,
      "pouring": 5330,
      "thorns": 5331,
      "lounging": 5332,
      "meadow": 5333,
      "leisure": 5334,
      "chalk": 5335,
      "contributes": 5336,
      "quirky": 5337,
      "problems": 5338,
      "misshapen": 5339,
      "architectural": 5340,
      "destroyed": 5341,
      "innovative": 5342,
      "grasshopper": 5343,
      "response": 5344,
      "shield": 5345,
      "fisherman": 5346,
      "dawn": 5347,
      "ponder": 5348,
      "wistful": 5349,
      "aristocr": 5350,
      "stippling": 5351,
      "whilst": 5352,
      "futuristic": 5353,
      "decapitated": 5354,
      "vegetable": 5355,
      "chimney": 5356,
      "congreg": 5357,
      "absurd": 5358,
      "indistinct": 5359,
      "forgiveness": 5360,
      "immense": 5361,
      "camera": 5362,
      "superior": 5363,
      "furniture": 5364,
      "),": 5365,
      "00s": 5366,
      "18": 5367,
      "?\"": 5368,
      "ai": 5369,
      "ail": 5370,
      "aust": 5371,
      "aked": 5372,
      "afr": 5373,
      "aunt": 5374,
      "bend": 5375,
      "bund": 5376,
      "bats": 5377,
      "bicy": 5378,
      "brought": 5379,
      "cit": 5380,
      "cure": 5381,
      "chap": 5382,
      "crest": 5383,
      "dd": 5384,
      "dan": 5385,
      "dut": 5386,
      "dge": 5387,
      "dent": 5388,
      "dess": 5389,
      "dual": 5390,
      "dict": 5391,
      "ere": 5392,
      "eve": 5393,
      "elong": 5394,
      "fend": 5395,
      "fanc": 5396,
      "fres": 5397,
      "font": 5398,
      "gers": 5399,
      "gart": 5400,
      "gance": 5401,
      "gery": 5402,
      "gloom": 5403,
      "hen": 5404,
      "hus": 5405,
      "hend": 5406,
      "hte": 5407,
      "harp": 5408,
      "ico": 5409,
      "ien": 5410,
      "iers": 5411,
      "ido": 5412,
      "iment": 5413,
      "ium": 5414,
      "ji": 5415,
      "jug": 5416,
      "jung": 5417,
      "kite": 5418,
      "knot": 5419,
      "kale": 5420,
      "kong": 5421,
      "lum": 5422,
      "mint": 5423,
      "mpic": 5424,
      "mers": 5425,
      "mush": 5426,
      "mping": 5427,
      "mph": 5428,
      "nce": 5429,
      "nment": 5430,
      "nour": 5431,
      "nia": 5432,
      "narrow": 5433,
      "oy": 5434,
      "ore": 5435,
      "oly": 5436,
      "ored": 5437,
      "olent": 5438,
      "oval": 5439,
      "pha": 5440,
      "phe": 5441,
      "pir": 5442,
      "ption": 5443,
      "ptic": 5444,
      "puddle": 5445,
      "rt": 5446,
      "rud": 5447,
      "rical": 5448,
      "racing": 5449,
      "rushed": 5450,
      "sar": 5451,
      "sly": 5452,
      "sive": 5453,
      "sands": 5454,
      "song": 5455,
      "spective": 5456,
      "slap": 5457,
      "tans": 5458,
      "tending": 5459,
      "tables": 5460,
      "titude": 5461,
      "uated": 5462,
      "vent": 5463,
      "vation": 5464,
      "vide": 5465,
      "vors": 5466,
      "wl": 5467,
      "ws": 5468,
      "wri": 5469,
      "yo": 5470,
      "yr": 5471,
      "yum": 5472,
      "zart": 5473,
      "ziness": 5474,
      "thic": 5475,
      "third": 5476,
      "thighs": 5477,
      "initi": 5478,
      "insect": 5479,
      "inherent": 5480,
      "remo": 5481,
      "relea": 5482,
      "recall": 5483,
      "retro": 5484,
      "returning": 5485,
      "loy": 5486,
      "load": 5487,
      "loping": 5488,
      "losing": 5489,
      "ero": 5490,
      "ergart": 5491,
      "oning": 5492,
      "onic": 5493,
      "select": 5494,
      "secluded": 5495,
      "secure": 5496,
      "toes": 5497,
      "tood": 5498,
      "todd": 5499,
      "lia": 5500,
      "lime": 5501,
      "liar": 5502,
      "lifor": 5503,
      "lized": 5504,
      "lization": 5505,
      "arly": 5506,
      "arus": 5507,
      "keen": 5508,
      "oul": 5509,
      "alco": 5510,
      "allig": 5511,
      "stig": 5512,
      "station": 5513,
      "strolling": 5514,
      "stump": 5515,
      "leap": 5516,
      "leep": 5517,
      "lemon": 5518,
      "acid": 5519,
      "accep": 5520,
      "accompan": 5521,
      "ench": 5522,
      "likeness": 5523,
      "mama": 5524,
      "mathem": 5525,
      "maga": 5526,
      "magic": 5527,
      "feated": 5528,
      "bee": 5529,
      "beac": 5530,
      "becu": 5531,
      "icked": 5532,
      "iceless": 5533,
      "habit": 5534,
      "paired": 5535,
      "pathetic": 5536,
      "peac": 5537,
      "soil": 5538,
      "heard": 5539,
      "assed": 5540,
      "assuming": 5541,
      "asleep": 5542,
      "illic": 5543,
      "dear": 5544,
      "develo": 5545,
      "defeated": 5546,
      "utili": 5547,
      "wid": 5548,
      "chat": 5549,
      "challen": 5550,
      "adding": 5551,
      "gear": 5552,
      "geor": 5553,
      "riad": 5554,
      "roe": 5555,
      "cony": 5556,
      "conver": 5557,
      "consu": 5558,
      "connot": 5559,
      "concrete": 5560,
      "abuse": 5561,
      "nost": 5562,
      "noisy": 5563,
      "uninterested": 5564,
      "unfamiliar": 5565,
      "moves": 5566,
      "movi": 5567,
      "mozart": 5568,
      "outer": 5569,
      "expressing": 5570,
      "expensive": 5571,
      "exception": 5572,
      "bluish": 5573,
      "imp": 5574,
      "imposed": 5575,
      "imply": 5576,
      "califor": 5577,
      "bores": 5578,
      "boots": 5579,
      "ents": 5580,
      "entry": 5581,
      "scra": 5582,
      "scroll": 5583,
      "preschool": 5584,
      "shar": 5585,
      "pically": 5586,
      "cting": 5587,
      "gogh": 5588,
      "gothic": 5589,
      "anted": 5590,
      "antique": 5591,
      "dove": 5592,
      "uster": 5593,
      "polar": 5594,
      "poised": 5595,
      "poison": 5596,
      "plates": 5597,
      "platter": 5598,
      "igr": 5599,
      "weak": 5600,
      "darks": 5601,
      "combo": 5602,
      "composed": 5603,
      "compar": 5604,
      "compassion": 5605,
      "caused": 5606,
      "strict": 5607,
      "necess": 5608,
      "angst": 5609,
      "hosp": 5610,
      "mentally": 5611,
      "laven": 5612,
      "oding": 5613,
      "odle": 5614,
      "sadly": 5615,
      "sadden": 5616,
      "justice": 5617,
      "worked": 5618,
      "lincol": 5619,
      "brightens": 5620,
      "myriad": 5621,
      "backward": 5622,
      "queness": 5623,
      "ttes": 5624,
      "upbeat": 5625,
      "attle": 5626,
      "attering": 5627,
      "fox": 5628,
      "lightning": 5629,
      "disfigure": 5630,
      "disgu": 5631,
      "disappears": 5632,
      "discovered": 5633,
      "disconnected": 5634,
      "disordered": 5635,
      "disbelief": 5636,
      "spell": 5637,
      "sport": 5638,
      "overlaying": 5639,
      "overweight": 5640,
      "shared": 5641,
      "tian": 5642,
      "tier": 5643,
      "otherworldly": 5644,
      "funky": 5645,
      "itty": 5646,
      "tress": 5647,
      "treated": 5648,
      "watercolor": 5649,
      "waterfall": 5650,
      "excess": 5651,
      "expressionless": 5652,
      "ideal": 5653,
      "draft": 5654,
      "agram": 5655,
      "factory": 5656,
      "udgery": 5657,
      "abled": 5658,
      "joke": 5659,
      "guest": 5660,
      "whoever": 5661,
      "prostit": 5662,
      "saved": 5663,
      "sauc": 5664,
      "sunglasses": 5665,
      "offer": 5666,
      "offic": 5667,
      "offers": 5668,
      "offensive": 5669,
      "iously": 5670,
      "anybody": 5671,
      "wonders": 5672,
      "tool": 5673,
      "tooth": 5674,
      "buff": 5675,
      "bugs": 5676,
      "clearing": 5677,
      "cleav": 5678,
      "headdress": 5679,
      "nail": 5680,
      "nage": 5681,
      "nails": 5682,
      "naughty": 5683,
      "umb": 5684,
      "stores": 5685,
      "themes": 5686,
      "goodness": 5687,
      "horns": 5688,
      "kindergart": 5689,
      "tablecloth": 5690,
      "endar": 5691,
      "endless": 5692,
      "trick": 5693,
      "wake": 5694,
      "waits": 5695,
      "waking": 5696,
      "wavy": 5697,
      "gru": 5698,
      "grin": 5699,
      "gran": 5700,
      "grows": 5701,
      "placements": 5702,
      "hug": 5703,
      "warmer": 5704,
      "borders": 5705,
      "parting": 5706,
      "divid": 5707,
      "embarr": 5708,
      "viewers": 5709,
      "hairstyle": 5710,
      "centre": 5711,
      "centric": 5712,
      "posite": 5713,
      "....": 5714,
      "crus": 5715,
      "crum": 5716,
      "crude": 5717,
      "teh": 5718,
      "tele": 5719,
      "teaching": 5720,
      "nothingness": 5721,
      "fix": 5722,
      "ipment": 5723,
      "dressing": 5724,
      "cluster": 5725,
      "served": 5726,
      "chase": 5727,
      "final": 5728,
      "toned": 5729,
      "chores": 5730,
      "caric": 5731,
      "carry": 5732,
      "carving": 5733,
      "carved": 5734,
      "gaunt": 5735,
      "princ": 5736,
      "priceless": 5737,
      "finding": 5738,
      "grapes": 5739,
      "stressed": 5740,
      "torture": 5741,
      "loos": 5742,
      "shadowed": 5743,
      "icky": 5744,
      "happens": 5745,
      "phy": 5746,
      "phen": 5747,
      "ashy": 5748,
      "framed": 5749,
      "interact": 5750,
      "interplay": 5751,
      "intersect": 5752,
      "interior": 5753,
      "mixing": 5754,
      "charge": 5755,
      "chariot": 5756,
      "invoking": 5757,
      "horseman": 5758,
      "flock": 5759,
      "empor": 5760,
      "weirdly": 5761,
      "humanoid": 5762,
      "medals": 5763,
      "completed": 5764,
      "boldness": 5765,
      "powering": 5766,
      "randomly": 5767,
      "airy": 5768,
      "hiking": 5769,
      "hibit": 5770,
      "textured": 5771,
      "layer": 5772,
      "layed": 5773,
      "visiting": 5774,
      "lonesome": 5775,
      "supper": 5776,
      "curled": 5777,
      "mercy": 5778,
      "openness": 5779,
      "bowing": 5780,
      "glad": 5781,
      "cats": 5782,
      "cater": 5783,
      "paining": 5784,
      "perfection": 5785,
      "freely": 5786,
      "firm": 5787,
      "courage": 5788,
      "grayscale": 5789,
      "matches": 5790,
      "strongly": 5791,
      "sleeves": 5792,
      "correct": 5793,
      "corners": 5794,
      "rectangular": 5795,
      "stein": 5796,
      "prim": 5797,
      "runs": 5798,
      "spoiled": 5799,
      "obsc": 5800,
      "doors": 5801,
      "quietly": 5802,
      "crosses": 5803,
      "balcony": 5804,
      "brooding": 5805,
      "flute": 5806,
      "flaming": 5807,
      "needed": 5808,
      "hillside": 5809,
      "thrilled": 5810,
      "posters": 5811,
      "berries": 5812,
      "mustache": 5813,
      "puffy": 5814,
      "morbid": 5815,
      "simplified": 5816,
      "summertime": 5817,
      "column": 5818,
      "conveyed": 5819,
      "covers": 5820,
      "ival": 5821,
      "multitude": 5822,
      "rubs": 5823,
      "ruffles": 5824,
      "definition": 5825,
      "speaking": 5826,
      "stalking": 5827,
      "straw": 5828,
      "starts": 5829,
      "ribbon": 5830,
      "casts": 5831,
      "castic": 5832,
      "crazed": 5833,
      "drudgery": 5834,
      "ondent": 5835,
      "ucked": 5836,
      "multicolored": 5837,
      "valent": 5838,
      "advantage": 5839,
      "picturesque": 5840,
      "relative": 5841,
      "major": 5842,
      "combinations": 5843,
      "keys": 5844,
      "besides": 5845,
      "certa": 5846,
      "substance": 5847,
      "terrified": 5848,
      "regard": 5849,
      "exploding": 5850,
      "exploration": 5851,
      "touches": 5852,
      "grandma": 5853,
      "boxy": 5854,
      "moody": 5855,
      "puzzling": 5856,
      "bathed": 5857,
      "studying": 5858,
      "earthly": 5859,
      "dropped": 5860,
      "dropping": 5861,
      "orned": 5862,
      "splattering": 5863,
      "fail": 5864,
      "despondent": 5865,
      "pastels": 5866,
      "ducks": 5867,
      "occas": 5868,
      "tries": 5869,
      "trium": 5870,
      "provokes": 5871,
      "provoke": 5872,
      "sizes": 5873,
      "circum": 5874,
      "humility": 5875,
      "guessing": 5876,
      "technical": 5877,
      "grime": 5878,
      "smear": 5879,
      "199": 5880,
      "flavors": 5881,
      "pia": 5882,
      "romance": 5883,
      "pathway": 5884,
      "glows": 5885,
      "harming": 5886,
      "anguish": 5887,
      "clutter": 5888,
      "respectful": 5889,
      "absolute": 5890,
      "honor": 5891,
      "patch": 5892,
      "patches": 5893,
      "determine": 5894,
      "hotel": 5895,
      "reads": 5896,
      "?),": 5897,
      "judged": 5898,
      "indifference": 5899,
      "masterful": 5900,
      "boardwalk": 5901,
      "prepared": 5902,
      "fascinated": 5903,
      "origami": 5904,
      "spiders": 5905,
      "banal": 5906,
      "devilish": 5907,
      "observer": 5908,
      "observing": 5909,
      "contemplating": 5910,
      "genu": 5911,
      "stepping": 5912,
      "bottles": 5913,
      "descri": 5914,
      "divinity": 5915,
      "species": 5916,
      "wrapped": 5917,
      "separation": 5918,
      "separate": 5919,
      "separating": 5920,
      "separated": 5921,
      "polka": 5922,
      "limbs": 5923,
      "squiggle": 5924,
      "beneath": 5925,
      "nested": 5926,
      "nestled": 5927,
      "snu": 5928,
      "grasp": 5929,
      "carriages": 5930,
      "priests": 5931,
      "glorious": 5932,
      "psych": 5933,
      "salt": 5934,
      "adoring": 5935,
      "magnified": 5936,
      "equal": 5937,
      "equally": 5938,
      "equipment": 5939,
      "wounded": 5940,
      "belongs": 5941,
      "intentional": 5942,
      "haphazardly": 5943,
      "bonding": 5944,
      "bulls": 5945,
      "bathroom": 5946,
      "punished": 5947,
      "punishment": 5948,
      "desperation": 5949,
      "smudges": 5950,
      "truth": 5951,
      "imagining": 5952,
      "imaginative": 5953,
      "cracks": 5954,
      "monkeys": 5955,
      "musicians": 5956,
      "gestures": 5957,
      "potentially": 5958,
      "brilliantly": 5959,
      "severely": 5960,
      "pillars": 5961,
      "enveloping": 5962,
      "application": 5963,
      "treatment": 5964,
      "monsters": 5965,
      "destructive": 5966,
      "execution": 5967,
      "belly": 5968,
      "bags": 5969,
      "darkened": 5970,
      "puppy": 5971,
      "model": 5972,
      "butterfly": 5973,
      "butterflies": 5974,
      "pollution": 5975,
      "apparently": 5976,
      "saints": 5977,
      "distinguished": 5978,
      "variation": 5979,
      "gradients": 5980,
      "microscope": 5981,
      "awaits": 5982,
      "mexican": 5983,
      "mexico": 5984,
      "sending": 5985,
      "arriving": 5986,
      "pearl": 5987,
      "politic": 5988,
      "holidays": 5989,
      "piercing": 5990,
      "associate": 5991,
      "crime": 5992,
      "gallery": 5993,
      "halluc": 5994,
      "schol": 5995,
      "repeated": 5996,
      "masters": 5997,
      "conjures": 5998,
      "scratch": 5999,
      "government": 6000,
      "continue": 6001,
      "brutal": 6002,
      "illuminated": 6003,
      "splotchy": 6004,
      "crafted": 6005,
      "answer": 6006,
      "answers": 6007,
      "occurring": 6008,
      "sacrificed": 6009,
      "baptism": 6010,
      "electricity": 6011,
      "wander": 6012,
      "introspective": 6013,
      "peasants": 6014,
      "stressful": 6015,
      "thanksgiving": 6016,
      "demonstrates": 6017,
      "garbage": 6018,
      "bunny": 6019,
      "eccentric": 6020,
      "galloping": 6021,
      "iques": 6022,
      "wreck": 6023,
      "thousands": 6024,
      "remarkable": 6025,
      "italian": 6026,
      "argument": 6027,
      "acceptance": 6028,
      "attempting": 6029,
      "progression": 6030,
      "crudely": 6031,
      "physically": 6032,
      "interrupted": 6033,
      "understood": 6034,
      "witnessing": 6035,
      "vulnerable": 6036,
      "eastern": 6037,
      "huddled": 6038,
      "pumpkin": 6039,
      "titan": 6040,
      "vitality": 6041,
      "issue": 6042,
      "stiff": 6043,
      "stupid": 6044,
      "enemy": 6045,
      "enhances": 6046,
      "sophistic": 6047,
      "contour": 6048,
      "performance": 6049,
      "grieving": 6050,
      "glimpse": 6051,
      "tapestry": 6052,
      "austere": 6053,
      "african": 6054,
      "chapel": 6055,
      "dictator": 6056,
      "elongated": 6057,
      "fresco": 6058,
      "husband": 6059,
      "jungle": 6060,
      "kaleido": 6061,
      "olympic": 6062,
      "sarcastic": 6063,
      "video": 6064,
      "yummy": 6065,
      "initially": 6066,
      "alcohol": 6067,
      "alligator": 6068,
      "magaz": 6069,
      "becuase": 6070,
      "illicit": 6071,
      "challenge": 6072,
      "movies": 6073,
      "california": 6074,
      "comparison": 6075,
      "hospit": 6076,
      "lavender": 6077,
      "saddened": 6078,
      "backwards": 6079,
      "divided": 6080,
      "princess": 6081,
      "!\"": 6082,
      "\",": 6083,
      "10": 6084,
      "100": 6085,
      ":)": 6086,
      "ax": 6087,
      "alous": 6088,
      "bc": 6089,
      "bat": 6090,
      "bite": 6091,
      "brid": 6092,
      "bons": 6093,
      "bride": 6094,
      "blows": 6095,
      "blotch": 6096,
      "cke": 6097,
      "cred": 6098,
      "cact": 6099,
      "cise": 6100,
      "cinde": 6101,
      "cattle": 6102,
      "dap": 6103,
      "dav": 6104,
      "drying": 6105,
      "dapple": 6106,
      "dabs": 6107,
      "dangling": 6108,
      "dumb": 6109,
      "ea": 6110,
      "eli": 6111,
      "emo": 6112,
      "ethere": 6113,
      "ezing": 6114,
      "egy": 6115,
      "easter": 6116,
      "fk": 6117,
      "fal": 6118,
      "fare": 6119,
      "fers": 6120,
      "fitting": 6121,
      "gig": 6122,
      "gid": 6123,
      "hing": 6124,
      "hed": 6125,
      "hund": 6126,
      "ii": 6127,
      "ime": 6128,
      "ives": 6129,
      "iest": 6130,
      "iates": 6131,
      "ires": 6132,
      "ikes": 6133,
      "iven": 6134,
      "jer": 6135,
      "jel": 6136,
      "jet": 6137,
      "jama": 6138,
      "jfk": 6139,
      "ker": 6140,
      "kins": 6141,
      "kicking": 6142,
      "kitty": 6143,
      "las": 6144,
      "labo": 6145,
      "lusc": 6146,
      "lane": 6147,
      "mt": 6148,
      "mart": 6149,
      "mate": 6150,
      "mused": 6151,
      "nes": 6152,
      "nie": 6153,
      "nation": 6154,
      "nched": 6155,
      "nced": 6156,
      "oon": 6157,
      "opy": 6158,
      "oph": 6159,
      "omed": 6160,
      "oster": 6161,
      "olive": 6162,
      "pis": 6163,
      "pow": 6164,
      "pout": 6165,
      "pant": 6166,
      "pip": 6167,
      "push": 6168,
      "porn": 6169,
      "punched": 6170,
      "panting": 6171,
      "ptian": 6172,
      "rare": 6173,
      "rhe": 6174,
      "rink": 6175,
      "rated": 6176,
      "rhy": 6177,
      "san": 6178,
      "sof": 6179,
      "sse": 6180,
      "spa": 6181,
      "sest": 6182,
      "sass": 6183,
      "spain": 6184,
      "sister": 6185,
      "swatches": 6186,
      "sacks": 6187,
      "tar": 6188,
      "ters": 6189,
      "tif": 6190,
      "tus": 6191,
      "tile": 6192,
      "tend": 6193,
      "tles": 6194,
      "tem": 6195,
      "tinted": 6196,
      "tattered": 6197,
      "tension": 6198,
      "tucked": 6199,
      "uk": 6200,
      "ued": 6201,
      "uely": 6202,
      "urious": 6203,
      "uises": 6204,
      "vali": 6205,
      "vinci": 6206,
      "voy": 6207,
      "ww": 6208,
      "west": 6209,
      "ye": 6210,
      "yes": 6211,
      "yss": 6212,
      "za": 6213,
      "zom": 6214,
      "thouses": 6215,
      "inf": 6216,
      "ince": 6217,
      "inious": 6218,
      "inery": 6219,
      "inkets": 6220,
      "incompre": 6221,
      "inhabit": 6222,
      "inhibit": 6223,
      "theat": 6224,
      "themed": 6225,
      "ank": 6226,
      "ano": 6227,
      "anas": 6228,
      "refe": 6229,
      "rely": 6230,
      "react": 6231,
      "rejo": 6232,
      "resent": 6233,
      "repli": 6234,
      "revel": 6235,
      "repose": 6236,
      "relent": 6237,
      "remain": 6238,
      "returned": 6239,
      "recreating": 6240,
      "rebirth": 6241,
      "repul": 6242,
      "reactions": 6243,
      "reacting": 6244,
      "lol": 6245,
      "lore": 6246,
      "lose": 6247,
      "lover": 6248,
      "lops": 6249,
      "logic": 6250,
      "eras": 6251,
      "ercise": 6252,
      "onar": 6253,
      "onents": 6254,
      "esti": 6255,
      "esque": 6256,
      "itative": 6257,
      "itals": 6258,
      "iteness": 6259,
      "atable": 6260,
      "atical": 6261,
      "meh": 6262,
      "meas": 6263,
      "meta": 6264,
      "melon": 6265,
      "metic": 6266,
      "metap": 6267,
      "merely": 6268,
      "seam": 6269,
      "seper": 6270,
      "secur": 6271,
      "sepia": 6272,
      "tou": 6273,
      "toile": 6274,
      "tossed": 6275,
      "topless": 6276,
      "toys": 6277,
      "livel": 6278,
      "lizard": 6279,
      "arous": 6280,
      "arder": 6281,
      "arity": 6282,
      "aries": 6283,
      "armed": 6284,
      "ario": 6285,
      "kend": 6286,
      "ales": 6287,
      "alism": 6288,
      "stel": 6289,
      "sted": 6290,
      "stir": 6291,
      "stur": 6292,
      "stact": 6293,
      "stature": 6294,
      "stage": 6295,
      "stones": 6296,
      "lege": 6297,
      "letting": 6298,
      "leans": 6299,
      "leonar": 6300,
      "orous": 6301,
      "acles": 6302,
      "access": 6303,
      "aciers": 6304,
      "cob": 6305,
      "code": 6306,
      "coca": 6307,
      "cola": 6308,
      "copy": 6309,
      "cohes": 6310,
      "envision": 6311,
      "encounter": 6312,
      "likeable": 6313,
      "maint": 6314,
      "maine": 6315,
      "fered": 6316,
      "fetal": 6317,
      "becoming": 6318,
      "becomes": 6319,
      "beloved": 6320,
      "bemused": 6321,
      "icle": 6322,
      "iction": 6323,
      "icted": 6324,
      "icorn": 6325,
      "internal": 6326,
      "hamed": 6327,
      "haughty": 6328,
      "colon": 6329,
      "coloured": 6330,
      "edu": 6331,
      "educ": 6332,
      "whiteness": 6333,
      "manor": 6334,
      "manly": 6335,
      "manger": 6336,
      "vern": 6337,
      "pave": 6338,
      "paiting": 6339,
      "paying": 6340,
      "pecu": 6341,
      "peaks": 6342,
      "fuji": 6343,
      "asive": 6344,
      "asks": 6345,
      "asia": 6346,
      "ashamed": 6347,
      "ghoul": 6348,
      "deity": 6349,
      "decre": 6350,
      "defi": 6351,
      "deba": 6352,
      "detect": 6353,
      "defeat": 6354,
      "defend": 6355,
      "veying": 6356,
      "velous": 6357,
      "wig": 6358,
      "wires": 6359,
      "wiped": 6360,
      "chan": 6361,
      "chil": 6362,
      "chun": 6363,
      "chart": 6364,
      "chment": 6365,
      "chatt": 6366,
      "maker": 6367,
      "ada": 6368,
      "adam": 6369,
      "adult": 6370,
      "advers": 6371,
      "adorned": 6372,
      "geta": 6373,
      "rake": 6374,
      "rail": 6375,
      "riot": 6376,
      "riotic": 6377,
      "role": 6378,
      "rots": 6379,
      "robot": 6380,
      "robed": 6381,
      "rotten": 6382,
      "rodden": 6383,
      "rophob": 6384,
      "rooster": 6385,
      "confe": 6386,
      "consc": 6387,
      "conqu": 6388,
      "consum": 6389,
      "console": 6390,
      "confined": 6391,
      "consuming": 6392,
      "seeks": 6393,
      "woven": 6394,
      "ironic": 6395,
      "abby": 6396,
      "abdu": 6397,
      "abyss": 6398,
      "abstact": 6399,
      "noses": 6400,
      "indu": 6401,
      "inducing": 6402,
      "uncan": 6403,
      "unable": 6404,
      "unless": 6405,
      "unfriendly": 6406,
      "uninspired": 6407,
      "unhealthy": 6408,
      "unwanted": 6409,
      "unbeli": 6410,
      "unnaturally": 6411,
      "unfortun": 6412,
      "uncerta": 6413,
      "unicorn": 6414,
      "useless": 6415,
      "moil": 6416,
      "mode": 6417,
      "moss": 6418,
      "motiv": 6419,
      "motif": 6420,
      "outward": 6421,
      "exper": 6422,
      "exudes": 6423,
      "exercise": 6424,
      "bla": 6425,
      "blade": 6426,
      "bliss": 6427,
      "blades": 6428,
      "acky": 6429,
      "someplace": 6430,
      "impro": 6431,
      "impossible": 6432,
      "impending": 6433,
      "cage": 6434,
      "bod": 6435,
      "bol": 6436,
      "boo": 6437,
      "boating": 6438,
      "boot": 6439,
      "bomb": 6440,
      "entering": 6441,
      "scrip": 6442,
      "scrap": 6443,
      "shroud": 6444,
      "shallow": 6445,
      "shimm": 6446,
      "amb": 6447,
      "amber": 6448,
      "nds": 6449,
      "cement": 6450,
      "susp": 6451,
      "arts": 6452,
      "goti": 6453,
      "docked": 6454,
      "ustrophob": 6455,
      "ifice": 6456,
      "plans": 6457,
      "plump": 6458,
      "tails": 6459,
      "igno": 6460,
      "weigh": 6461,
      "isting": 6462,
      "istine": 6463,
      "lowed": 6464,
      "apples": 6465,
      "commotion": 6466,
      "compr": 6467,
      "compet": 6468,
      "compassionate": 6469,
      "ously": 6470,
      "contest": 6471,
      "controlling": 6472,
      "contempor": 6473,
      "shepher": 6474,
      "strate": 6475,
      "nearing": 6476,
      "neither": 6477,
      "negoti": 6478,
      "greed": 6479,
      "idal": 6480,
      "hasn": 6481,
      "angs": 6482,
      "anging": 6483,
      "hore": 6484,
      "hobby": 6485,
      "hooked": 6486,
      "holiness": 6487,
      "hoarder": 6488,
      "lav": 6489,
      "lakes": 6490,
      "laund": 6491,
      "ody": 6492,
      "reminding": 6493,
      "acts": 6494,
      "actal": 6495,
      "active": 6496,
      "sadd": 6497,
      "brow": 6498,
      "bruises": 6499,
      "scenario": 6500,
      "calendar": 6501,
      "worst": 6502,
      "worries": 6503,
      "lining": 6504,
      "derness": 6505,
      "bygone": 6506,
      "brighten": 6507,
      "canal": 6508,
      "canals": 6509,
      "frogs": 6510,
      "quart": 6511,
      "owned": 6512,
      "tti": 6513,
      "ttery": 6514,
      "upright": 6515,
      "upstanding": 6516,
      "uptu": 6517,
      "attended": 6518,
      "vessel": 6519,
      "peacefu": 6520,
      "ski": 6521,
      "blueprint": 6522,
      "lightness": 6523,
      "illness": 6524,
      "ulation": 6525,
      "discontent": 6526,
      "distor": 6527,
      "displeasing": 6528,
      "disheart": 6529,
      "disney": 6530,
      "discovering": 6531,
      "dissect": 6532,
      "disappearing": 6533,
      "discus": 6534,
      "disabled": 6535,
      "spare": 6536,
      "spill": 6537,
      "overcome": 6538,
      "overgrown": 6539,
      "oversized": 6540,
      "overpowering": 6541,
      "shady": 6542,
      "mens": 6543,
      "interests": 6544,
      "creases": 6545,
      "tip": 6546,
      "closest": 6547,
      "treas": 6548,
      "backgrounds": 6549,
      "ains": 6550,
      "evable": 6551,
      "evol": 6552,
      "evident": 6553,
      "evidence": 6554,
      "evolent": 6555,
      "contenting": 6556,
      "contently": 6557,
      "persed": 6558,
      "perception": 6559,
      "performing": 6560,
      "este": 6561,
      "estru": 6562,
      "bleed": 6563,
      "kingdom": 6564,
      "simult": 6565,
      "desire": 6566,
      "drapes": 6567,
      "dragged": 6568,
      "armour": 6569,
      "ominious": 6570,
      "vilization": 6571,
      "childish": 6572,
      "uding": 6573,
      "wouldnt": 6574,
      "protr": 6575,
      "progra": 6576,
      "shower": 6577,
      "showed": 6578,
      "showcas": 6579,
      "etching": 6580,
      "standard": 6581,
      "artistry": 6582,
      "save": 6583,
      "salon": 6584,
      "sundown": 6585,
      "sunken": 6586,
      "sunbathing": 6587,
      "offputting": 6588,
      "anyway": 6589,
      "buried": 6590,
      "tying": 6591,
      "tyard": 6592,
      "typically": 6593,
      "nymph": 6594,
      "nyuk": 6595,
      "sidewalk": 6596,
      "players": 6597,
      "playground": 6598,
      "wonderment": 6599,
      "headress": 6600,
      "naive": 6601,
      "umpy": 6602,
      "stopped": 6603,
      "stolen": 6604,
      "stopping": 6605,
      "ggling": 6606,
      "fractal": 6607,
      "eping": 6608,
      "endure": 6609,
      "track": 6610,
      "trinkets": 6611,
      "greater": 6612,
      "greatly": 6613,
      "styl": 6614,
      "styling": 6615,
      "womens": 6616,
      "waving": 6617,
      "grant": 6618,
      "grumpy": 6619,
      "blond": 6620,
      "civilization": 6621,
      "towers": 6622,
      "selling": 6623,
      "cubs": 6624,
      "partner": 6625,
      "dipping": 6626,
      "fearsome": 6627,
      "couldn": 6628,
      "emitting": 6629,
      "views": 6630,
      "surely": 6631,
      "asser": 6632,
      "suring": 6633,
      "surveying": 6634,
      "cran": 6635,
      "crash": 6636,
      "monarch": 6637,
      "monroe": 6638,
      "teach": 6639,
      "forever": 6640,
      "photorealistic": 6641,
      "clad": 6642,
      "winding": 6643,
      "sentence": 6644,
      "finery": 6645,
      "patterning": 6646,
      "patterned": 6647,
      "mountainside": 6648,
      "struck": 6649,
      "idding": 6650,
      "brownish": 6651,
      "chocol": 6652,
      "choose": 6653,
      "carpet": 6654,
      "carnage": 6655,
      "ized": 6656,
      "lected": 6657,
      "amazingly": 6658,
      "pristine": 6659,
      "grap": 6660,
      "grape": 6661,
      "grazing": 6662,
      "housework": 6663,
      "hardly": 6664,
      "minute": 6665,
      "streak": 6666,
      "presentation": 6667,
      "avail": 6668,
      "tors": 6669,
      "torch": 6670,
      "linear": 6671,
      "pection": 6672,
      "phants": 6673,
      "landscap": 6674,
      "betray": 6675,
      "fragments": 6676,
      "cheap": 6677,
      "checke": 6678,
      "intertw": 6679,
      "formality": 6680,
      "ffic": 6681,
      "ffled": 6682,
      "handing": 6683,
      "walks": 6684,
      "invent": 6685,
      "invention": 6686,
      "invites": 6687,
      "topus": 6688,
      "horseback": 6689,
      "extent": 6690,
      "elev": 6691,
      "elephants": 6692,
      "empower": 6693,
      "terms": 6694,
      "turqu": 6695,
      "turtles": 6696,
      "turmoil": 6697,
      "medal": 6698,
      "pointy": 6699,
      "pointless": 6700,
      "newly": 6701,
      "nerves": 6702,
      "awestru": 6703,
      "colouring": 6704,
      "colourful": 6705,
      "alized": 6706,
      "threads": 6707,
      "sterical": 6708,
      "sharpness": 6709,
      "popular": 6710,
      "homely": 6711,
      "homeland": 6712,
      "oceans": 6713,
      "visited": 6714,
      "visuali": 6715,
      "dullness": 6716,
      "captain": 6717,
      "captive": 6718,
      "resident": 6719,
      "tomb": 6720,
      "miss": 6721,
      "mische": 6722,
      "mistake": 6723,
      "mistakes": 6724,
      "miserable": 6725,
      "merizing": 6726,
      "traged": 6727,
      "trails": 6728,
      "hopefully": 6729,
      "bows": 6730,
      "glaciers": 6731,
      "mighty": 6732,
      "fried": 6733,
      "deadly": 6734,
      "combines": 6735,
      "optim": 6736,
      "options": 6737,
      "opposite": 6738,
      "summers": 6739,
      "coldness": 6740,
      "grayish": 6741,
      "matching": 6742,
      "fishes": 6743,
      "llas": 6744,
      "sleek": 6745,
      "stee": 6746,
      "steal": 6747,
      "stealing": 6748,
      "violet": 6749,
      "friendship": 6750,
      "primal": 6751,
      "spoon": 6752,
      "flashy": 6753,
      "kens": 6754,
      "needle": 6755,
      "cares": 6756,
      "career": 6757,
      "fights": 6758,
      "battling": 6759,
      "venge": 6760,
      "throws": 6761,
      "thrilling": 6762,
      "parchment": 6763,
      "parody": 6764,
      "vases": 6765,
      "ominously": 6766,
      "riders": 6767,
      "puke": 6768,
      "cleaned": 6769,
      "battlefield": 6770,
      "south": 6771,
      "college": 6772,
      "fireworks": 6773,
      "meaningful": 6774,
      "meaningless": 6775,
      "playfulness": 6776,
      "shocking": 6777,
      "shooting": 6778,
      "compelling": 6779,
      "components": 6780,
      "grassy": 6781,
      "spear": 6782,
      "speed": 6783,
      "ribly": 6784,
      "ribbons": 6785,
      "castles": 6786,
      "dancers": 6787,
      "marble": 6788,
      "maroon": 6789,
      "marvelous": 6790,
      "happier": 6791,
      "effective": 6792,
      "depths": 6793,
      "dining": 6794,
      "arched": 6795,
      "baric": 6796,
      "barbaric": 6797,
      "silvery": 6798,
      "advice": 6799,
      "graphy": 6800,
      "satin": 6801,
      "sleeps": 6802,
      "rella": 6803,
      "settled": 6804,
      "structured": 6805,
      "unting": 6806,
      "until": 6807,
      "untrust": 6808,
      "exploded": 6809,
      "hurry": 6810,
      "touched": 6811,
      "commands": 6812,
      "mouse": 6813,
      "lighthouses": 6814,
      "engage": 6815,
      "passive": 6816,
      "virt": 6817,
      "insane": 6818,
      "bearded": 6819,
      "geometrical": 6820,
      "bodied": 6821,
      "reaches": 6822,
      "studious": 6823,
      "mysteriousness": 6824,
      "drople": 6825,
      "droopy": 6826,
      "geometrically": 6827,
      "failed": 6828,
      "faith": 6829,
      "grosses": 6830,
      "proudly": 6831,
      "complexion": 6832,
      "octopus": 6833,
      "triangles": 6834,
      "vacant": 6835,
      "burn": 6836,
      "burning": 6837,
      "messed": 6838,
      "mesmerizing": 6839,
      "provocative": 6840,
      "dominant": 6841,
      "dominating": 6842,
      "laps": 6843,
      "miles": 6844,
      "seascape": 6845,
      "coats": 6846,
      "protective": 6847,
      "circular": 6848,
      "impressionistic": 6849,
      "techniques": 6850,
      "juice": 6851,
      "juicy": 6852,
      "folk": 6853,
      "splashing": 6854,
      "195": 6855,
      "1970s": 6856,
      "flame": 6857,
      "generate": 6858,
      "generates": 6859,
      "welcome": 6860,
      "welcomed": 6861,
      "decis": 6862,
      "decision": 6863,
      "frustrates": 6864,
      "comfortably": 6865,
      "cheeky": 6866,
      "somthing": 6867,
      "illustrations": 6868,
      "annoyance": 6869,
      "gondo": 6870,
      "intimacy": 6871,
      "ascension": 6872,
      "uniqueness": 6873,
      "suffer": 6874,
      "breastfeeding": 6875,
      "connection": 6876,
      "neglected": 6877,
      "cardinal": 6878,
      "dripped": 6879,
      "ladder": 6880,
      "voluptu": 6881,
      "superimposed": 6882,
      "anguished": 6883,
      "skillful": 6884,
      "skillfully": 6885,
      "respected": 6886,
      "chairs": 6887,
      "patriotic": 6888,
      "braving": 6889,
      "palm": 6890,
      "palate": 6891,
      "winged": 6892,
      "hunted": 6893,
      "crucific": 6894,
      "photographic": 6895,
      "sweetness": 6896,
      "minimalistic": 6897,
      "casually": 6898,
      "courting": 6899,
      "judgment": 6900,
      "inclusion": 6901,
      "ators": 6902,
      "learning": 6903,
      "learned": 6904,
      "autumnal": 6905,
      "pensively": 6906,
      "jealous": 6907,
      "machinery": 6908,
      "numerous": 6909,
      "pigs": 6910,
      "slave": 6911,
      "slavery": 6912,
      "approach": 6913,
      "pulling": 6914,
      "twine": 6915,
      "meets": 6916,
      "china": 6917,
      "expectation": 6918,
      "birch": 6919,
      "knights": 6920,
      "aneously": 6921,
      "medium": 6922,
      "contemplation": 6923,
      "genitals": 6924,
      "troubles": 6925,
      "troubling": 6926,
      "vicious": 6927,
      "injury": 6928,
      "steps": 6929,
      "expresses": 6930,
      "menacingly": 6931,
      "descrip": 6932,
      "descended": 6933,
      "horrific": 6934,
      "ancestors": 6935,
      "groping": 6936,
      "sacred": 6937,
      "samar": 6938,
      "tilt": 6939,
      "wrap": 6940,
      "anchored": 6941,
      "delicacy": 6942,
      "pollack": 6943,
      "dreadful": 6944,
      "projects": 6945,
      "projected": 6946,
      "juxto": 6947,
      "slope": 6948,
      "slopp": 6949,
      "sisters": 6950,
      "tube": 6951,
      "tulips": 6952,
      "effortlessly": 6953,
      "affecting": 6954,
      "benign": 6955,
      "flip": 6956,
      "container": 6957,
      "creeping": 6958,
      "properly": 6959,
      "grasping": 6960,
      "captivated": 6961,
      "wrinkled": 6962,
      "symbolizing": 6963,
      "globe": 6964,
      "hypo": 6965,
      "hysterical": 6966,
      "nonsense": 6967,
      "lends": 6968,
      "coastline": 6969,
      "intently": 6970,
      "intentions": 6971,
      "unnerved": 6972,
      "creamy": 6973,
      "meditation": 6974,
      "meditating": 6975,
      "bikin": 6976,
      "baptizing": 6977,
      "jail": 6978,
      "swan": 6979,
      "swamp": 6980,
      "vaguely": 6981,
      "wilderness": 6982,
      "soccer": 6983,
      "decorations": 6984,
      "notebook": 6985,
      "youthful": 6986,
      "beatiful": 6987,
      "signifies": 6988,
      "signifying": 6989,
      "followers": 6990,
      "electrical": 6991,
      "mortal": 6992,
      "envelope": 6993,
      "enveloped": 6994,
      "devoid": 6995,
      "roofs": 6996,
      "considering": 6997,
      "existence": 6998,
      "apartment": 6999,
      "worshipping": 7000,
      "uplifted": 7001,
      "involves": 7002,
      "nightmares": 7003,
      "transition": 7004,
      "transparent": 7005,
      "basketball": 7006,
      "possibility": 7007,
      "profession": 7008,
      "spreadsheet": 7009,
      "regretful": 7010,
      "claws": 7011,
      "claustrophob": 7012,
      "sliver": 7013,
      "indeed": 7014,
      "deserves": 7015,
      "smirking": 7016,
      "product": 7017,
      "materials": 7018,
      "sorrowful": 7019,
      "campbells": 7020,
      "eggs": 7021,
      "mistress": 7022,
      "matted": 7023,
      "rises": 7024,
      "risen": 7025,
      "routine": 7026,
      "scowling": 7027,
      "tunnel": 7028,
      "witches": 7029,
      "sends": 7030,
      "arrived": 7031,
      "altar": 7032,
      "stabbing": 7033,
      "pearls": 7034,
      "solitary": 7035,
      "camels": 7036,
      "lazarus": 7037,
      "sparseness": 7038,
      "cruise": 7039,
      "emphasize": 7040,
      "cello": 7041,
      "celesti": 7042,
      "gliding": 7043,
      "gesturing": 7044,
      "hippie": 7045,
      "arrogance": 7046,
      "bewildered": 7047,
      "conjuring": 7048,
      "immigr": 7049,
      "weeks": 7050,
      "weekend": 7051,
      "bursting": 7052,
      "victorious": 7053,
      "sacrificing": 7054,
      "baptist": 7055,
      "ceremonial": 7056,
      "swinging": 7057,
      "peasant": 7058,
      "peaches": 7059,
      "demands": 7060,
      "wolves": 7061,
      "shutters": 7062,
      "disproportionate": 7063,
      "spraying": 7064,
      "growth": 7065,
      "graveyard": 7066,
      "saturated": 7067,
      "demonstrated": 7068,
      "hollywood": 7069,
      "apocalypse": 7070,
      "apocalyptic": 7071,
      "cigar": 7072,
      "digging": 7073,
      "lurking": 7074,
      "spying": 7075,
      "wrestler": 7076,
      "explaining": 7077,
      "scientific": 7078,
      "heroic": 7079,
      "comprehend": 7080,
      "disrupt": 7081,
      "nauseous": 7082,
      "fragmented": 7083,
      "highlighted": 7084,
      "cramped": 7085,
      "harmonious": 7086,
      "transported": 7087,
      "companionship": 7088,
      "atheist": 7089,
      "budding": 7090,
      "dusty": 7091,
      "gifts": 7092,
      "giggle": 7093,
      "praising": 7094,
      "swath": 7095,
      "squeezing": 7096,
      "wintry": 7097,
      "incongr": 7098,
      "analyze": 7099,
      "reassuring": 7100,
      "liberty": 7101,
      "stamped": 7102,
      "england": 7103,
      "abundance": 7104,
      "shelter": 7105,
      "suffered": 7106,
      "suicide": 7107,
      "plastic": 7108,
      "computer": 7109,
      "mythical": 7110,
      "establishment": 7111,
      "dragons": 7112,
      "aggravated": 7113,
      "promotes": 7114,
      "prosperous": 7115,
      "frontier": 7116,
      "teenager": 7117,
      "freaky": 7118,
      "opportunities": 7119,
      "corporate": 7120,
      "apprehension": 7121,
      "originality": 7122,
      "deliberately": 7123,
      "luxurious": 7124,
      "bewilderment": 7125,
      "downtrodden": 7126,
      "collapsed": 7127,
      "recognize": 7128,
      "leisurely": 7129,
      "aristocratic": 7130,
      "congregation": 7131,
      "absurdity": 7132,
      "bundled": 7133,
      "bicycle": 7134,
      "dutch": 7135,
      "dessert": 7136,
      "fanciful": 7137,
      "nourished": 7138,
      "writhing": 7139,
      "selection": 7140,
      "accompanied": 7141,
      "mathematical": 7142,
      "beacon": 7143,
      "peacful": 7144,
      "develop": 7145,
      "george": 7146,
      "connotations": 7147,
      "lincoln": 7148,
      "disfigured": 7149,
      "disguise": 7150,
      "guests": 7151,
      "prostitute": 7152,
      "saucer": 7153,
      "official": 7154,
      "toothpaste": 7155,
      "cleavage": 7156,
      "kindergarten": 7157,
      "granite": 7158,
      "crumbling": 7159,
      "telephone": 7160,
      "caricature": 7161,
      "physical": 7162,
      "phenomen": 7163,
      "caterpillar": 7164,
      "columns": 7165,
      "valentine": 7166,
      "majority": 7167,
      "occasion": 7168,
      "triumphant": 7169,
      "circumstances": 7170,
      "genuine": 7171,
      "describe": 7172,
      "politician": 7173,
      "hallucino": 7174,
      "scholarly": 7175,
      "titanic": 7176,
      "sophisticated": 7177,
      "kaleidoscope": 7178,
      "magazine": 7179,
      "hospital": 7180,
      "cinderella": 7181,
      "dapper": 7182,
      "dappled": 7183,
      "ethereal": 7184,
      "egyptian": 7185,
      "gigantic": 7186,
      "hedon": 7187,
      "iveness": 7188,
      "luscious": 7189,
      "pipes": 7190,
      "sofa": 7191,
      "temper": 7192,
      "zomb": 7193,
      "incomprehens": 7194,
      "lopsided": 7195,
      "meticulous": 7196,
      "metaphor": 7197,
      "seperated": 7198,
      "security": 7199,
      "toilet": 7200,
      "liveliness": 7201,
      "sturdy": 7202,
      "leonardo": 7203,
      "cohesive": 7204,
      "education": 7205,
      "peculiar": 7206,
      "debauch": 7207,
      "detective": 7208,
      "chatting": 7209,
      "getaway": 7210,
      "conscious": 7211,
      "uncanny": 7212,
      "unbelievable": 7213,
      "unfortunately": 7214,
      "suspense": 7215,
      "contemporary": 7216,
      "laundry": 7217,
      "disheartening": 7218,
      "discussed": 7219,
      "simultaneously": 7220,
      "protruding": 7221,
      "showcasing": 7222,
      "chocolate": 7223,
      "checkered": 7224,
      "awestruck": 7225,
      "residents": 7226,
      "tragedy": 7227,
      "voluptuous": 7228,
      "bikini": 7229,
      "claustrophobic": 7230,
      "celestial": 7231,
      "'.": 7232,
      "'..": 7233,
      ",\"": 7234,
      "16": 7235,
      "200": 7236,
      "70": 7237,
      "90": 7238,
      "?!": 7239,
      "aa": 7240,
      "abe": 7241,
      "athing": 7242,
      "aid": 7243,
      "awhile": 7244,
      "aff": 7245,
      "athered": 7246,
      "aqua": 7247,
      "aerial": 7248,
      "apathetic": 7249,
      "bac": 7250,
      "bri": 7251,
      "bone": 7252,
      "bact": 7253,
      "bard": 7254,
      "bill": 7255,
      "bitt": 7256,
      "bery": 7257,
      "baw": 7258,
      "bster": 7259,
      "bbing": 7260,
      "bond": 7261,
      "bison": 7262,
      "blown": 7263,
      "bidding": 7264,
      "cs": 7265,
      "cco": 7266,
      "cust": 7267,
      "cable": 7268,
      "cray": 7269,
      "cles": 7270,
      "cating": 7271,
      "cery": 7272,
      "cket": 7273,
      "cens": 7274,
      "ckey": 7275,
      "cations": 7276,
      "cities": 7277,
      "ckets": 7278,
      "cuddle": 7279,
      "del": 7280,
      "dil": 7281,
      "dant": 7282,
      "dup": 7283,
      "dich": 7284,
      "dag": 7285,
      "dled": 7286,
      "dali": 7287,
      "dues": 7288,
      "dence": 7289,
      "diet": 7290,
      "dense": 7291,
      "diety": 7292,
      "duc": 7293,
      "dashing": 7294,
      "damp": 7295,
      "dump": 7296,
      "dorm": 7297,
      "eif": 7298,
      "eag": 7299,
      "eery": 7300,
      "echo": 7301,
      "erect": 7302,
      "eased": 7303,
      "fon": 7304,
      "fen": 7305,
      "fred": 7306,
      "fty": 7307,
      "fray": 7308,
      "frene": 7309,
      "frying": 7310,
      "fangs": 7311,
      "gle": 7312,
      "gap": 7313,
      "gie": 7314,
      "gus": 7315,
      "gry": 7316,
      "gild": 7317,
      "gily": 7318,
      "gering": 7319,
      "gimm": 7320,
      "guts": 7321,
      "hm": 7322,
      "han": 7323,
      "hun": 7324,
      "hust": 7325,
      "huts": 7326,
      "ix": 7327,
      "ilo": 7328,
      "iat": 7329,
      "ias": 7330,
      "iri": 7331,
      "iant": 7332,
      "ius": 7333,
      "iated": 7334,
      "jor": 7335,
      "jam": 7336,
      "jest": 7337,
      "junk": 7338,
      "kis": 7339,
      "kful": 7340,
      "kick": 7341,
      "lf": 7342,
      "lat": 7343,
      "lac": 7344,
      "lly": 7345,
      "lun": 7346,
      "lam": 7347,
      "latt": 7348,
      "lery": 7349,
      "llar": 7350,
      "luc": 7351,
      "lute": 7352,
      "later": 7353,
      "mand": 7354,
      "mit": 7355,
      "mac": 7356,
      "mpe": 7357,
      "mall": 7358,
      "mish": 7359,
      "mount": 7360,
      "mum": 7361,
      "mise": 7362,
      "mural": 7363,
      "mutes": 7364,
      "mpled": 7365,
      "meste": 7366,
      "nal": 7367,
      "nive": 7368,
      "narr": 7369,
      "oe": 7370,
      "ove": 7371,
      "oise": 7372,
      "ography": 7373,
      "pto": 7374,
      "pou": 7375,
      "pac": 7376,
      "pace": 7377,
      "pnot": 7378,
      "pity": 7379,
      "pits": 7380,
      "pted": 7381,
      "pies": 7382,
      "piled": 7383,
      "punch": 7384,
      "pses": 7385,
      "pins": 7386,
      "penter": 7387,
      "punk": 7388,
      "ptical": 7389,
      "praised": 7390,
      "rate": 7391,
      "rush": 7392,
      "rude": 7393,
      "rond": 7394,
      "rons": 7395,
      "rowing": 7396,
      "races": 7397,
      "rushing": 7398,
      "sic": 7399,
      "swo": 7400,
      "sno": 7401,
      "sca": 7402,
      "snd": 7403,
      "sant": 7404,
      "site": 7405,
      "sap": 7406,
      "stoo": 7407,
      "sine": 7408,
      "sled": 7409,
      "sling": 7410,
      "swal": 7411,
      "slic": 7412,
      "sions": 7413,
      "slit": 7414,
      "slab": 7415,
      "swarming": 7416,
      "swol": 7417,
      "tat": 7418,
      "tel": 7419,
      "tig": 7420,
      "tray": 7421,
      "tum": 7422,
      "tick": 7423,
      "tland": 7424,
      "tidy": 7425,
      "tissue": 7426,
      "tidal": 7427,
      "uing": 7428,
      "uro": 7429,
      "uss": 7430,
      "ufo": 7431,
      "uating": 7432,
      "ucent": 7433,
      "uber": 7434,
      "uries": 7435,
      "ubby": 7436,
      "vand": 7437,
      "vun": 7438,
      "vice": 7439,
      "vive": 7440,
      "vend": 7441,
      "vass": 7442,
      "vention": 7443,
      "vador": 7444,
      "vines": 7445,
      "vantage": 7446,
      "wd": 7447,
      "wk": 7448,
      "wy": 7449,
      "wan": 7450,
      "wer": 7451,
      "ware": 7452,
      "wicked": 7453,
      "wacky": 7454,
      "xy": 7455,
      "xic": 7456,
      "yon": 7457,
      "yar": 7458,
      "yay": 7459,
      "yang": 7460,
      "yuck": 7461,
      "zical": 7462,
      "zip": 7463,
      "zards": 7464,
      "zied": 7465,
      "zoo": 7466,
      "zero": 7467,
      "thm": 7468,
      "thal": 7469,
      "thhe": 7470,
      "thri": 7471,
      "thful": 7472,
      "thie": 7473,
      "thaw": 7474,
      "ina": 7475,
      "ining": 7476,
      "init": 7477,
      "inely": 7478,
      "infect": 7479,
      "instill": 7480,
      "infront": 7481,
      "insight": 7482,
      "influ": 7483,
      "inaccurate": 7484,
      "invest": 7485,
      "incorpor": 7486,
      "indecis": 7487,
      "thera": 7488,
      "thent": 7489,
      "theway": 7490,
      "theory": 7491,
      "theater": 7492,
      "anut": 7493,
      "anch": 7494,
      "anim": 7495,
      "rem": 7496,
      "rele": 7497,
      "refu": 7498,
      "resc": 7499,
      "reap": 7500,
      "restr": 7501,
      "rement": 7502,
      "reti": 7503,
      "reck": 7504,
      "rehouse": 7505,
      "resort": 7506,
      "resol": 7507,
      "repair": 7508,
      "reced": 7509,
      "rers": 7510,
      "recreation": 7511,
      "retreat": 7512,
      "relays": 7513,
      "rememb": 7514,
      "record": 7515,
      "isk": 7516,
      "isse": 7517,
      "isture": 7518,
      "inging": 7519,
      "lond": 7520,
      "logs": 7521,
      "loaf": 7522,
      "lophone": 7523,
      "lobster": 7524,
      "anded": 7525,
      "erd": 7526,
      "erated": 7527,
      "ergy": 7528,
      "onou": 7529,
      "onge": 7530,
      "onish": 7531,
      "ontop": 7532,
      "onze": 7533,
      "esc": 7534,
      "escap": 7535,
      "escher": 7536,
      "itled": 7537,
      "itless": 7538,
      "atom": 7539,
      "atern": 7540,
      "atives": 7541,
      "mever": 7542,
      "mechan": 7543,
      "seat": 7544,
      "seal": 7545,
      "sequ": 7546,
      "seawe": 7547,
      "secut": 7548,
      "sears": 7549,
      "sewing": 7550,
      "segment": 7551,
      "segments": 7552,
      "seuss": 7553,
      "toil": 7554,
      "toun": 7555,
      "toss": 7556,
      "toast": 7557,
      "toaster": 7558,
      "toxic": 7559,
      "lif": 7560,
      "lier": 7561,
      "lich": 7562,
      "lice": 7563,
      "libr": 7564,
      "liqu": 7565,
      "lides": 7566,
      "liet": 7567,
      "litho": 7568,
      "aro": 7569,
      "arth": 7570,
      "arled": 7571,
      "arresting": 7572,
      "arium": 7573,
      "kew": 7574,
      "kett": 7575,
      "kemp": 7576,
      "kept": 7577,
      "ouse": 7578,
      "ouve": 7579,
      "alter": 7580,
      "alask": 7581,
      "alpha": 7582,
      "stly": 7583,
      "stro": 7584,
      "stack": 7585,
      "stant": 7586,
      "stem": 7587,
      "states": 7588,
      "stages": 7589,
      "stamp": 7590,
      "stache": 7591,
      "straining": 7592,
      "stacles": 7593,
      "ley": 7594,
      "lego": 7595,
      "lement": 7596,
      "leop": 7597,
      "lewd": 7598,
      "orph": 7599,
      "orship": 7600,
      "orchest": 7601,
      "orders": 7602,
      "acle": 7603,
      "acha": 7604,
      "acious": 7605,
      "acies": 7606,
      "accord": 7607,
      "coy": 7608,
      "coke": 7609,
      "cope": 7610,
      "cooking": 7611,
      "cobra": 7612,
      "coils": 7613,
      "coarse": 7614,
      "cooper": 7615,
      "coherent": 7616,
      "coziness": 7617,
      "coax": 7618,
      "enem": 7619,
      "enclosed": 7620,
      "enthus": 7621,
      "mage": 7622,
      "mash": 7623,
      "feast": 7624,
      "feathered": 7625,
      "bean": 7626,
      "bees": 7627,
      "behead": 7628,
      "begg": 7629,
      "behold": 7630,
      "beds": 7631,
      "began": 7632,
      "begs": 7633,
      "beaming": 7634,
      "beams": 7635,
      "beheading": 7636,
      "ics": 7637,
      "ictable": 7638,
      "icine": 7639,
      "icient": 7640,
      "icons": 7641,
      "inting": 7642,
      "intru": 7643,
      "hawa": 7644,
      "haze": 7645,
      "haven": 7646,
      "haired": 7647,
      "hawk": 7648,
      "eden": 7649,
      "edged": 7650,
      "edgar": 7651,
      "whis": 7652,
      "arer": 7653,
      "arette": 7654,
      "colorado": 7655,
      "manip": 7656,
      "verty": 7657,
      "vertic": 7658,
      "versus": 7659,
      "pablo": 7660,
      "pages": 7661,
      "pathy": 7662,
      "pawn": 7663,
      "pajama": 7664,
      "passe": 7665,
      "peers": 7666,
      "peice": 7667,
      "petri": 7668,
      "peanut": 7669,
      "sock": 7670,
      "solar": 7671,
      "soever": 7672,
      "heat": 7673,
      "hears": 7674,
      "healing": 7675,
      "fury": 7676,
      "furious": 7677,
      "assum": 7678,
      "ashore": 7679,
      "astoun": 7680,
      "askew": 7681,
      "illa": 7682,
      "ilation": 7683,
      "ilty": 7684,
      "painters": 7685,
      "owered": 7686,
      "dece": 7687,
      "decom": 7688,
      "depressive": 7689,
      "define": 7690,
      "degree": 7691,
      "depresses": 7692,
      "depending": 7693,
      "veh": 7694,
      "veil": 7695,
      "veled": 7696,
      "utter": 7697,
      "lyre": 7698,
      "wiel": 7699,
      "wipe": 7700,
      "widow": 7701,
      "wierd": 7702,
      "chy": 7703,
      "chup": 7704,
      "charm": 7705,
      "chanting": 7706,
      "chilly": 7707,
      "changing": 7708,
      "chubby": 7709,
      "adise": 7710,
      "gey": 7711,
      "geon": 7712,
      "gett": 7713,
      "geons": 7714,
      "rape": 7715,
      "rade": 7716,
      "rable": 7717,
      "raking": 7718,
      "raise": 7719,
      "raging": 7720,
      "raising": 7721,
      "rapture": 7722,
      "ragged": 7723,
      "raham": 7724,
      "rides": 7725,
      "rival": 7726,
      "rigid": 7727,
      "roic": 7728,
      "robo": 7729,
      "rored": 7730,
      "roles": 7731,
      "robust": 7732,
      "roaming": 7733,
      "cones": 7734,
      "confor": 7735,
      "conque": 7736,
      "contor": 7737,
      "condu": 7738,
      "conquest": 7739,
      "conception": 7740,
      "condescending": 7741,
      "seek": 7742,
      "seeping": 7743,
      "woke": 7744,
      "ays": 7745,
      "fulfilled": 7746,
      "irts": 7747,
      "irony": 7748,
      "abused": 7749,
      "abusing": 7750,
      "abuses": 7751,
      "abrup": 7752,
      "abilities": 7753,
      "abraham": 7754,
      "noone": 7755,
      "nographic": 7756,
      "nobel": 7757,
      "noises": 7758,
      "inding": 7759,
      "indul": 7760,
      "unlike": 7761,
      "unmo": 7762,
      "unrest": 7763,
      "unity": 7764,
      "undress": 7765,
      "undead": 7766,
      "undanc": 7767,
      "unbox": 7768,
      "unified": 7769,
      "unimpressed": 7770,
      "unfold": 7771,
      "uncluttered": 7772,
      "undisturbed": 7773,
      "unpack": 7774,
      "unaware": 7775,
      "unstable": 7776,
      "unsan": 7777,
      "uninhibit": 7778,
      "untouched": 7779,
      "unkemp": 7780,
      "mock": 7781,
      "mosqu": 7782,
      "moms": 7783,
      "modest": 7784,
      "mocking": 7785,
      "mosque": 7786,
      "moisture": 7787,
      "outs": 7788,
      "outstanding": 7789,
      "outlined": 7790,
      "outstretched": 7791,
      "expe": 7792,
      "expli": 7793,
      "exhi": 7794,
      "exposes": 7795,
      "exhilar": 7796,
      "exuber": 7797,
      "forrest": 7798,
      "forget": 7799,
      "forboding": 7800,
      "forgett": 7801,
      "blat": 7802,
      "blad": 7803,
      "blast": 7804,
      "blacked": 7805,
      "ackle": 7806,
      "immor": 7807,
      "impresses": 7808,
      "caves": 7809,
      "cakes": 7810,
      "camou": 7811,
      "camping": 7812,
      "cavern": 7813,
      "boa": 7814,
      "bode": 7815,
      "boss": 7816,
      "bosom": 7817,
      "entious": 7818,
      "entrap": 7819,
      "entitled": 7820,
      "sce": 7821,
      "scales": 7822,
      "presu": 7823,
      "preser": 7824,
      "predomin": 7825,
      "previous": 7826,
      "prepping": 7827,
      "presume": 7828,
      "prehens": 7829,
      "prestig": 7830,
      "shy": 7831,
      "shark": 7832,
      "shattered": 7833,
      "shrug": 7834,
      "shrubs": 7835,
      "redundanc": 7836,
      "amish": 7837,
      "ammed": 7838,
      "amorph": 7839,
      "tures": 7840,
      "pics": 7841,
      "ndy": 7842,
      "nder": 7843,
      "ndous": 7844,
      "sses": 7845,
      "ssion": 7846,
      "womanly": 7847,
      "herd": 7848,
      "herna": 7849,
      "sucking": 7850,
      "suspect": 7851,
      "sudden": 7852,
      "thers": 7853,
      "artic": 7854,
      "artsy": 7855,
      "artform": 7856,
      "artfully": 7857,
      "artifice": 7858,
      "butts": 7859,
      "buttons": 7860,
      "cts": 7861,
      "goo": 7862,
      "goal": 7863,
      "gobl": 7864,
      "goble": 7865,
      "rouge": 7866,
      "whatsoever": 7867,
      "antment": 7868,
      "antiqu": 7869,
      "doe": 7870,
      "doo": 7871,
      "doting": 7872,
      "doggy": 7873,
      "dozen": 7874,
      "dotted": 7875,
      "dollar": 7876,
      "itecture": 7877,
      "poe": 7878,
      "poof": 7879,
      "poly": 7880,
      "potter": 7881,
      "pomp": 7882,
      "poofy": 7883,
      "potrait": 7884,
      "pottery": 7885,
      "poverty": 7886,
      "plag": 7887,
      "plish": 7888,
      "plum": 7889,
      "tah": 7890,
      "tait": 7891,
      "tasty": 7892,
      "taught": 7893,
      "weed": 7894,
      "wered": 7895,
      "week": 7896,
      "istance": 7897,
      "uration": 7898,
      "urned": 7899,
      "apid": 7900,
      "appar": 7901,
      "apron": 7902,
      "apherna": 7903,
      "darkly": 7904,
      "compe": 7905,
      "compos": 7906,
      "commer": 7907,
      "comrad": 7908,
      "comrade": 7909,
      "contrad": 7910,
      "ieting": 7911,
      "ieties": 7912,
      "usions": 7913,
      "strands": 7914,
      "stranded": 7915,
      "neaut": 7916,
      "necks": 7917,
      "nettes": 7918,
      "theyre": 7919,
      "minded": 7920,
      "greif": 7921,
      "iden": 7922,
      "idance": 7923,
      "angers": 7924,
      "hoo": 7925,
      "hoard": 7926,
      "hops": 7927,
      "hodge": 7928,
      "homeste": 7929,
      "homage": 7930,
      "mention": 7931,
      "laughter": 7932,
      "lava": 7933,
      "giants": 7934,
      "rounding": 7935,
      "roundness": 7936,
      "bronze": 7937,
      "rested": 7938,
      "youd": 7939,
      "youre": 7940,
      "ellation": 7941,
      "worrying": 7942,
      "liner": 7943,
      "linity": 7944,
      "linked": 7945,
      "deriv": 7946,
      "brightest": 7947,
      "mytho": 7948,
      "pressure": 7949,
      "backs": 7950,
      "backside": 7951,
      "backgrou": 7952,
      "backyard": 7953,
      "appetizing": 7954,
      "cans": 7955,
      "canned": 7956,
      "cannon": 7957,
      "canvass": 7958,
      "canyon": 7959,
      "sedate": 7960,
      "frost": 7961,
      "quiz": 7962,
      "quieting": 7963,
      "upcoming": 7964,
      "uphill": 7965,
      "upturned": 7966,
      "uprising": 7967,
      "blackish": 7968,
      "attent": 7969,
      "attired": 7970,
      "skating": 7971,
      "skied": 7972,
      "skirts": 7973,
      "fool": 7974,
      "fogg": 7975,
      "blueish": 7976,
      "bluebird": 7977,
      "lighten": 7978,
      "lightening": 7979,
      "illusions": 7980,
      "ulate": 7981,
      "ulature": 7982,
      "ulated": 7983,
      "ultim": 7984,
      "iceber": 7985,
      "disco": 7986,
      "disinterest": 7987,
      "disgr": 7988,
      "disease": 7989,
      "discern": 7990,
      "discard": 7991,
      "displeased": 7992,
      "disaster": 7993,
      "disregard": 7994,
      "dispersed": 7995,
      "diseased": 7996,
      "disquieting": 7997,
      "figaro": 7998,
      "figuration": 7999
    },
    "merges": [
      [
        "t",
        "h"
      ],
      [
        "i",
        "n"
      ],
      [
        "th",
        "e"
      ],
      [
        "a",
        "n"
      ],
      [
        "r",
        "e"
      ],
      [
        "i",
        "s"
      ],
      [
        "in",
        "g"
      ],
      [
        "l",
        "o"
      ],
      [
        "an",
        "d"
      ],
      [
        "e",
        "r"
      ],
      [
        "o",
        "n"
      ],
      [
        "e",
        "s"
      ],
      [
        "i",
        "t"
      ],
      [
        "o",
        "f"
      ],
      [
        "a",
        "t"
      ],
      [
        "m",
        "e"
      ],
      [
        "s",
        "e"
      ],
      [
        "t",
        "o"
      ],
      [
        "l",
        "i"
      ],
      [
        "a",
        "r"
      ],
      [
        "k",
        "e"
      ],
      [
        "o",
        "u"
      ],
      [
        "o",
        "k"
      ],
      [
        "a",
        "l"
      ],
      [
        "s",
        "t"
      ],
      [
        "lo",
        "ok"
      ],
      [
        "l",
        "e"
      ],
      [
        "e",
        "l"
      ],
      [
        "o",
        "r"
      ],
      [
        "a",
        "c"
      ],
      [
        "c",
        "o"
      ],
      [
        "e",
        "n"
      ],
      [
        "th",
        "is"
      ],
      [
        "li",
        "ke"
      ],
      [
        "m",
        "a"
      ],
      [
        "f",
        "e"
      ],
      [
        "b",
        "e"
      ],
      [
        "i",
        "c"
      ],
      [
        "in",
        "t"
      ],
      [
        "h",
        "a"
      ],
      [
        "look",
        "s"
      ],
      [
        "co",
        "lo"
      ],
      [
        "e",
        "d"
      ],
      [
        "w",
        "h"
      ],
      [
        "a",
        "re"
      ],
      [
        "colo",
        "r"
      ],
      [
        "m",
        "an"
      ],
      [
        "v",
        "er"
      ],
      [
        "p",
        "a"
      ],
      [
        "fe",
        "el"
      ],
      [
        "p",
        "e"
      ],
      [
        "s",
        "o"
      ],
      [
        "h",
        "e"
      ],
      [
        "f",
        "u"
      ],
      [
        "a",
        "s"
      ],
      [
        "g",
        "h"
      ],
      [
        "i",
        "l"
      ],
      [
        "pa",
        "int"
      ],
      [
        "o",
        "w"
      ],
      [
        "d",
        "e"
      ],
      [
        "u",
        "re"
      ],
      [
        "v",
        "e"
      ],
      [
        "u",
        "t"
      ],
      [
        "color",
        "s"
      ],
      [
        "l",
        "y"
      ],
      [
        "w",
        "i"
      ],
      [
        "ver",
        "y"
      ],
      [
        "paint",
        "ing"
      ],
      [
        "i",
        "on"
      ],
      [
        "c",
        "h"
      ],
      [
        "ma",
        "k"
      ],
      [
        "a",
        "d"
      ],
      [
        "wi",
        "th"
      ],
      [
        "g",
        "e"
      ],
      [
        "r",
        "a"
      ],
      [
        "mak",
        "es"
      ],
      [
        "r",
        "i"
      ],
      [
        "gh",
        "t"
      ],
      [
        "r",
        "o"
      ],
      [
        "n",
        "t"
      ],
      [
        "c",
        "on"
      ],
      [
        "se",
        "e"
      ],
      [
        "w",
        "o"
      ],
      [
        "ac",
        "e"
      ],
      [
        "a",
        "y"
      ],
      [
        "fu",
        "l"
      ],
      [
        "th",
        "at"
      ],
      [
        "i",
        "r"
      ],
      [
        "a",
        "b"
      ],
      [
        "n",
        "o"
      ],
      [
        "in",
        "d"
      ],
      [
        "p",
        "le"
      ],
      [
        "u",
        "n"
      ],
      [
        "u",
        "se"
      ],
      [
        "l",
        "d"
      ],
      [
        "m",
        "o"
      ],
      [
        "ou",
        "t"
      ],
      [
        "e",
        "x"
      ],
      [
        "f",
        "or"
      ],
      [
        "b",
        "l"
      ],
      [
        "ac",
        "k"
      ],
      [
        "so",
        "me"
      ],
      [
        "i",
        "m"
      ],
      [
        "th",
        "ing"
      ],
      [
        "c",
        "a"
      ],
      [
        "b",
        "o"
      ],
      [
        "en",
        "t"
      ],
      [
        "s",
        "c"
      ],
      [
        "p",
        "re"
      ],
      [
        "s",
        "h"
      ],
      [
        "ha",
        "p"
      ],
      [
        "re",
        "d"
      ],
      [
        "see",
        "m"
      ],
      [
        "a",
        "m"
      ],
      [
        "t",
        "ure"
      ],
      [
        "p",
        "ic"
      ],
      [
        "n",
        "d"
      ],
      [
        "s",
        "s"
      ],
      [
        "c",
        "e"
      ],
      [
        "wo",
        "man"
      ],
      [
        "er",
        "s"
      ],
      [
        "al",
        "l"
      ],
      [
        "h",
        "er"
      ],
      [
        "s",
        "u"
      ],
      [
        "the",
        "r"
      ],
      [
        "ar",
        "t"
      ],
      [
        "b",
        "ut"
      ],
      [
        "c",
        "t"
      ],
      [
        "es",
        "s"
      ],
      [
        "on",
        "e"
      ],
      [
        "g",
        "o"
      ],
      [
        "r",
        "ou"
      ],
      [
        "wh",
        "at"
      ],
      [
        "an",
        "t"
      ],
      [
        "d",
        "o"
      ],
      [
        "it",
        "e"
      ],
      [
        "u",
        "st"
      ],
      [
        "i",
        "f"
      ],
      [
        "ar",
        "k"
      ],
      [
        "p",
        "o"
      ],
      [
        "p",
        "l"
      ],
      [
        "t",
        "a"
      ],
      [
        "i",
        "g"
      ],
      [
        "w",
        "e"
      ],
      [
        "is",
        "t"
      ],
      [
        "u",
        "r"
      ],
      [
        "ma",
        "ke"
      ],
      [
        "the",
        "re"
      ],
      [
        "lo",
        "w"
      ],
      [
        "no",
        "t"
      ],
      [
        "a",
        "p"
      ],
      [
        "d",
        "ark"
      ],
      [
        "co",
        "m"
      ],
      [
        "h",
        "is"
      ],
      [
        "ou",
        "s"
      ],
      [
        "ca",
        "use"
      ],
      [
        "con",
        "t"
      ],
      [
        "i",
        "e"
      ],
      [
        "s",
        "he"
      ],
      [
        "be",
        "cause"
      ],
      [
        "u",
        "s"
      ],
      [
        "u",
        "e"
      ],
      [
        "pic",
        "ture"
      ],
      [
        "st",
        "r"
      ],
      [
        "pe",
        "o"
      ],
      [
        "n",
        "e"
      ],
      [
        "f",
        "ace"
      ],
      [
        "the",
        "y"
      ],
      [
        "ri",
        "ght"
      ],
      [
        "peo",
        "ple"
      ],
      [
        "m",
        "ind"
      ],
      [
        "g",
        "re"
      ],
      [
        "w",
        "ay"
      ],
      [
        "i",
        "d"
      ],
      [
        "ha",
        "s"
      ],
      [
        "al",
        "ly"
      ],
      [
        "an",
        "g"
      ],
      [
        "seem",
        "s"
      ],
      [
        "h",
        "o"
      ],
      [
        "r",
        "y"
      ],
      [
        "me",
        "nt"
      ],
      [
        "l",
        "a"
      ],
      [
        "g",
        "i"
      ],
      [
        "o",
        "d"
      ],
      [
        "re",
        "mind"
      ],
      [
        "ac",
        "t"
      ],
      [
        "rou",
        "nd"
      ],
      [
        "s",
        "ad"
      ],
      [
        "in",
        "k"
      ],
      [
        "b",
        "r"
      ],
      [
        "p",
        "y"
      ],
      [
        "sc",
        "en"
      ],
      [
        "a",
        "ut"
      ],
      [
        "c",
        "al"
      ],
      [
        "re",
        "st"
      ],
      [
        "y",
        "ou"
      ],
      [
        "j",
        "ust"
      ],
      [
        "el",
        "l"
      ],
      [
        "w",
        "or"
      ],
      [
        "be",
        "aut"
      ],
      [
        "l",
        "in"
      ],
      [
        "look",
        "ing"
      ],
      [
        "i",
        "ma"
      ],
      [
        "d",
        "er"
      ],
      [
        "b",
        "y"
      ],
      [
        "b",
        "right"
      ],
      [
        "m",
        "y"
      ],
      [
        "pre",
        "ss"
      ],
      [
        "b",
        "ack"
      ],
      [
        "il",
        "d"
      ],
      [
        "scen",
        "e"
      ],
      [
        "cal",
        "m"
      ],
      [
        "some",
        "thing"
      ],
      [
        "ap",
        "pe"
      ],
      [
        "or",
        "t"
      ],
      [
        "c",
        "an"
      ],
      [
        "se",
        "d"
      ],
      [
        "ou",
        "ld"
      ],
      [
        "f",
        "ro"
      ],
      [
        "g",
        "round"
      ],
      [
        "q",
        "u"
      ],
      [
        "ow",
        "n"
      ],
      [
        "t",
        "t"
      ],
      [
        "i",
        "ful"
      ],
      [
        "u",
        "p"
      ],
      [
        "de",
        "ta"
      ],
      [
        "w",
        "at"
      ],
      [
        "remind",
        "s"
      ],
      [
        "lo",
        "ve"
      ],
      [
        "fro",
        "m"
      ],
      [
        "bl",
        "ack"
      ],
      [
        "beaut",
        "iful"
      ],
      [
        "at",
        "t"
      ],
      [
        "v",
        "es"
      ],
      [
        "pe",
        "ace"
      ],
      [
        "s",
        "k"
      ],
      [
        "n",
        "ess"
      ],
      [
        "th",
        "ink"
      ],
      [
        "it",
        "y"
      ],
      [
        "ar",
        "d"
      ],
      [
        "f",
        "o"
      ],
      [
        "appe",
        "ar"
      ],
      [
        "bl",
        "ue"
      ],
      [
        "at",
        "ion"
      ],
      [
        "wh",
        "ite"
      ],
      [
        "li",
        "ght"
      ],
      [
        "il",
        "l"
      ],
      [
        "ab",
        "out"
      ],
      [
        "u",
        "l"
      ],
      [
        "ha",
        "ve"
      ],
      [
        "ic",
        "e"
      ],
      [
        "d",
        "is"
      ],
      [
        "i",
        "le"
      ],
      [
        "p",
        "ers"
      ],
      [
        "it",
        "s"
      ],
      [
        "e",
        "y"
      ],
      [
        "f",
        "ig"
      ],
      [
        "hap",
        "py"
      ],
      [
        "s",
        "p"
      ],
      [
        "fig",
        "ure"
      ],
      [
        "feel",
        "ing"
      ],
      [
        "o",
        "ver"
      ],
      [
        "s",
        "ha"
      ],
      [
        "at",
        "e"
      ],
      [
        "re",
        "ally"
      ],
      [
        "int",
        "e"
      ],
      [
        "press",
        "ion"
      ],
      [
        "me",
        "n"
      ],
      [
        "inte",
        "rest"
      ],
      [
        "deta",
        "il"
      ],
      [
        "con",
        "fu"
      ],
      [
        "c",
        "re"
      ],
      [
        "s",
        "hap"
      ],
      [
        "h",
        "ow"
      ],
      [
        "t",
        "i"
      ],
      [
        "c",
        "lo"
      ],
      [
        "o",
        "ther"
      ],
      [
        "fu",
        "n"
      ],
      [
        "ima",
        "ge"
      ],
      [
        "p",
        "ort"
      ],
      [
        "w",
        "ell"
      ],
      [
        "it",
        "t"
      ],
      [
        "lin",
        "es"
      ],
      [
        "el",
        "y"
      ],
      [
        "t",
        "re"
      ],
      [
        "ic",
        "h"
      ],
      [
        "back",
        "ground"
      ],
      [
        "n",
        "g"
      ],
      [
        "a",
        "in"
      ],
      [
        "peace",
        "ful"
      ],
      [
        "e",
        "v"
      ],
      [
        "cont",
        "ent"
      ],
      [
        "gre",
        "en"
      ],
      [
        "wat",
        "er"
      ],
      [
        "pers",
        "on"
      ],
      [
        "shap",
        "es"
      ],
      [
        "ex",
        "c"
      ],
      [
        "ex",
        "pression"
      ],
      [
        "p",
        "er"
      ],
      [
        "i",
        "ve"
      ],
      [
        "d",
        "on"
      ],
      [
        "es",
        "t"
      ],
      [
        "n",
        "ow"
      ],
      [
        "se",
        "n"
      ],
      [
        "i",
        "de"
      ],
      [
        "e",
        "ct"
      ],
      [
        "b",
        "le"
      ],
      [
        "k",
        "ing"
      ],
      [
        "d",
        "ay"
      ],
      [
        "ac",
        "h"
      ],
      [
        "s",
        "im"
      ],
      [
        "th",
        "ou"
      ],
      [
        "i",
        "ght"
      ],
      [
        "p",
        "ie"
      ],
      [
        "la",
        "x"
      ],
      [
        "interest",
        "ing"
      ],
      [
        "re",
        "lax"
      ],
      [
        "wh",
        "ich"
      ],
      [
        "d",
        "es"
      ],
      [
        "the",
        "ir"
      ],
      [
        "d",
        "ra"
      ],
      [
        "an",
        "ge"
      ],
      [
        "ar",
        "m"
      ],
      [
        "o",
        "m"
      ],
      [
        "w",
        "as"
      ],
      [
        "v",
        "i"
      ],
      [
        "j",
        "ect"
      ],
      [
        "d",
        "re"
      ],
      [
        "a",
        "g"
      ],
      [
        "ch",
        "ild"
      ],
      [
        "n",
        "ice"
      ],
      [
        "s",
        "m"
      ],
      [
        "sk",
        "y"
      ],
      [
        "f",
        "ac"
      ],
      [
        "ar",
        "y"
      ],
      [
        "d",
        "if"
      ],
      [
        "u",
        "d"
      ],
      [
        "re",
        "nt"
      ],
      [
        "be",
        "ing"
      ],
      [
        "ab",
        "le"
      ],
      [
        "mo",
        "st"
      ],
      [
        "go",
        "ing"
      ],
      [
        "b",
        "ject"
      ],
      [
        "li",
        "fe"
      ],
      [
        "j",
        "o"
      ],
      [
        "use",
        "d"
      ],
      [
        "g",
        "u"
      ],
      [
        "f",
        "low"
      ],
      [
        "v",
        "ing"
      ],
      [
        "appear",
        "s"
      ],
      [
        "wh",
        "o"
      ],
      [
        "ra",
        "st"
      ],
      [
        "w",
        "ould"
      ],
      [
        "cont",
        "rast"
      ],
      [
        "el",
        "low"
      ],
      [
        "y",
        "ellow"
      ],
      [
        "fe",
        "rent"
      ],
      [
        "sen",
        "se"
      ],
      [
        "p",
        "ro"
      ],
      [
        "ey",
        "es"
      ],
      [
        "wor",
        "k"
      ],
      [
        "is",
        "h"
      ],
      [
        "it",
        "ing"
      ],
      [
        "pie",
        "ce"
      ],
      [
        "sh",
        "ow"
      ],
      [
        "lo",
        "t"
      ],
      [
        "do",
        "es"
      ],
      [
        "e",
        "t"
      ],
      [
        "dif",
        "ferent"
      ],
      [
        "st",
        "and"
      ],
      [
        "art",
        "ist"
      ],
      [
        "u",
        "ch"
      ],
      [
        "s",
        "a"
      ],
      [
        "w",
        "ant"
      ],
      [
        "s",
        "un"
      ],
      [
        "at",
        "ure"
      ],
      [
        "l",
        "itt"
      ],
      [
        "of",
        "f"
      ],
      [
        "p",
        "en"
      ],
      [
        "litt",
        "le"
      ],
      [
        "feel",
        "s"
      ],
      [
        "i",
        "ous"
      ],
      [
        "ou",
        "nt"
      ],
      [
        "an",
        "y"
      ],
      [
        "ou",
        "nd"
      ],
      [
        "dra",
        "w"
      ],
      [
        "w",
        "on"
      ],
      [
        "to",
        "o"
      ],
      [
        "b",
        "u"
      ],
      [
        "t",
        "y"
      ],
      [
        "d",
        "y"
      ],
      [
        "gi",
        "ves"
      ],
      [
        "k",
        "now"
      ],
      [
        "he",
        "re"
      ],
      [
        "ke",
        "d"
      ],
      [
        "t",
        "wo"
      ],
      [
        "ing",
        "s"
      ],
      [
        "n",
        "y"
      ],
      [
        "s",
        "ide"
      ],
      [
        "pl",
        "ay"
      ],
      [
        "ab",
        "str"
      ],
      [
        "abstr",
        "act"
      ],
      [
        "ir",
        "d"
      ],
      [
        "the",
        "se"
      ],
      [
        "lo",
        "ng"
      ],
      [
        "won",
        "der"
      ],
      [
        "c",
        "k"
      ],
      [
        "c",
        "le"
      ],
      [
        "h",
        "im"
      ],
      [
        "he",
        "ad"
      ],
      [
        "e",
        "very"
      ],
      [
        "re",
        "al"
      ],
      [
        "ra",
        "y"
      ],
      [
        "n",
        "a"
      ],
      [
        "al",
        "most"
      ],
      [
        "ad",
        "y"
      ],
      [
        "jo",
        "y"
      ],
      [
        "in",
        "to"
      ],
      [
        "o",
        "l"
      ],
      [
        "m",
        "uch"
      ],
      [
        "to",
        "ge"
      ],
      [
        "toge",
        "ther"
      ],
      [
        "u",
        "m"
      ],
      [
        "thou",
        "gh"
      ],
      [
        "t",
        "ion"
      ],
      [
        "er",
        "n"
      ],
      [
        "s",
        "to"
      ],
      [
        "f",
        "t"
      ],
      [
        "g",
        "g"
      ],
      [
        "the",
        "m"
      ],
      [
        "go",
        "od"
      ],
      [
        "tre",
        "es"
      ],
      [
        "confu",
        "s"
      ],
      [
        "f",
        "r"
      ],
      [
        "ti",
        "me"
      ],
      [
        "h",
        "or"
      ],
      [
        "t",
        "ry"
      ],
      [
        "wh",
        "en"
      ],
      [
        "o",
        "ld"
      ],
      [
        "ic",
        "al"
      ],
      [
        "mo",
        "re"
      ],
      [
        "sim",
        "ple"
      ],
      [
        "k",
        "ind"
      ],
      [
        "ig",
        "n"
      ],
      [
        "t",
        "able"
      ],
      [
        "e",
        "p"
      ],
      [
        "some",
        "one"
      ],
      [
        "flow",
        "ers"
      ],
      [
        "d",
        "own"
      ],
      [
        "en",
        "d"
      ],
      [
        "su",
        "bject"
      ],
      [
        "al",
        "so"
      ],
      [
        "t",
        "r"
      ],
      [
        "an",
        "ce"
      ],
      [
        "and",
        "s"
      ],
      [
        "gre",
        "at"
      ],
      [
        "t",
        "s"
      ],
      [
        "st",
        "y"
      ],
      [
        "wo",
        "men"
      ],
      [
        "a",
        "we"
      ],
      [
        "w",
        "a"
      ],
      [
        "ar",
        "ound"
      ],
      [
        "de",
        "pic"
      ],
      [
        "ev",
        "en"
      ],
      [
        "g",
        "r"
      ],
      [
        "v",
        "ie"
      ],
      [
        "ang",
        "el"
      ],
      [
        "wh",
        "ile"
      ],
      [
        "pl",
        "ace"
      ],
      [
        "b",
        "lo"
      ],
      [
        "l",
        "es"
      ],
      [
        "ok",
        "es"
      ],
      [
        "at",
        "ing"
      ],
      [
        "confu",
        "sed"
      ],
      [
        "in",
        "e"
      ],
      [
        "c",
        "i"
      ],
      [
        "at",
        "ed"
      ],
      [
        "tt",
        "ing"
      ],
      [
        "ar",
        "ing"
      ],
      [
        "h",
        "u"
      ],
      [
        "w",
        "arm"
      ],
      [
        "to",
        "w"
      ],
      [
        "se",
        "l"
      ],
      [
        "d",
        "ist"
      ],
      [
        "c",
        "u"
      ],
      [
        "b",
        "or"
      ],
      [
        "p",
        "art"
      ],
      [
        "b",
        "ab"
      ],
      [
        "d",
        "i"
      ],
      [
        "fe",
        "ar"
      ],
      [
        "calm",
        "ing"
      ],
      [
        "or",
        "ange"
      ],
      [
        "rou",
        "gh"
      ],
      [
        "com",
        "for"
      ],
      [
        "qu",
        "ite"
      ],
      [
        "sha",
        "d"
      ],
      [
        "z",
        "ing"
      ],
      [
        "en",
        "joy"
      ],
      [
        "ima",
        "g"
      ],
      [
        "c",
        "ould"
      ],
      [
        "relax",
        "ing"
      ],
      [
        "e",
        "m"
      ],
      [
        "vie",
        "w"
      ],
      [
        "s",
        "ure"
      ],
      [
        "wh",
        "e"
      ],
      [
        "man",
        "y"
      ],
      [
        "le",
        "d"
      ],
      [
        "sty",
        "le"
      ],
      [
        "fun",
        "ny"
      ],
      [
        "as",
        "s"
      ],
      [
        "bu",
        "ild"
      ],
      [
        "ha",
        "ir"
      ],
      [
        "ple",
        "as"
      ],
      [
        "port",
        "ra"
      ],
      [
        "c",
        "ent"
      ],
      [
        "po",
        "s"
      ],
      [
        ".",
        "."
      ],
      [
        "al",
        "e"
      ],
      [
        "bo",
        "dy"
      ],
      [
        "a",
        "ma"
      ],
      [
        "su",
        "r"
      ],
      [
        "i",
        "al"
      ],
      [
        "sc",
        "ary"
      ],
      [
        "portra",
        "it"
      ],
      [
        "bo",
        "at"
      ],
      [
        "c",
        "r"
      ],
      [
        "m",
        "on"
      ],
      [
        "p",
        "ho"
      ],
      [
        "t",
        "e"
      ],
      [
        "no",
        "thing"
      ],
      [
        "whe",
        "re"
      ],
      [
        "b",
        "it"
      ],
      [
        "f",
        "i"
      ],
      [
        "gi",
        "ve"
      ],
      [
        "s",
        "sed"
      ],
      [
        "un",
        "der"
      ],
      [
        "fac",
        "es"
      ],
      [
        "l",
        "ady"
      ],
      [
        "n",
        "ature"
      ],
      [
        "figure",
        "s"
      ],
      [
        "o",
        "t"
      ],
      [
        "show",
        "s"
      ],
      [
        "g",
        "ir"
      ],
      [
        "i",
        "p"
      ],
      [
        "ho",
        "ld"
      ],
      [
        "c",
        "ity"
      ],
      [
        "u",
        "sh"
      ],
      [
        "v",
        "ely"
      ],
      [
        "ist",
        "ic"
      ],
      [
        "fo",
        "re"
      ],
      [
        "dre",
        "ss"
      ],
      [
        "try",
        "ing"
      ],
      [
        "pho",
        "to"
      ],
      [
        "gir",
        "l"
      ],
      [
        "er",
        "y"
      ],
      [
        "d",
        "one"
      ],
      [
        "n",
        "ing"
      ],
      [
        "c",
        "l"
      ],
      [
        "ma",
        "y"
      ],
      [
        "ge",
        "t"
      ],
      [
        "us",
        "ing"
      ],
      [
        "detail",
        "s"
      ],
      [
        "ount",
        "ain"
      ],
      [
        "it",
        "ed"
      ],
      [
        "ul",
        "l"
      ],
      [
        "s",
        "er"
      ],
      [
        "it",
        "ion"
      ],
      [
        "c",
        "ha"
      ],
      [
        "h",
        "ou"
      ],
      [
        "im",
        "al"
      ],
      [
        "w",
        "ind"
      ],
      [
        "se",
        "nt"
      ],
      [
        "p",
        "att"
      ],
      [
        "ag",
        "ain"
      ],
      [
        "does",
        "n"
      ],
      [
        "f",
        "in"
      ],
      [
        "t",
        "on"
      ],
      [
        "ma",
        "de"
      ],
      [
        "patt",
        "ern"
      ],
      [
        "l",
        "ack"
      ],
      [
        "m",
        "ountain"
      ],
      [
        "s",
        "in"
      ],
      [
        "t",
        "ed"
      ],
      [
        "str",
        "u"
      ],
      [
        "id",
        "d"
      ],
      [
        "a",
        "ge"
      ],
      [
        "t",
        "ing"
      ],
      [
        "fe",
        "ct"
      ],
      [
        "exc",
        "iting"
      ],
      [
        "e",
        "ach"
      ],
      [
        "th",
[...]
