{
  "created": 2651,
  "song": 4344,
  "haired": 5513,
  "flir": 4817,
  "sun": 503,
  "ines": 3004,
  "elegantly": 7085,
  "generations": 7402,
  "vering": 4082,
  "grandmother": 3409,
  "hon": 6454,
  "vicious": 7095,
  "length": 7051,
  "pret": 626,
  "positioning": 4449,
  "ants": 1331,
  "relaxes": 5406,
  "map": 3294,
  "contrasts": 1362,
  "chi": 5933,
  "al": 102,
  "ers": 202,
  "showcase": 7662,
  "sels": 6138,
  "mers": 4827,
  "miss": 4612,
  "compre": 6309,
  "intentions": 5330,
  "colors": 148,
  "stones": 4282,
  "honestly": 3495,
  "id": 238,
  "aging": 6522,
  "pedes": 6360,
  "doom": 4215,
  "variation": 4721,
  "get": 520,
  "transl": 6560,
  "flesh": 3652,
  "amused": 938,
  "accurate": 4471,
  "floating": 1717,
  "guidance": 7667,
  "ls": 1505,
  "distor": 5403,
  "ears": 5073,
  "cuddling": 7136,
  "zation": 4414,
  "cliff": 2400,
  "ary": 392,
  "age": 727,
  "ards": 1073,
  "wine": 2628,
  "whenever": 7022,
  "information": 5500,
  "pup": 5631,
  "sister": 7903,
  "fragment": 5705,
  "idance": 6994,
  "hopelessness": 6861,
  "mathematical": 7844,
  "\".": 3141,
  "shark": 6984,
  "bloody": 2920,
  "ties": 4363,
  "ners": 3364,
  "profound": 5592,
  "patient": 4387,
  "gotten": 5999,
  "brid": 1850,
  "ked": 456,
  "associated": 4912,
  "elegant": 1891,
  "ff": 854,
  "porn": 7898,
  "cs": 7875,
  "ven": 1196,
  "strongly": 4979,
  "either": 1398,
  "clown": 2454,
  "symbolism": 3586,
  "perform": 2965,
  "commanding": 6599,
  "poop": 6512,
  "lat": 6917,
  "fairly": 3896,
  "ign": 581,
  "highlighted": 6854,
  "smear": 6818,
  "surpr": 2382,
  "gan": 1622,
  "miser": 4049,
  "effects": 5712,
  "postcard": 6557,
  "squir": 6546,
  "haha": 7585,
  "planned": 7079,
  "public": 4062,
  "nically": 7712,
  "aspects": 4008,
  "itch": 1680,
  "outfit": 1590,
  "headdress": 5178,
  "finery": 6536,
  "apart": 2574,
  "charcoal": 5076,
  "fing": 1791,
  "face": 250,
  "no": 169,
  "gap": 6453,
  "ces": 1097,
  "exist": 2830,
  "combined": 2602,
  "ks": 1145,
  "mentary": 2478,
  "played": 4042,
  "cord": 5198,
  "rape": 6699,
  "lifted": 4986,
  "disturbed": 3797,
  "steps": 4256,
  "amateurish": 7827,
  "physi": 7109,
  "rup": 3425,
  "od": 254,
  "beheaded": 5512,
  "bes": 998,
  "system": 6150,
  "seemingly": 2644,
  "eyebrow": 3525,
  "astonishing": 7490,
  "restaur": 4684,
  "reach": 1654,
  "spark": 3874,
  "stately": 6558,
  "playful": 1309,
  "captiv": 3279,
  ".": 17,
  "next": 1218,
  "tied": 3930,
  "stands": 1358,
  "clad": 6532,
  "zomb": 4654,
  "milling": 7102,
  "compliments": 4629,
  "pian": 3326,
  "professional": 6426,
  "2d": 7517,
  "hes": 2350,
  "maid": 2884,
  "ature": 438,
  "alice": 6777,
  "contrasted": 3091,
  "owner": 4673,
  "dience": 3624,
  "companion": 5748,
  "wow": 2513,
  "single": 2519,
  "sparse": 4957,
  "faces": 607,
  "roy": 1357,
  "bud": 7668,
  "ang": 299,
  "ires": 2362,
  "homes": 3435,
  "acing": 1671,
  "illuminates": 7117,
  "clouds": 853,
  "possess": 6856,
  "ref": 792,
  "sno": 7199,
  "pleas": 609,
  "historical": 2584,
  "inde": 6269,
  "joseph": 6320,
  "collage": 2993,
  "emotionally": 5560,
  "deliber": 6697,
  "yor": 5768,
  "fill": 2229,
  "clothes": 1080,
  "door": 1236,
  "colored": 1054,
  "offputting": 6327,
  "him": 469,
  "closet": 7003,
  "ised": 1895,
  "relatively": 7834,
  "learning": 4182,
  "coats": 6580,
  "acle": 4419,
  "hurt": 1796,
  "spending": 4768,
  "thus": 3856,
  "attered": 3034,
  "extraordinary": 6851,
  "fetti": 6689,
  "doesnt": 2653,
  "saints": 7432,
  "rul": 3291,
  "studying": 4611,
  "harsh": 1762,
  "rainbows": 7396,
  "instead": 2348,
  "ideal": 5564,
  "arou": 3970,
  "comp": 914,
  "contrast": 423,
  "icide": 7941,
  "form": 706,
  "protecting": 4247,
  "w": 60,
  "5": 24,
  "shocking": 6774,
  "problems": 5014,
  "sounds": 5461,
  "nauseous": 7816,
  "vious": 1624,
  "looming": 3604,
  "ond": 1293,
  "magnificent": 3770,
  "honest": 6023,
  "dden": 4708,
  "grade": 6349,
  "dess": 3420,
  "pipe": 3640,
  "harvest": 3845,
  "demeanor": 4403,
  "wheels": 7771,
  "angelic": 2124,
  "underwater": 6762,
  "strange": 961,
  "story": 975,
  "following": 4707,
  "tory": 1684,
  "robo": 7959,
  "curtains": 4120,
  "wanted": 3128,
  "forgot": 3558,
  "sneaky": 7801,
  "--": 1870,
  "oth": 2364,
  "bewildered": 7515,
  "spirits": 4987,
  "tell": 702,
  "ges": 523,
  "cultural": 4710,
  "compet": 6118,
  "quiet": 1128,
  "merged": 7700,
  "ob": 1092,
  "good": 486,
  "falling": 2069,
  "crou": 5557,
  "agree": 5357,
  "truth": 6380,
  "crisp": 3570,
  "rib": 1846,
  "ural": 990,
  "determination": 5009,
  "overtones": 4769,
  "demean": 4083,
  "advertisement": 4270,
  "swatches": 7545,
  "command": 2922,
  "neatly": 5871,
  "blurriness": 6898,
  "coloration": 4081,
  "inting": 7943,
  "grave": 4974,
  "bathroom": 3592,
  "display": 1538,
  "amer": 1773,
  "indi": 1577,
  "scrap": 7116,
  "offic": 5812,
  "dering": 3012,
  "huddled": 5684,
  "pencil": 2312,
  "breathe": 7684,
  "chasing": 6236,
  "coming": 762,
  "jarring": 3949,
  "greys": 4615,
  "strips": 5196,
  "sence": 1777,
  "letter": 3162,
  "irritating": 6201,
  "say": 1088,
  "geisha": 3974,
  "direction": 2541,
  "chie": 3466,
  "secure": 5148,
  "engl": 6680,
  "te": 482,
  "drun": 3392,
  "discus": 2775,
  "0s": 2359,
  "close": 1335,
  "awn": 4686,
  "difficult": 2085,
  "daydreaming": 7011,
  "vin": 4023,
  "cards": 3689,
  "choppy": 3836,
  "contemporary": 5900,
  "views": 5973,
  "thed": 3146,
  "womans": 1877,
  "currently": 7821,
  "irritation": 7424,
  "vert": 1965,
  "splend": 7161,
  "absolutely": 1997,
  "lifelike": 2292,
  "dresses": 2408,
  "this": 111,
  "todd": 4348,
  "heading": 3441,
  "pically": 7269,
  "ve": 139,
  "?!": 7519,
  "cracked": 6143,
  "o": 52,
  "woods": 1881,
  "beard": 1999,
  "emphasized": 7775,
  "ors": 3739,
  "bothers": 6212,
  "anxious": 2082,
  "sunshine": 4101,
  "ury": 3085,
  "unsettling": 1840,
  "awhile": 7871,
  "hapha": 3864,
  "val": 1271,
  "uninspiring": 7973,
  "da": 1913,
  "per": 377,
  "enhances": 7822,
  "pond": 2404,
  "fog": 2595,
  "gether": 496,
  "remin": 2607,
  "wouldn": 2890,
  "roads": 7083,
  "sizes": 5174,
  "tales": 5421,
  "detailing": 3268,
  "maybe": 952,
  "ique": 974,
  "cone": 4589,
  "among": 1788,
  "floor": 1716,
  "consu": 7250,
  "weak": 4857,
  "dancing": 1413,
  "event": 1733,
  "distance": 1437,
  "obviously": 2262,
  "like": 112,
  "bland": 1390,
  "hangs": 6368,
  "wonder": 487,
  "hind": 756,
  "peach": 3205,
  "haircut": 7320,
  "array": 3171,
  "exciting": 649,
  "nature": 638,
  "fascinating": 2301,
  "cozy": 2392,
  "capturing": 4311,
  "another": 845,
  "arted": 4852,
  "despite": 1868,
  "q": 54,
  "simplified": 7365,
  "pri": 955,
  "outline": 2887,
  "truly": 3103,
  "som": 4493,
  "garment": 4897,
  "writ": 2991,
  "penis": 4230,
  "liking": 7571,
  "fanciful": 6892,
  "uninviting": 6503,
  "other": 348,
  "ribut": 4147,
  "told": 3399,
  "solitary": 4723,
  "phi": 6927,
  "kets": 3551,
  "solid": 2240,
  "water": 370,
  "enlight": 6486,
  "splashed": 6577,
  "keeping": 4310,
  "ics": 4939,
  "scary": 612,
  "gent": 1189,
  "directions": 3943,
  "amount": 1651,
  "wedding": 3497,
  "y": 62,
  "tee": 3210,
  "ty": 361,
  "throw": 3129,
  "techn": 1839,
  "petal": 3228,
  "drama": 3233,
  "ound": 210,
  "sits": 2547,
  "service": 5598,
  "beady": 7231,
  "lotchy": 4061,
  "hairstyle": 5065,
  "swan": 6405,
  "dimensional": 3023,
  "easter": 6032,
  "political": 4727,
  "appro": 2033,
  "mythology": 7487,
  "gardens": 7386,
  "movie": 2009,
  "judgement": 5888,
  "bob": 5049,
  "stair": 2981,
  "minute": 5561,
  "gi": 259,
  "immediately": 3598,
  "apartment": 6594,
  "gravity": 7824,
  "ssed": 2059,
  "his": 230,
  "calming": 590,
  "walls": 2274,
  "concent": 4759,
  "rushing": 5236,
  "jac": 2882,
  "des": 387,
  "loy": 5504,
  "hands": 1072,
  "incl": 2323,
  "intently": 5221,
  "tri": 1126,
  "support": 3716,
  "femin": 2501,
  "leg": 2794,
  "whom": 6692,
  "shoes": 2656,
  "ird": 566,
  "monotone": 4391,
  "spreading": 6314,
  "itself": 1827,
  "signifies": 4465,
  "while": 533,
  "hoping": 5954,
  "migr": 7336,
  "rectangular": 5567,
  "ador": 2102,
  "init": 5372,
  "yellowish": 5680,
  "ome": 947,
  "refined": 5142,
  "mod": 2796,
  "riage": 6969,
  "]": 36,
  "cern": 1594,
  "ci": 526,
  "seal": 7220,
  "em": 539,
  "sets": 3227,
  "und": 1697,
  "delicate": 3044,
  "images": 1305,
  "ple": 163,
  "displaying": 4864,
  "expressionless": 4770,
  "stare": 1759,
  "conflicting": 7429,
  "traditional": 3249,
  "brothers": 7474,
  "comm": 1497,
  "illy": 4664,
  "railroad": 6882,
  "funeral": 3440,
  "dam": 5491,
  "sorrowful": 6018,
  "acher": 3508,
  "memory": 3944,
  "with": 146,
  "ize": 3223,
  "class": 1269,
  "pric": 6533,
  "takes": 1817,
  "egy": 5907,
  "boo": 4427,
  "rele": 3603,
  "awesome": 1780,
  "hearted": 4617,
  "comfy": 6722,
  "symbol": 2154,
  "creep": 757,
  "begins": 6640,
  "taller": 7392,
  "village": 1275,
  "tightly": 7437,
  "accur": 3430,
  "poverty": 6442,
  "ility": 2205,
  "rab": 4086,
  "crowd": 1330,
  "shad": 661,
  "steep": 7050,
  "interpre": 5984,
  "produ": 2552,
  "hte": 4486,
  "troubled": 4630,
  "picked": 4952,
  "forever": 4043,
  "keeps": 4175,
  "ribbon": 6576,
  "silent": 7289,
  "player": 5291,
  "grandma": 5431,
  "cuts": 6152,
  "gardening": 7726,
  "society": 3196,
  "ba": 2647,
  "licated": 4165,
  "cks": 1021,
  "tti": 5634,
  "too": 474,
  "stroke": 4731,
  "fed": 2911,
  "foreboding": 2480,
  "access": 6950,
  "ior": 4408,
  "help": 1095,
  "sculpture": 1675,
  "sparks": 7447,
  "underneath": 3498,
  "foliage": 3184,
  "has": 248,
  "shoulders": 3886,
  "parting": 7318,
  "whose": 4601,
  "inste": 2287,
  "oid": 3960,
  "aliens": 6825,
  "adventures": 6383,
  "into": 506,
  "slaughtered": 7859,
  "castles": 7370,
  "feathers": 3808,
  "connecting": 6389,
  "larger": 2862,
  "stir": 5778,
  "character": 1429,
  "upsets": 6735,
  "than": 794,
  "ends": 1657,
  "ax": 7177,
  "reve": 1990,
  "advent": 1781,
  "books": 2522,
  "ffed": 6254,
  "secluded": 6056,
  "tide": 7648,
  "flo": 877,
  "beginning": 3414,
  "lin": 333,
  "outside": 1321,
  "three": 1221,
  "balance": 2397,
  "fast": 3288,
  "puddle": 7837,
  "covers": 5433,
  "brightens": 7993,
  "resc": 5140,
  "gentlemen": 4537,
  "mail": 6091,
  "iss": 2142,
  "3": 22,
  "raise": 6288,
  "intent": 2393,
  "mirror": 1941,
  "household": 7691,
  "nal": 6922,
  "ings": 476,
  "climbing": 5106,
  "dangerous": 2356,
  "gossiping": 7832,
  "ering": 1024,
  "fragile": 7711,
  "ilities": 7950,
  "intrigue": 4239,
  "turkey": 7339,
  "extravag": 6850,
  "corpor": 7349,
  "concern": 1807,
  "heck": 6961,
  "glimpse": 5346,
  "control": 2814,
  "elabor": 3862,
  "temper": 7787,
  "fills": 3387,
  "says": 2410,
  "hundreds": 4732,
  "colum": 3632,
  "giving": 1493,
  "cave": 2831,
  "anticipation": 3416,
  "haughty": 6095,
  "jer": 7534,
  "fy": 6067,
  "called": 4154,
  "jug": 5027,
  "jack": 4652,
  "halos": 3488,
  "ctor": 3688,
  "wal": 769,
  "stretched": 5104,
  "roof": 2327,
  "ribbons": 5863,
  "dont": 1297,
  "arse": 4659,
  "immense": 5244,
  "somewhere": 2031,
  "nostalgia": 3411,
  "definitely": 2411,
  "performing": 4060,
  "thr": 528,
  "ressed": 647,
  "bru": 6311,
  "ery": 660,
  "ident": 1295,
  "trical": 2818,
  "creat": 3566,
  "=": 32,
  "ought": 826,
  "grown": 3742,
  "ially": 3052,
  "sho": 885,
  "lorn": 4177,
  "interacting": 5419,
  "easily": 3730,
  "fir": 1124,
  "ite": 219,
  "talent": 2145,
  "zebra": 6345,
  "said": 5062,
  "uncan": 6294,
  "servants": 5224,
  "fish": 994,
  "spread": 3931,
  "haunted": 3682,
  "ckey": 5761,
  "fle": 3956,
  "layered": 6785,
  "soo": 1056,
  "medical": 5985,
  "anticip": 2956,
  "ross": 680,
  "photo": 591,
  "rope": 2631,
  "paid": 6285,
  "sm": 390,
  "coffin": 7511,
  "rec": 4747,
  "stum": 4660,
  "words": 2054,
  "hats": 3529,
  "pee": 3008,
  "marsh": 7375,
  "lad": 1683,
  "spell": 4863,
  "cted": 4356,
  "broken": 1747,
  "odd": 874,
  "ical": 556,
  "details": 635,
  "dist": 579,
  "anymore": 6134,
  "remarkable": 4476,
  "overpower": 7005,
  "accom": 3174,
  "over": 359,
  "hend": 7532,
  "cabin": 3907,
  "house": 777,
  "yellows": 1673,
  "accents": 4810,
  "ible": 1359,
  "yang": 7914,
  "entertain": 2151,
  "flag": 2222,
  "well": 364,
  "care": 1074,
  "didn": 2642,
  "tal": 873,
  "alities": 7575,
  "students": 6215,
  "bad": 855,
  "fresh": 1921,
  "awful": 3674,
  "missive": 7357,
  "umbrella": 3649,
  "ids": 7277,
  "scal": 6298,
  "disci": 5285,
  "culture": 2275,
  "compliment": 3492,
  "park": 1893,
  "stabbed": 6041,
  "pression": 338,
  "focused": 2806,
  "ping": 1749,
  "splatters": 3354,
  "vases": 5205,
  "iling": 1057,
  "lunch": 5365,
  "haust": 3555,
  "exagger": 2797,
  "sna": 1708,
  "surprise": 4392,
  "frustrating": 4718,
  "sway": 5497,
  "sexual": 2035,
  "blur": 1407,
  "anas": 5501,
  "atop": 4935,
  "spiritual": 2526,
  "lessly": 6154,
  "feren": 2309,
  "puts": 2484,
  "begging": 2909,
  "chickens": 5596,
  "swords": 4744,
  "achable": 7938,
  "impact": 7389,
  "jump": 3642,
  "van": 3735,
  "choose": 5976,
  "stark": 1824,
  "experiences": 7783,
  "blanket": 3024,
  "hat": 968,
  "recreation": 7563,
  "decorative": 6390,
  "nativity": 7705,
  "&": 9,
  "ies": 633,
  "streak": 6779,
  "textures": 2068,
  "precision": 5879,
  "regular": 3217,
  "final": 6767,
  "married": 6366,
  "iled": 732,
  "kitchen": 2978,
  "seas": 2176,
  "earthly": 6376,
  "geometric": 1726,
  "machine": 4252,
  "bid": 4927,
  "electric": 5891,
  "tled": 3235,
  "frilly": 7689,
  "formation": 3571,
  "xic": 6079,
  "players": 7671,
  "pic": 203,
  "ball": 1669,
  "convey": 1334,
  "cere": 3785,
  "sense": 441,
  "need": 1085,
  "murky": 5001,
  "dar": 4070,
  "trol": 7203,
  "spring": 1479,
  "enter": 6109,
  "assume": 3973,
  "ffic": 6773,
  "using": 631,
  "ser": 692,
  "oil": 4074,
  "plant": 2168,
  "ue": 227,
  "windmill": 3934,
  "built": 3622,
  "lipstick": 6227,
  "soup": 3427,
  "lays": 5426,
  "holidays": 5464,
  "#": 6,
  "pink": 742,
  "helmet": 5693,
  "commotion": 6116,
  "should": 1017,
  "tous": 7219,
  "techniques": 6891,
  "ract": 1167,
  "presence": 2065,
  "guess": 2179,
  "matador": 6545,
  "ose": 786,
  "at": 93,
  "slight": 1134,
  "chur": 1478,
  "skin": 1008,
  "lly": 5129,
  "i": 46,
  "realm": 6328,
  "lined": 3336,
  "ier": 3694,
  "flash": 5309,
  "dut": 5490,
  "staying": 7777,
  "zombie": 5476,
  "eral": 2766,
  "inspiring": 1229,
  "agon": 3301,
  "linear": 6122,
  "struggle": 3803,
  "provoke": 6601,
  "feast": 5274,
  "ra": 150,
  "indicates": 3580,
  "accomplished": 4470,
  "stat": 1204,
  "outlines": 3331,
  "figure": 323,
  "patri": 4705,
  "pillars": 4909,
  "sphere": 1979,
  "architectural": 6235,
  "crudely": 7369,
  "current": 4689,
  "cano": 3404,
  "spect": 2746,
  "suc": 3664,
  "partying": 6760,
  "carriage": 4327,
  "start": 1472,
  "accentuate": 7457,
  "mist": 3656,
  "headache": 6323,
  "ru": 455,
  "disaster": 7655,
  "anted": 4594,
  "contempt": 4859,
  "flying": 1631,
  "knows": 2506,
  "beam": 6489,
  "parts": 1695,
  "often": 4047,
  "folded": 3947,
  "dain": 6449,
  "io": 3693,
  "vegetables": 5010,
  "naked": 637,
  "lane": 7538,
  "outdoor": 2134,
  "creek": 5537,
  "quite": 594,
  "justice": 6728,
  "venge": 5849,
  "more": 508,
  "serpent": 4607,
  "dou": 3655,
  "poised": 5053,
  "octopus": 7865,
  "indian": 3661,
  "dropping": 7074,
  "street": 1563,
  "oud": 1776,
  "worshipping": 5114,
  "slaying": 6467,
  "helping": 2992,
  "dity": 2276,
  "post": 1184,
  "ppling": 6301,
  "rible": 2008,
  "microscope": 6421,
  "acts": 5054,
  "explor": 7735,
  "depressing": 1467,
  "ruler": 4400,
  "mona": 5687,
  "mascul": 4421,
  "ous": 225,
  "noisy": 7970,
  "carefree": 3999,
  "conveyed": 5091,
  "iveness": 5845,
  "empt": 1970,
  "doorway": 4699,
  "ocean": 1010,
  "peering": 4587,
  "merry": 7047,
  "force": 3125,
  "len": 1068,
  "gentle": 1452,
  "ure": 141,
  "wonderland": 5409,
  "suggestion": 4973,
  "genitals": 5473,
  "admir": 4496,
  "velvet": 5351,
  "illness": 5669,
  "lim": 1575,
  "rises": 6017,
  "attack": 1914,
  "ino": 4345,
  "plan": 1681,
  "pompous": 4336,
  "harm": 1902,
  "dignified": 5341,
  "vil": 942,
  "utes": 4666,
  "blo": 548,
  "cauc": 7983,
  "poses": 2255,
  "ush": 750,
  "bundled": 7840,
  "smoking": 2889,
  "prepared": 4715,
  "round": 722,
  "individ": 1611,
  "signs": 4698,
  "return": 5265,
  "artistic": 2447,
  "does": 475,
  "wed": 3074,
  "nobility": 6977,
  "sitting": 751,
  "musician": 3531,
  "works": 2066,
  "darker": 1592,
  "prim": 4168,
  "paiting": 7245,
  "hiding": 1553,
  "alot": 3687,
  "native": 3795,
  "bilities": 4466,
  "framed": 7058,
  "bou": 3499,
  "enjoyed": 5182,
  "la": 251,
  "bath": 2340,
  "spilled": 4036,
  "instruments": 3349,
  "ius": 7189,
  "spend": 2858,
  "taken": 1786,
  "llic": 3816,
  "disorganized": 5059,
  "bund": 5904,
  "revolution": 6418,
  "maint": 5649,
  "candles": 5587,
  "religious": 753,
  "contribut": 4953,
  "teeth": 3543,
  "shore": 2079,
  "resemble": 2566,
  "deck": 6099,
  "bould": 5759,
  "calmly": 5173,
  "conver": 5046,
  "usage": 4861,
  "background": 356,
  "for": 175,
  "metaphor": 5615,
  "childhood": 2170,
  "ease": 1573,
  "easier": 7776,
  "falls": 5700,
  "matches": 3481,
  "romatic": 4091,
  "consist": 4353,
  "inv": 814,
  "strous": 7283,
  "flags": 4891,
  "urgency": 6713,
  "torture": 2654,
  "pse": 3424,
  "subjects": 1329,
  "worm": 7991,
  "fall": 1029,
  "palm": 4887,
  "oung": 673,
  "reass": 5502,
  "wings": 2023,
  "exhaust": 3559,
  "artist": 473,
  "dislike": 3059,
  "immer": 4670,
  "weather": 2169,
  "pig": 2115,
  "ca": 199,
  "barefoot": 6374,
  "vari": 3016,
  "brit": 7282,
  "considered": 2761,
  "ict": 4206,
  "sc": 180,
  "kneeling": 2674,
  "rainy": 4107,
  "nipple": 6651,
  "room": 839,
  "ually": 1172,
  "distorted": 1866,
  "paint": 138,
  "would": 445,
  "survive": 6865,
  "intentionally": 7786,
  "allen": 2196,
  "paired": 3925,
  "tender": 5709,
  "lication": 5819,
  "exotic": 3826,
  "oping": 4536,
  "arc": 6945,
  "parade": 4456,
  "clow": 2096,
  "experience": 2997,
  "star": 2629,
  "intimacy": 7412,
  "cake": 4292,
  "jux": 2928,
  "iz": 910,
  "dreary": 1940,
  "lo": 86,
  "splatter": 3163,
  "iff": 4595,
  "nightma": 3444,
  "iful": 298,
  "two": 489,
  "count": 1115,
  "walks": 4445,
  "virgin": 3410,
  "ago": 2401,
  "gen": 2021,
  "bon": 3220,
  "folk": 4798,
  "sharing": 3741,
  "spo": 1257,
  "vacation": 2510,
  "goddess": 4240,
  "exaggerated": 3071,
  "modest": 5658,
  "hur": 1386,
  "grues": 6112,
  "mem": 4202,
  "loud": 3824,
  "loc": 7213,
  "tv": 3962,
  "kick": 4929,
  "visible": 3479,
  "slow": 3225,
  "including": 3651,
  "pirate": 7145,
  "general": 2923,
  "why": 697,
  "drawn": 920,
  "eccentric": 6870,
  "rush": 3830,
  "imaginative": 7149,
  "cell": 3913,
  "pred": 3734,
  "egg": 2545,
  "distracted": 6020,
  "stract": 562,
  "clim": 3002,
  "helps": 3627,
  "spectacular": 6053,
  "downward": 4163,
  "oranges": 1992,
  "majority": 6878,
  "reinforces": 6043,
  "issue": 7147,
  "chief": 7119,
  "mix": 1014,
  "ways": 806,
  "leads": 2973,
  "gras": 4506,
  "vint": 3917,
  "civilization": 6642,
  "fel": 2043,
  "saddened": 4862,
  "stuff": 2641,
  "funn": 7652,
  "vibrancy": 4680,
  "vi": 382,
  "science": 4672,
  "italy": 4261,
  "rid": 1225,
  "pick": 3470,
  "front": 1075,
  "ators": 5593,
  "stain": 2307,
  "silver": 4455,
  "ilation": 7949,
  "central": 2579,
  "exists": 6401,
  "snake": 2158,
  "numbers": 4320,
  "when": 553,
  "radi": 3108,
  "faith": 3483,
  "incredible": 2147,
  "whi": 5384,
  "metallic": 6839,
  "hair": 557,
  "jam": 7192,
  "cting": 6716,
  "chuckle": 4815,
  "lous": 2044,
  "iting": 442,
  "will": 817,
  "shoreline": 4899,
  "cows": 2871,
  "seasons": 6607,
  "boy": 981,
  "ppies": 7621,
  "games": 4275,
  "wash": 1819,
  "rudi": 5681,
  "vintage": 3955,
  "smel": 6935,
  "ized": 1930,
  "magic": 3431,
  "list": 2416,
  "’": 76,
  "monet": 6198,
  "watercolors": 7298,
  "whim": 1507,
  "highly": 2838,
  "rol": 1459,
  "alling": 7617,
  "weary": 5530,
  "ju": 2022,
  "dessert": 7789,
  "tight": 3209,
  "dered": 2367,
  "torment": 5826,
  "coral": 6544,
  "thigh": 6671,
  "elegance": 6353,
  "kaleidoscope": 7510,
  "grain": 3027,
  "checker": 7138,
  "liter": 3378,
  "contain": 2516,
  "sleepy": 4620,
  "vinci": 6860,
  "mone": 2377,
  "window": 1050,
  "nervous": 2581,
  "since": 850,
  "train": 2724,
  "americ": 2038,
  "babies": 2271,
  "emer": 3992,
  ")": 12,
  "wild": 1663,
  "invent": 7692,
  "es": 90,
  "device": 6866,
  "check": 4786,
  "work": 424,
  "ams": 3561,
  "honor": 7848,
  "though": 502,
  "necessary": 5474,
  "frail": 7367,
  "wn": 4413,
  "couples": 5989,
  "bow": 987,
  "pure": 2378,
  "invitation": 7338,
  "ancy": 1637,
  "archa": 7929,
  "lax": 402,
  "gener": 1748,
  "monochromatic": 4185,
  "ic": 116,
  "towns": 4528,
  "reflection": 1653,
  "bor": 600,
  "pope": 6306,
  "nap": 2931,
  "biz": 2691,
  "thent": 7210,
  "contempor": 5755,
  "est": 1215,
  "depressed": 1971,
  "comple": 962,
  "spent": 4436,
  "dre": 857,
  "dots": 1855,
  "grad": 3334,
  "pained": 4883,
  "motherly": 7326,
  "verted": 6693,
  "cele": 1815,
  "compan": 4691,
  "palpable": 7060,
  "\"": 5,
  "awake": 7180,
  "́": 68,
  "offensive": 7670,
  "comfortable": 827,
  "emotionless": 5416,
  "canvass": 7995,
  "fol": 1672,
  "rectangle": 3310,
  "ified": 3403,
  "grief": 4113,
  "donald": 6521,
  "awaiting": 5623,
  "comfort": 1939,
  "ches": 791,
  "pleasant": 903,
  "okay": 3552,
  "ect": 371,
  "oned": 2589,
  "jumble": 5441,
  "quality": 1731,
  "thes": 6474,
  "insect": 5139,
  "much": 499,
  "trav": 6160,
  "shepher": 5951,
  "allow": 2570,
  "ise": 891,
  "practice": 5734,
  "ethereal": 4644,
  "igg": 2407,
  "undertone": 7325,
  "lant": 5130,
  "first": 1149,
  "second": 3507,
  "rand": 1132,
  "hamed": 6283,
  "cartoonish": 2260,
  "beautiful": 301,
  "lon": 397,
  "copy": 6953,
  "pou": 6925,
  "unknown": 2650,
  "burned": 5714,
  "recei": 3858,
  "vivid": 1233,
  "irrit": 2533,
  "mean": 771,
  "maker": 7607,
  "due": 1240,
  "memorable": 7089,
  "stoic": 3442,
  "demons": 2717,
  "brilli": 2698,
  "spectac": 5599,
  "danc": 1241,
  "ture": 209,
  "someone": 500,
  "bibli": 2491,
  "victori": 4402,
  "wandering": 6219,
  "ellow": 426,
  "attacking": 3194,
  "clothed": 3385,
  "spi": 6313,
  "balcony": 5753,
  "meat": 5036,
  "cif": 1302,
  "negative": 2645,
  "eventful": 7739,
  "lit": 396,
  "kitch": 2930,
  "blotchy": 6063,
  "blurr": 6563,
  "sit": 439,
  "reminiscent": 2809,
  "fancy": 1883,
  "twilight": 6051,
  "flow": 398,
  "printed": 7029,
  "david": 6237,
  "lotch": 3187,
  "russi": 5614,
  "!\"": 5622,
  "cking": 2349,
  "respon": 4290,
  "dagger": 7880,
  "observing": 7108,
  "sing": 540,
  "nause": 4518,
  "china": 6386,
  "weeping": 6114,
  "celebrate": 5584,
  "<unk>": 1,
  "colourful": 4972,
  "ouse": 695,
  "toon": 1263,
  "ine": 529,
  "crimin": 7764,
  "annoying": 3278,
  "depicted": 1252,
  "sour": 3602,
  "performance": 6896,
  "creeping": 5828,
  "pul": 2162,
  "disorder": 6744,
  "sly": 4830,
  "uc": 3963,
  "adorned": 7092,
  "shin": 1570,
  "activity": 1953,
  "slau": 5134,
  "eased": 7884,
  "eyebrows": 3812,
  "possible": 2565,
  "clearly": 1638,
  "ler": 3224,
  "anged": 3088,
  "muted": 1067,
  "eastern": 6033,
  "mother": 628,
  "ag": 409,
  "thought": 900,
  "pie": 422,
  "fly": 2625,
  "york": 6058,
  "cont": 237,
  "envir": 2110,
  "craf": 5853,
  "ates": 838,
  "week": 7630,
  "turing": 2895,
  "rotten": 6185,
  "complexity": 4183,
  "anda": 5643,
  "ient": 1512,
  "3d": 2721,
  "delightful": 4011,
  "adore": 5883,
  "pass": 1555,
  "vit": 6469,
  "peacock": 6050,
  "pu": 1131,
  "thing": 184,
  "surrounding": 1593,
  "fortun": 4316,
  "removed": 5141,
  "touches": 5211,
  "execution": 5107,
  ";": 30,
  "buttons": 6835,
  "mature": 5029,
  "empow": 7037,
  "altern": 6947,
  "mp": 2529,
  "labor": 3733,
  "effort": 2539,
  "crossing": 5844,
  "cler": 6142,
  "warhol": 3996,
  "satan": 4794,
  "deserted": 5612,
  "trou": 2520,
  "dreamy": 3798,
  "identify": 5316,
  "pics": 6717,
  "pensive": 2894,
  "pious": 4343,
  "enjoying": 921,
  "cour": 2318,
  "princess": 4479,
  "pallete": 6794,
  "jealous": 7098,
  "intrigues": 6555,
  "seascape": 5873,
  "furnit": 4623,
  "goal": 6510,
  "tilted": 3948,
  "ver": 127,
  "tiger": 3049,
  "encom": 7933,
  "thy": 1348,
  "rising": 2745,
  "intellect": 6609,
  "swans": 5455,
  "expresses": 7115,
  "sterile": 7043,
  "trait": 6354,
  "rail": 5393,
  "made": 683,
  "diffic": 2004,
  "private": 3047,
  "suppose": 3191,
  "palace": 5085,
  "stems": 7459,
  "optical": 4342,
  "white": 335,
  "charact": 919,
  "extreme": 1542,
  "ills": 6312,
  "relat": 5435,
  "picture": 255,
  "cats": 3482,
  "steady": 5990,
  "tilt": 6589,
  "members": 5610,
  "mildly": 5462,
  "confused": 595,
  "ism": 1197,
  "fingers": 2872,
  "ghostly": 3449,
  "peaceful": 386,
  "cel": 4337,
  "application": 7335,
  "ged": 1511,
  "rayed": 6525,
  "neat": 2135,
  "wan": 5636,
  "inte": 7942,
  "ick": 701,
  "beyond": 2690,
  "aked": 4569,
  "pet": 1947,
  "ziness": 7554,
  "arrangement": 2493,
  "betwe": 796,
  "strolling": 5378,
  "surely": 6335,
  "vibe": 1955,
  "gh": 132,
  "have": 330,
  "frowning": 5738,
  "stress": 3201,
  "senti": 6338,
  "of": 92,
  "fur": 1736,
  "itely": 2344,
  "bles": 1317,
  "fren": 3501,
  "question": 2874,
  "chic": 2325,
  "ote": 6262,
  "darkness": 861,
  "indicating": 5861,
  "pep": 7588,
  "uded": 3532,
  "halo": 1863,
  "uncertainty": 4849,
  "rocking": 6970,
  "deal": 3432,
  "pent": 3818,
  "roundness": 7033,
  "practicing": 6206,
  "computer": 6240,
  "easy": 1282,
  "rude": 7304,
  "selection": 7151,
  "impress": 3977,
  "theres": 3428,
  "hunger": 6384,
  "treated": 6125,
  "oring": 5271,
  "club": 5556,
  "towering": 5180,
  "wax": 7027,
  "possi": 1353,
  "ell": 275,
  "labo": 7537,
  "crushed": 7714,
  "splotchy": 5673,
  "scarf": 3356,
  "messed": 6172,
  "semi": 3968,
  "vial": 4961,
  "italian": 6241,
  "sex": 1285,
  "collap": 6165,
  "sunny": 1475,
  "mask": 2729,
  "normal": 2248,
  "conj": 4948,
  "circular": 4545,
  "chocolate": 5899,
  "reminis": 2719,
  "s": 56,
  "bringing": 3630,
  "its": 357,
  "dropped": 4889,
  "man": 123,
  "adoring": 6581,
  "ication": 6957,
  "oding": 7990,
  "rooms": 7343,
  "ount": 440,
  "backdrop": 2670,
  "year": 1565,
  "hitting": 5732,
  "building": 866,
  "hectic": 7593,
  "scripture": 7814,
  "danger": 1596,
  "silhou": 3533,
  "bananas": 5870,
  "orient": 2459,
  "als": 2100,
  "seeking": 4847,
  "selves": 1714,
  "my": 284,
  "besides": 5083,
  "ily": 670,
  "epic": 3322,
  "come": 984,
  "shed": 2914,
  "rene": 937,
  "unclear": 2886,
  "discontent": 6127,
  "tells": 2600,
  "physique": 7508,
  "wall": 868,
  "drop": 2337,
  "anting": 4507,
  "safety": 3895,
  "grav": 5078,
  "santa": 5468,
  "peter": 6097,
  "cathed": 4851,
  "exact": 1854,
  "onic": 4580,
  "dread": 2867,
  "masses": 6603,
  "simp": 1119,
  "creates": 1412,
  "object": 812,
  "whe": 2695,
  "lived": 3429,
  "ious": 481,
  "isol": 2663,
  "aks": 1734,
  "abor": 2515,
  "holes": 5953,
  "life": 433,
  "villain": 6610,
  "clutter": 6586,
  "vol": 2267,
  "achie": 4098,
  "sub": 1332,
  "matter": 1387,
  "although": 1250,
  "aring": 549,
  "amusement": 1821,
  "rap": 4947,
  "themselves": 1774,
  "angled": 4432,
  "ession": 3978,
  "crimson": 7099,
  "sleeves": 5317,
  "inely": 6270,
  "escap": 7217,
  "recogniz": 4908,
  "burnt": 5092,
  "plish": 7627,
  "spa": 7901,
  "illuminated": 5884,
  "rus": 4578,
  "obsc": 4695,
  "explosion": 4174,
  "flames": 3888,
  "sober": 7592,
  "wore": 6971,
  "associ": 3703,
  "further": 3535,
  "travelling": 6890,
  "gentleman": 2398,
  "excite": 977,
  "potential": 5111,
  "allowed": 6832,
  "planes": 7399,
  "celebratory": 6817,
  "pleasing": 1099,
  "runs": 7057,
  "cars": 4780,
  "speak": 3448,
  "sorts": 3937,
  "represents": 1647,
  "dis": 367,
  "tools": 5061,
  "caps": 6985,
  "de": 135,
  "trim": 5310,
  "inge": 7564,
  "claust": 5226,
  "nighttime": 6350,
  "terror": 4964,
  "intel": 3464,
  "george": 6432,
  "vy": 2390,
  "bas": 1217,
  "autumn": 2594,
  "original": 3496,
  "valley": 3347,
  "isp": 3028,
  "several": 2159,
  "fli": 4071,
  "villa": 3573,
  "emphasize": 6402,
  "ropho": 5278,
  "del": 7877,
  "irts": 5162,
  "others": 1347,
  "last": 2279,
  "pollock": 7784,
  "cliffs": 3904,
  "veil": 6964,
  "happier": 7992,
  "itation": 5267,
  "column": 6791,
  "older": 1682,
  "annoy": 2020,
  "plants": 2016,
  "allows": 3725,
  "carries": 5187,
  "fishing": 2487,
  "feelings": 1296,
  "carving": 6337,
  "master": 2710,
  "uninteresting": 3976,
  "sword": 1801,
  "clearing": 7023,
  "ja": 3422,
  "hike": 6765,
  "wealth": 3562,
  "stairs": 4325,
  "serenity": 2902,
  "ma": 114,
  "theless": 7916,
  "knives": 7766,
  "craft": 5576,
  "pia": 4704,
  "journal": 7767,
  "daring": 6661,
  "egypti": 6647,
  "morph": 5698,
  "touching": 3098,
  "reddish": 3870,
  "universe": 5590,
  "bathing": 4323,
  "circum": 5991,
  "heavens": 3890,
  "st": 103,
  "glowing": 2185,
  "seated": 3400,
  "fisher": 4272,
  "cup": 1906,
  "sculptures": 6375,
  "wolf": 5467,
  "cher": 1805,
  "compon": 7348,
  "expressions": 1009,
  "uplifting": 3267,
  "sociali": 7761,
  "rather": 1106,
  "misty": 7798,
  "profession": 4995,
  "aff": 4372,
  "puzz": 1900,
  "phys": 5105,
  "herself": 1730,
  "emotional": 2563,
  "presented": 2918,
  "sto": 511,
  "placed": 2247,
  "cor": 917,
  "bowl": 2673,
  "course": 4804,
  "catch": 3040,
  "pairing": 7947,
  "military": 3104,
  "adm": 3433,
  "distortion": 7148,
  "these": 452,
  "scul": 1369,
  "every": 454,
  "avoid": 7683,
  "discussing": 4257,
  "lighting": 1504,
  "green": 404,
  "aqu": 7179,
  "painter": 1552,
  "horizontal": 4318,
  "rows": 5325,
  "bits": 4018,
  "py": 3817,
  "branch": 4628,
  "floral": 3308,
  "tocks": 6480,
  "strangely": 4013,
  "nakedness": 4106,
  "liked": 4586,
  "ting": 304,
  "earthy": 3384,
  "crack": 4046,
  "sid": 1764,
  "pigs": 4180,
  "embrace": 3538,
  "abilities": 7965,
  "mansion": 5929,
  "swim": 2845,
  "70": 7518,
  "paints": 4588,
  "exudes": 5475,
  "sassy": 6468,
  "hero": 4089,
  "waters": 1948,
  "oce": 1005,
  "state": 1974,
  "19": 2250,
  "hasn": 6995,
  "ballerina": 7480,
  "stem": 4350,
  "cro": 2042,
  "directly": 4243,
  "but": 201,
  "pointed": 4532,
  "gam": 6452,
  "9": 28,
  "tles": 3916,
  "streaming": 7765,
  "tapes": 5396,
  "prov": 3092,
  "cheerful": 1656,
  "acks": 2697,
  "rain": 765,
  "vulner": 3810,
  "begg": 7233,
  "proble": 3831,
  "rhe": 7900,
  "mo": 172,
  "perfect": 1020,
  "swing": 5369,
  "pain": 1083,
  "arrow": 2183,
  "monster": 2119,
  "bountiful": 7482,
  "gra": 829,
  "kennedy": 6903,
  "wiel": 6968,
  "advert": 3083,
  "bed": 1044,
  "sure": 589,
  "encoura": 6949,
  "iration": 3927,
  "shouldn": 4882,
  "depic": 538,
  "beast": 3148,
  "anyway": 6329,
  "desol": 2559,
  "dancer": 5086,
  "plenty": 5347,
  "neither": 4512,
  "thoughtful": 3629,
  "graininess": 7434,
  "suffoc": 7857,
  "emptiness": 3045,
  "palate": 5571,
  "subtle": 2490,
  "loom": 6674,
  "direct": 1617,
  "iously": 5811,
  "plays": 3521,
  "iconic": 6958,
  "seem": 189,
  "laund": 5955,
  "continue": 6411,
  "print": 1995,
  "pi": 1554,
  "creating": 2144,
  "ued": 5260,
  "structure": 1444,
  "town": 758,
  "ruin": 6133,
  "00s": 6060,
  "cheery": 3132,
  "childlike": 3035,
  "gro": 4740,
  "{": 64,
  "regret": 4639,
  "span": 5672,
  "herent": 6325,
  "bell": 3773,
  "ene": 5272,
  "urban": 5797,
  "cannot": 1666,
  "abstraction": 6332,
  "ghosts": 3100,
  "longing": 2891,
  "seeming": 2103,
  "ability": 2983,
  "roses": 3371,
  "focal": 3269,
  "by": 288,
  "been": 728,
  "back": 279,
  "calm": 308,
  "<": 31,
  "consistent": 5018,
  "diagon": 5293,
  "istine": 5666,
  "jewel": 3355,
  "adventurous": 5720,
  "panels": 3485,
  "chao": 1036,
  "heart": 1307,
  "grasses": 7059,
  "rich": 1219,
  "ses": 790,
  "lage": 1111,
  "inclu": 3247,
  "domestic": 4735,
  "frightening": 1996,
  "true": 2800,
  "inspirational": 7806,
  "ggy": 6070,
  "fascination": 7748,
  "past": 1041,
  "cultures": 7416,
  "velo": 3866,
  "magnific": 3452,
  "ence": 928,
  "name": 3876,
  "thir": 7208,
  "examine": 7110,
  "afraid": 1668,
  "separation": 7427,
  "u": 58,
  "decapitated": 6895,
  "win": 4834,
  "plate": 2328,
  "crown": 2370,
  "rhyme": 6424,
  "shape": 821,
  "hollow": 5877,
  "triangle": 4790,
  "film": 6034,
  "streets": 3123,
  "later": 6260,
  "sel": 560,
  "div": 2464,
  "bees": 7583,
  "lovely": 837,
  "escaping": 7513,
  "offering": 3990,
  "rendered": 3792,
  "oly": 6923,
  "delic": 1966,
  "disproportion": 4157,
  "glare": 6780,
  "standard": 5544,
  "blah": 3784,
  "whimsical": 1740,
  "decorations": 6010,
  "angered": 6749,
  "watermelon": 5676,
  "clash": 3477,
  "lovers": 3119,
  "suf": 6989,
  "boots": 5243,
  "era": 2195,
  "pecu": 6960,
  "bothering": 7120,
  "crab": 7070,
  "interior": 5833,
  "graph": 1420,
  "wish": 1679,
  "disconcerting": 6246,
  "decaying": 6221,
  "during": 1950,
  "new": 930,
  "tomb": 5836,
  "ames": 2682,
  "preparing": 2847,
  "enhance": 7466,
  "whirl": 7244,
  "forceful": 7782,
  "cure": 4823,
  "type": 1381,
  "traveling": 3386,
  "breakfast": 5874,
  "suffer": 6820,
  "mosaic": 4017,
  "amazingly": 5190,
  "posture": 1484,
  "piece": 463,
  "chance": 6698,
  "ef": 965,
  "wants": 1890,
  "miracle": 6372,
  "beings": 3667,
  "“": 77,
  "blankets": 7770,
  "mead": 4581,
  "suffe": 5528,
  "appre": 1660,
  "logo": 3293,
  "acies": 7937,
  "smile": 922,
  "app": 797,
  "acid": 7936,
  "shoo": 3997,
  "peacefulness": 3875,
  "usk": 4035,
  "pushed": 7793,
  "protective": 4543,
  "ann": 6672,
  "discovery": 7163,
  "qualities": 7998,
  "bizarre": 2850,
  "symbo": 1220,
  "lifting": 2718,
  "anato": 3821,
  "hardly": 5981,
  "complement": 3839,
  "pan": 1696,
  "unstable": 7975,
  "inhabitants": 7486,
  "punch": 6928,
  "hallow": 5090,
  "caly": 5535,
  "presenting": 7682,
  "fairy": 3070,
  "overlapping": 5284,
  "mer": 907,
  "mold": 4211,
  "murder": 4119,
  "one": 200,
  "point": 1012,
  "hooded": 6571,
  "amateur": 5245,
  "deer": 3229,
  "ual": 743,
  "olym": 7504,
  "potent": 3897,
  "barbed": 7384,
  "canyon": 7160,
  "nothing": 625,
  "exu": 4425,
  "gods": 4593,
  "bemused": 7499,
  "capped": 6300,
  "pa": 128,
  "trust": 3475,
  "bar": 1394,
  "fallen": 2546,
  "lap": 2712,
  "organic": 5439,
  "greece": 7758,
  "nested": 7802,
  "coin": 6683,
  "gy": 927,
  "lis": 5128,
  "cept": 1816,
  "rapid": 7139,
  "fragmented": 6885,
  "partic": 1532,
  "paying": 4841,
  "brighter": 3439,
  "gious": 738,
  "ange": 435,
  "ended": 2465,
  "futuristic": 5022,
  "tural": 3936,
  "lif": 1492,
  "shirtless": 7090,
  "temple": 6210,
  "towers": 4868,
  "tear": 5549,
  "stren": 2609,
  "child": 349,
  "chilling": 5654,
  "annoyed": 2413,
  "icy": 3295,
  "conside": 2753,
  "space": 1318,
  "lets": 4028,
  "bread": 3188,
  "graves": 6538,
  "nostal": 1743,
  "contented": 2270,
  "signal": 7372,
  "factory": 5407,
  "drawing": 718,
  "reminding": 5171,
  "tending": 5313,
  "graff": 4374,
  "ps": 567,
  "scant": 7615,
  "shoe": 5301,
  "balloons": 4813,
  "wint": 5767,
  "washington": 7439,
  "result": 5168,
  "shif": 5527,
  "ham": 4839,
  "lake": 1432,
  "ig": 215,
  "left": 740,
  "hostile": 7819,
  "imagin": 5415,
  "tone": 1242,
  "ctive": 3615,
  "killed": 2586,
  "licking": 5553,
  "gripping": 6573,
  "family": 945,
  "chinese": 3022,
  "phenomen": 7168,
  "plot": 4487,
  "che": 805,
  "bent": 3221,
  "ado": 3330,
  "brewing": 6145,
  "pale": 1496,
  "baptism": 6881,
  "genit": 4317,
  "sexuality": 5868,
  "velve": 4978,
  "fabric": 2039,
  "scratches": 5733,
  "scholarly": 7818,
  "ramid": 5789,
  "onounced": 6478,
  "never": 1600,
  "cock": 5783,
  "?\"": 4568,
  "str": 271,
  "intelligent": 5242,
  "ience": 3394,
  "stopping": 7315,
  "wicked": 6470,
  "entirely": 4389,
  "ating": 524,
  "singing": 4441,
  "ination": 1028,
  "ring": 1065,
  "dining": 7076,
  "sheer": 3563,
  "symbolize": 4464,
  "ballet": 5847,
  "fis": 4132,
  "ad": 145,
  "tain": 991,
  "mish": 7540,
  "acy": 3081,
  "ear": 748,
  "depicting": 2208,
  "imagery": 1751,
  "dressed": 973,
  "lemons": 3764,
  "rotting": 6578,
  "kids": 1768,
  "wood": 1040,
  "flav": 7391,
  "cof": 3112,
  "varied": 5202,
  "search": 5921,
  "captivating": 3731,
  "backyard": 7284,
  "tea": 2518,
  "prest": 6124,
  "scholar": 4562,
  "blocks": 2219,
  "realistically": 7341,
  "comparison": 4066,
  "literally": 3454,
  "gothic": 7272,
  "unusual": 2232,
  "toe": 6276,
  "exceptional": 6880,
  "casual": 4807,
  "contempl": 2051,
  "execut": 3031,
  "breath": 2616,
  "downcast": 3878,
  "block": 1905,
  "styles": 4777,
  "restaurant": 4820,
  "message": 2383,
  "oker": 6280,
  "suggestive": 5983,
  "lighthouse": 3248,
  "tired": 1541,
  "he": 130,
  "provoking": 4397,
  "tower": 3272,
  "decide": 4553,
  "hay": 4207,
  "savior": 4966,
  "deli": 5388,
  "foot": 2092,
  "opinion": 2852,
  "species": 6184,
  "ull": 690,
  "answ": 4248,
  "strewn": 7702,
  "$": 7,
  "pastels": 4001,
  "memor": 1991,
  "c": 40,
  "tly": 2934,
  "raid": 1606,
  "knee": 7744,
  "haunt": 2345,
  "blending": 3160,
  "downtrodden": 7845,
  "convers": 2938,
  "hother": 6310,
  "uck": 3117,
  "blob": 3711,
  "ever": 1023,
  "isnt": 3920,
  "curved": 4688,
  "nor": 1559,
  "utili": 5158,
  "cl": 632,
  "technology": 6645,
  "minds": 7637,
  "!": 4,
  "lid": 2099,
  "stroll": 3172,
  "random": 1138,
  "daunting": 7768,
  "satisfied": 3315,
  "womens": 5290,
  "ace": 168,
  "nude": 1059,
  "ump": 2637,
  "personal": 3666,
  "becoming": 6491,
  "resembles": 2037,
  "contagious": 6902,
  "isy": 5640,
  "knees": 3581,
  "perplexing": 7807,
  "iet": 1117,
  "medi": 2252,
  "dude": 4380,
  "baskets": 6167,
  "appreciate": 2129,
  "medie": 3190,
  "horrifying": 5815,
  "resili": 7982,
  "rough": 1706,
  "ish": 425,
  "catholic": 4646,
  "goose": 7271,
  "gets": 2590,
  "ana": 4197,
  "sket": 989,
  "love": 292,
  "hel": 811,
  "dated": 5762,
  "zag": 7915,
  "ain": 351,
  "ghou": 6694,
  "rudimentary": 5898,
  "mee": 2391,
  "stim": 2769,
  "soph": 4494,
  "nting": 6498,
  "lace": 3170,
  "bright": 286,
  "enough": 1346,
  "mis": 1038,
  "graceful": 4552,
  "ults": 3474,
  "rs": 5367,
  "leisurely": 6228,
  "carn": 3752,
  "mart": 6459,
  "bi": 1754,
  "lab": 4073,
  "laugh": 1186,
  "except": 2633,
  "ppy": 2000,
  "marriage": 7067,
  "poorly": 3578,
  "ounced": 6299,
  "attacked": 3089,
  "amazement": 4918,
  "believ": 6003,
  "shells": 7470,
  "ry": 294,
  "contribute": 6047,
  "element": 3838,
  "dow": 4826,
  "hugging": 4301,
  "saving": 6526,
  "ter": 478,
  "mad": 1898,
  "beliefs": 7144,
  "cas": 2431,
  "basically": 5321,
  "iv": 1121,
  "portion": 4222,
  "wing": 2088,
  "frame": 1578,
  "areas": 3007,
  "sleeve": 7728,
  "nestled": 6217,
  "kk": 6916,
  "meta": 4582,
  "ffe": 4133,
  "thats": 3612,
  "conveys": 2540,
  "parents": 3283,
  "sailing": 2817,
  "scri": 4503,
  "earth": 1715,
  "inquisitive": 4733,
  "cali": 7618,
  "chain": 6153,
  "osing": 7197,
  "pizza": 6899,
  "gu": 459,
  "rence": 2776,
  "shine": 2683,
  "someones": 4355,
  "crucif": 1687,
  "balloon": 5741,
  "fight": 1164,
  "pathy": 5155,
  "president": 7443,
  "chess": 7954,
  "trium": 7056,
  "lady": 613,
  "br": 264,
  "comic": 3182,
  "setting": 795,
  "corn": 6159,
  "absolute": 5862,
  ",,": 7869,
  "trolley": 7512,
  "sections": 5460,
  "purple": 1051,
  "indifferent": 2372,
  "brightly": 2857,
  "bility": 4739,
  "consuming": 7252,
  "serve": 7331,
  "ative": 1113,
  "dawn": 5358,
  "cubist": 3809,
  "strokes": 852,
  "ands": 4079,
  "polka": 6846,
  "came": 2942,
  "knights": 6396,
  "skillful": 6379,
  "sorry": 4004,
  "purse": 7685,
  "dimension": 2125,
  "nit": 4195,
  "controlling": 6993,
  "rot": 1936,
  "peo": 228,
  "tremend": 7651,
  "cruel": 3938,
  "gloominess": 7128,
  "rays": 3623,
  "enormous": 3772,
  "battling": 4885,
  "stranded": 7854,
  "landscape": 761,
  "fier": 3523,
  "doors": 4454,
  "oppression": 7809,
  "echo": 5492,
  "rent": 3226,
  "kept": 4489,
  "bicy": 6658,
  "mat": 932,
  "compassion": 5531,
  "hable": 6493,
  "oriental": 3493,
  "boding": 2278,
  "sidewalk": 6754,
  "trick": 4778,
  "stained": 3107,
  "sand": 1454,
  "arouses": 7930,
  "find": 719,
  "quil": 1655,
  "big": 782,
  "author": 3796,
  "cles": 7524,
  "astic": 6144,
  "explan": 6709,
  "primarily": 7704,
  "party": 1349,
  "inspect": 6177,
  "mouths": 7395,
  "fat": 1783,
  "court": 3763,
  "again": 662,
  "hanging": 1661,
  "mur": 2376,
  "uncle": 7259,
  "resembling": 7732,
  "pads": 7590,
  "hund": 4276,
  "evident": 6130,
  "een": 4481,
  "dances": 7719,
  "the": 81,
  "powerful": 1325,
  "dec": 2090,
  "priv": 2524,
  "went": 2322,
  "ent": 188,
  "grow": 1927,
  "ou": 100,
  "dot": 2613,
  "enthusi": 7867,
  "embr": 2272,
  "micro": 4632,
  "torso": 5298,
  "beautifully": 1688,
  "recent": 5033,
  "iles": 3781,
  "security": 7505,
  "along": 972,
  "trip": 2921,
  "patt": 763,
  "marks": 2555,
  "secl": 5645,
  "lisa": 5481,
  "picking": 3511,
  "talk": 4232,
  "darkened": 5742,
  "sins": 5072,
  "construction": 5602,
  "until": 4003,
  "keys": 6377,
  "kend": 7363,
  "mort": 4138,
  "forward": 2696,
  "colorful": 730,
  "devoid": 4946,
  "friends": 2173,
  "clut": 2311,
  "uries": 7908,
  "logs": 7922,
  "praying": 1634,
  "lighthearted": 5246,
  "dangling": 7883,
  "il": 131,
  "waste": 3342,
  "cracks": 5977,
  "comb": 1066,
  "blot": 6445,
  "amazes": 5413,
  "psyched": 5234,
  "please": 5163,
  "indians": 7800,
  "nd": 5030,
  "humble": 5605,
  "playfulness": 4171,
  "boredom": 1986,
  "greeting": 6584,
  "bearded": 6579,
  "uninspired": 5795,
  "remembering": 6849,
  "admi": 3056,
  "follow": 2469,
  "landsc": 4870,
  "smug": 3337,
  "?)": 3051,
  "absurd": 5113,
  "depression": 3329,
  "existence": 5731,
  "bible": 3321,
  "quet": 3382,
  "mon": 587,
  "ade": 2512,
  "badly": 4531,
  "rhy": 4829,
  "suspicious": 5021,
  "glaring": 6548,
  "dear": 6695,
  "cri": 2414,
  "ordin": 2514,
  "relief": 5188,
  "hung": 4054,
  "pinkish": 7035,
  "disjo": 2833,
  "estab": 7717,
  "specif": 2488,
  "intense": 1626,
  "stepping": 6356,
  "cact": 7523,
  "evo": 5060,
  "little": 447,
  "disproportionate": 5345,
  "indif": 2045,
  "skirt": 3618,
  "bery": 6250,
  "gon": 1907,
  "attemp": 3983,
  "attracted": 7731,
  "mage": 6687,
  "could": 570,
  "mere": 6274,
  "chat": 5652,
  "smeared": 4896,
  "relax": 403,
  "cation": 2659,
  "careful": 6553,
  "deathbed": 7699,
  "look": 104,
  "particularly": 2338,
  "ins": 1586,
  "vass": 7909,
  "foods": 7068,
  "average": 6636,
  "lower": 2634,
  "offers": 5550,
  "glance": 2701,
  "total": 4658,
  "60": 6905,
  "live": 1514,
  "izes": 5424,
  "tint": 5257,
  "intri": 1053,
  "harmonious": 3848,
  "shown": 1765,
  "seek": 6700,
  "ization": 3883,
  "add": 1372,
  "ghost": 1483,
  "expan": 4381,
  "smashed": 7904,
  "talking": 2334,
  "ambig": 3707,
  "oking": 1758,
  "deser": 4298,
  "menacing": 2381,
  "emo": 7188,
  "moves": 5523,
  "growing": 2604,
  "intensity": 4383,
  "saddening": 4921,
  "po": 232,
  "asian": 2007,
  "grosses": 7738,
  "christianity": 6208,
  "ilt": 3055,
  "followers": 4322,
  "omin": 1226,
  "sever": 2109,
  "brain": 3284,
  "worker": 5542,
  "teen": 4521,
  "jag": 3114,
  "somewhat": 1301,
  "breasts": 2128,
  "atter": 1129,
  "nightmare": 4186,
  "european": 4263,
  "stimulating": 3728,
  "wor": 266,
  "e": 42,
  "mud": 2834,
  "tr": 558,
  "lers": 4930,
  "relation": 3277,
  "iding": 1441,
  "cho": 664,
  "starting": 3677,
  "motherhood": 7327,
  "fab": 1934,
  "consum": 6974,
  "joker": 7535,
  "ison": 1964,
  "asto": 5516,
  "slaves": 5000,
  "lotches": 2281,
  "sky": 417,
  "%": 8,
  "entrance": 4917,
  "composition": 1818,
  "television": 6434,
  "die": 2692,
  "ashamed": 6286,
  "crucified": 3069,
  "ji": 6915,
  "displayed": 3101,
  "small": 654,
  "concrete": 4210,
  "chap": 6540,
  "horiz": 2011,
  "mural": 5493,
  "vir": 1670,
  "eding": 2502,
  "arm": 393,
  "ution": 3610,
  "slaughter": 7826,
  "bald": 6363,
  "surrounds": 5420,
  "asure": 5517,
  "japanese": 1676,
  "stamp": 6281,
  "bugs": 5964,
  "emanating": 6435,
  "role": 5935,
  "freshly": 4991,
  "blu": 5167,
  "errat": 6272,
  "thin": 2366,
  "om": 415,
  "ordered": 7576,
  "mast": 5927,
  "imp": 1469,
  "aby": 5938,
  "identif": 6367,
  "peaco": 5337,
  "ww": 7911,
  "explain": 4591,
  "lives": 2177,
  "spraw": 7649,
  "dapple": 7881,
  "erial": 2855,
  "aggrav": 7661,
  "carri": 3343,
  "ud": 1243,
  "outdoors": 2976,
  "gg": 1002,
  "knowledge": 3790,
  "bly": 1279,
  "ts": 405,
  "headed": 2859,
  "cherry": 5326,
  "mixture": 2868,
  "applied": 6537,
  "primary": 2335,
  "distress": 2598,
  "par": 1415,
  "strugg": 2294,
  "mushrooms": 6624,
  "iety": 1399,
  "claim": 6596,
  "cheeks": 2299,
  "blowing": 2743,
  "xing": 5638,
  "logical": 5642,
  "bra": 2722,
  "dely": 6450,
  "ives": 4576,
  "kindergart": 6331,
  "twi": 5370,
  "utral": 1517,
  "bered": 6490,
  "admiration": 4643,
  "vulnerability": 7803,
  "gliding": 7856,
  "experiencing": 4724,
  "caused": 4955,
  "wonderment": 7312,
  "lichtenstein": 7514,
  "pathetic": 5386,
  "peasant": 6048,
  "appears": 416,
  "photorealistic": 7679,
  "chains": 7697,
  "moving": 1569,
  "corner": 1811,
  "son": 2116,
  "rect": 1135,
  "times": 1278,
  "alcohol": 7157,
  "hallucinogen": 7852,
  "coy": 6090,
  "symbols": 3719,
  "difference": 4439,
  "subdued": 3390,
  "basic": 1520,
  "witness": 5108,
  "implied": 6565,
  "devil": 2231,
  "certain": 2052,
  "stam": 6677,
  "unfinished": 1889,
  "ivity": 1571,
  "hast": 7236,
  "kened": 4884,
  "dro": 1508,
  "go": 207,
  "neck": 1652,
  "wisdom": 4472,
  "acceptance": 7479,
  "k": 48,
  "cra": 1367,
  "livestock": 7754,
  "test": 4833,
  "instills": 7141,
  "mil": 1871,
  "expressive": 3613,
  "`": 37,
  "drunk": 3911,
  "/": 18,
  "armed": 6084,
  "exhaustion": 7124,
  "craw": 7729,
  "daily": 2998,
  "distressed": 3569,
  "ark": 223,
  "commit": 7734,
  "hal": 1320,
  "narrative": 6643,
  "divine": 2955,
  "bag": 3168,
  "canal": 4219,
  "é": 67,
  "constructed": 5232,
  "suspic": 4634,
  "instrument": 2003,
  "faced": 4099,
  "ney": 2187,
  "oval": 4828,
  "sharp": 1223,
  "tasks": 6077,
  "nothingness": 4370,
  "happy": 350,
  "travel": 1880,
  "against": 716,
  "claustrophobic": 5896,
  "snakes": 3486,
  "teacher": 4226,
  "impressionist": 4386,
  "spr": 6739,
  "summertime": 5574,
  "market": 3019,
  "kni": 2567,
  "europe": 3319,
  "congre": 7251,
  "incites": 7725,
  "squigg": 3161,
  "vo": 1722,
  "ades": 5655,
  "orn": 2288,
  "lil": 7570,
  "simpler": 3280,
  "media": 7756,
  "ecut": 3026,
  "unreal": 7609,
  "foggy": 5005,
  "braid": 7874,
  "eager": 4928,
  "outfits": 3332,
  "worshiping": 7791,
  "ences": 7580,
  "hem": 7948,
  "radiating": 6027,
  "sedu": 3375,
  "fell": 4573,
  "task": 4278,
  "arousing": 4188,
  "do": 220,
  "hole": 3472,
  "wat": 309,
  "cam": 4648,
  "verge": 7589,
  "horri": 6757,
  "vag": 2458,
  "phone": 4529,
  "bones": 3850,
  "started": 3893,
  "vous": 2202,
  "mac": 4137,
  "intended": 4755,
  "breeze": 3685,
  "propag": 6524,
  "ligh": 2549,
  "tyle": 6126,
  "sim": 391,
  "antic": 2534,
  "concentr": 5119,
  "stomach": 3710,
  "blade": 6707,
  "cafe": 4850,
  "forgiven": 5279,
  "social": 4251,
  "special": 2095,
  "covered": 1784,
  "unch": 1173,
  "intim": 2024,
  "spin": 6123,
  "cutting": 5835,
  "doodle": 6867,
  "picnic": 2711,
  "themes": 5546,
  "zzy": 2825,
  "shar": 1202,
  "simplistic": 2174,
  "displays": 4002,
  "quir": 4220,
  "fore": 527,
  "energizing": 4913,
  "nowhere": 4499,
  "attend": 6734,
  "wrist": 6937,
  "number": 3590,
  "crossed": 3758,
  "cooked": 6952,
  "happened": 2451,
  "tion": 467,
  "pot": 1925,
  "wrapped": 3806,
  "ted": 603,
  "wagon": 5136,
  "ruffles": 7137,
  "coupled": 3755,
  "liberty": 7127,
  "trying": 621,
  "bact": 6655,
  "wavy": 4105,
  "six": 6737,
  "seems": 249,
  "families": 5222,
  "ust": 212,
  "disappear": 7653,
  "broom": 6446,
  "tenstein": 7377,
  "worried": 2136,
  "blends": 2778,
  "lion": 2238,
  "crouched": 7836,
  "cross": 1109,
  "maintain": 6057,
  "cape": 2062,
  "who": 443,
  "mit": 7539,
  "vines": 5498,
  "cruise": 7713,
  "temp": 5966,
  "ume": 6670,
  "organized": 2542,
  "variety": 2436,
  "symbolizing": 6828,
  "contemplation": 4627,
  "majestic": 1838,
  "flowing": 1879,
  "catches": 5199,
  "tans": 7547,
  "college": 5479,
  "way": 253,
  "inhabit": 5771,
  "indicated": 6181,
  "iti": 3967,
  "peacefully": 2966,
  "blocked": 7676,
  "wooded": 7359,
  "thod": 6268,
  "possibly": 2019,
  "cities": 7186,
  "expressed": 6170,
  "reflecting": 2486,
  "father": 2138,
  "packed": 7897,
  "ns": 1727,
  "relaxation": 3157,
  "rend": 4228,
  "viewed": 4968,
  "intriguing": 1958,
  "saturated": 5342,
  "simple": 522,
  "closer": 3565,
  "lot": 485,
  "notice": 2754,
  "pped": 1265,
  "hustle": 4566,
  "frustrated": 3903,
  "bridge": 1988,
  "rained": 5075,
  "hood": 1556,
  "mytho": 5801,
  "onto": 2098,
  "swaying": 6638,
  "sacrif": 3595,
  "absor": 5791,
  "vision": 2601,
  "newborn": 5081,
  "basket": 3041,
  "anguish": 4315,
  "skinny": 3840,
  "cer": 2496,
  "ops": 7542,
  "emphas": 2865,
  "formed": 2420,
  "enor": 3553,
  "bol": 7267,
  "happily": 3708,
  "blended": 2686,
  "ab": 162,
  "costumes": 5897,
  "friend": 1527,
  "um": 580,
  "material": 3192,
  "condu": 6975,
  "fabrics": 4993,
  "houses": 1851,
  "teach": 6326,
  "unable": 6103,
  "protected": 5865,
  "mental": 3183,
  "confidence": 3135,
  "itions": 4657,
  "each": 627,
  "mans": 1251,
  "cob": 7582,
  "invis": 6348,
  "touch": 2036,
  "site": 4743,
  "muscular": 3537,
  "lush": 2457,
  "insp": 781,
  "states": 6087,
  "quis": 2432,
  "moments": 7256,
  "mixed": 1725,
  "splattered": 4118,
  "worthy": 4597,
  "sume": 3512,
  "tense": 4307,
  "project": 2947,
  "adult": 2963,
  "angel": 546,
  "comput": 5952,
  "intensely": 7736,
  "ests": 5035,
  "wake": 4302,
  "grieving": 4893,
  "extre": 1530,
  "statement": 4055,
  "recogn": 3197,
  "desperation": 6029,
  "alter": 7223,
  "actual": 3335,
  "destru": 3788,
  "warrior": 2086,
  "du": 1291,
  "onward": 7566,
  "qu": 303,
  "carried": 5822,
  "remorse": 7860,
  "vividly": 7718,
  "observe": 4258,
  "‘": 75,
  "fr": 747,
  "lack": 710,
  "redness": 6983,
  "real": 493,
  "unsettled": 5095,
  "ders": 3419,
  "ves": 306,
  "bird": 957,
  "en": 108,
  "unhappy": 1937,
  "ridiculous": 3140,
  "provo": 5963,
  "disciples": 6433,
  "icking": 3863,
  "laz": 5798,
  "dusk": 4131,
  "ld": 170,
  "disdain": 7008,
  "ason": 1258,
  "blossoming": 7805,
  "anytime": 7673,
  "aching": 2816,
  "designed": 4685,
  "fair": 1800,
  "patterns": 1323,
  "ited": 679,
  "ved": 966,
  "appearance": 1954,
  "smoothness": 7422,
  "sailboat": 3800,
  "peac": 3509,
  "rots": 7961,
  "crashing": 3671,
  "rist": 988,
  "person": 358,
  "phe": 5911,
  "ough": 315,
  "fig": 321,
  "shadow": 684,
  "ances": 2989,
  "upper": 2627,
  "junk": 6618,
  "grot": 2879,
  "stone": 2268,
  "focuses": 6564,
  "matt": 6460,
  "cabbage": 7481,
  "rider": 4148,
  "gging": 2120,
  "prayers": 7374,
  "fri": 1105,
  "nic": 1179,
  "ining": 3075,
  "wea": 4856,
  "cess": 1961,
  "slaught": 7140,
  "gazes": 6764,
  "stacks": 6678,
  "followed": 6592,
  "cei": 3402,
  "iable": 6258,
  "ahead": 3167,
  "breastfeeding": 6811,
  "collection": 3648,
  "slowly": 3846,
  "ener": 865,
  "importance": 2735,
  "luxurious": 4922,
  "exception": 4950,
  "kno": 6071,
  "step": 2770,
  "boobs": 5471,
  "pl": 218,
  "ured": 2445,
  "gage": 4524,
  "exquisite": 3358,
  "effect": 1365,
  "covering": 2583,
  "appropri": 3801,
  "ptic": 6073,
  "differences": 6132,
  "font": 7529,
  "schol": 4264,
  "pro": 458,
  "loved": 2379,
  "oddly": 2554,
  "quirky": 4477,
  "deeper": 4843,
  "domin": 2774,
  "apples": 3672,
  "usive": 7988,
  "behind": 766,
  "wless": 7912,
  "egyptian": 7497,
  "turmoil": 5694,
  "aesthetically": 4910,
  "peaks": 4492,
  "twist": 2622,
  "cent": 578,
  "indistinct": 5116,
  "ggly": 7707,
  "etc": 3302,
  "oup": 1248,
  "towel": 5179,
  "purples": 3064,
  "bod": 7266,
  "celebration": 2925,
  "cupid": 4990,
  "darks": 7989,
  "pag": 5153,
  "meaningful": 5995,
  "must": 1046,
  "sees": 3605,
  "laid": 3298,
  "safe": 1785,
  "stab": 3861,
  "fashion": 2494,
  "thrilling": 6527,
  "tou": 1339,
  "whipping": 7831,
  "pulling": 3413,
  "ripped": 6290,
  "lightning": 5670,
  "prison": 3037,
  "thunder": 7209,
  "disease": 6743,
  "ute": 3206,
  "reaching": 2357,
  "deformed": 3465,
  "j": 47,
  "blessed": 4172,
  "rare": 5496,
  "soothing": 1096,
  "mortal": 7808,
  "biblical": 2495,
  "nailed": 6753,
  "–": 73,
  "sideways": 4963,
  "vig": 5635,
  "violet": 6797,
  "remember": 3327,
  "15": 6247,
  "proportions": 2071,
  "las": 7194,
  "controlled": 7774,
  "atures": 1078,
  "res": 187,
  "awed": 4375,
  "vior": 4223,
  "ka": 4742,
  "grasp": 7135,
  "intimate": 4801,
  "keep": 1598,
  "amaze": 4368,
  "orna": 5782,
  "scratch": 4722,
  "presents": 5189,
  "bun": 5125,
  "afternoon": 2511,
  "attract": 1419,
  "narrow": 5630,
  "loss": 2935,
  "erratic": 6652,
  "represented": 3306,
  "wearing": 835,
  "th": 79,
  "buy": 4519,
  "looked": 2180,
  "capture": 1157,
  "apparent": 3478,
  "grandparents": 6803,
  "jud": 2005,
  "stretch": 6024,
  "cur": 904,
  "repetitive": 5469,
  "station": 5779,
  "laven": 6119,
  "rome": 3782,
  "hatred": 7049,
  "robes": 1968,
  "calling": 6587,
  "sur": 617,
  "indifference": 4994,
  "plans": 7078,
  "addition": 3941,
  "frustr": 2332,
  "food": 1327,
  "nuns": 6852,
  "clasped": 6886,
  "issu": 5374,
  "both": 1001,
  "warriors": 4714,
  "simplicity": 1457,
  "free": 1822,
  "separate": 4395,
  "ples": 1793,
  "rob": 6100,
  "location": 3078,
  "solitude": 4467,
  "ready": 978,
  "smiling": 1498,
  "mainly": 4053,
  "pping": 1264,
  "denotes": 7408,
  "eve": 1544,
  "led": 608,
  "figured": 4435,
  "edges": 1853,
  "prostit": 7017,
  "points": 4306,
  "ost": 1439,
  "disg": 902,
  "rolls": 7088,
  "rema": 7918,
  "inviting": 1409,
  "me": 94,
  "attent": 6733,
  "tiv": 2916,
  "photograph": 2257,
  "alo": 7178,
  "overlooking": 3985,
  "lies": 2203,
  "lywood": 6966,
  "ular": 976,
  "farm": 1491,
  "esti": 2060,
  "pe": 126,
  "fla": 1529,
  "equally": 6853,
  "vely": 651,
  "priceless": 7166,
  "lar": 667,
  "muse": 3115,
  "amp": 2241,
  "surface": 3094,
  "excel": 2799,
  "angle": 1645,
  "mom": 2289,
  "inted": 1772,
  "breast": 1618,
  "tragic": 4693,
  "elong": 5126,
  "scre": 2167,
  "written": 3318,
  "advertise": 3767,
  "predomin": 5886,
  "pect": 741,
  "alth": 2707,
  "sac": 2677,
  "sunlight": 2714,
  "sey": 7925,
  "attending": 7645,
  "grit": 7273,
  "tun": 3395,
  "usu": 1560,
  "markings": 6373,
  "cups": 7404,
  "backs": 6729,
  "incred": 1501,
  "despair": 2368,
  "sou": 1707,
  "featured": 6211,
  "figur": 7646,
  "symmetrical": 3757,
  "argu": 4936,
  "morose": 7046,
  "beads": 7940,
  "gin": 1842,
  "multi": 1691,
  "ging": 1574,
  "stream": 2538,
  ").": 2440,
  "hurry": 5715,
  "turn": 2273,
  "seper": 7569,
  "caric": 4969,
  "crayon": 6876,
  "dingy": 6759,
  "jected": 5806,
  "couldn": 5818,
  "few": 1724,
  "striped": 4880,
  "liber": 4026,
  "awkwardly": 6583,
  "nails": 6324,
  "especially": 1034,
  "jour": 2585,
  "energized": 6613,
  "call": 2415,
  "dog": 808,
  "circles": 2527,
  "enance": 7934,
  "infect": 6271,
  "dramatic": 2027,
  "dwarf": 7882,
  "campbell": 7451,
  "peaches": 6606,
  "symboli": 2452,
  "diagonal": 5751,
  "ward": 1193,
  "20": 5485,
  "ende": 7229,
  "fortune": 7810,
  "rust": 2417,
  "nu": 819,
  "whimsy": 4540,
  "fantast": 2784,
  "eyeballs": 7333,
  "album": 5039,
  "constru": 3260,
  "eves": 4191,
  "myth": 4218,
  "draping": 6746,
  "combo": 4860,
  "soldier": 2525,
  "heavenly": 2899,
  "gigg": 4274,
  "countries": 6790,
  "loo": 871,
  "pallet": 3634,
  "show": 429,
  "super": 1864,
  "itting": 5143,
  "everyone": 825,
  "forms": 2466,
  "shades": 1049,
  "lopsided": 6476,
  "broke": 7723,
  "wrap": 6393,
  "authent": 7373,
  "dusty": 6042,
  "wounded": 5736,
  "overcome": 7296,
  "fav": 1812,
  "bloom": 4522,
  "hell": 2265,
  "think": 327,
  "arousal": 7444,
  "invisible": 6654,
  "beg": 5511,
  "years": 2249,
  "satur": 3891,
  "reflected": 3882,
  "authority": 5013,
  "drugs": 6035,
  "civili": 5618,
  "umbre": 2801,
  "strate": 7642,
  "thered": 1700,
  "hop": 3617,
  "dizzy": 5292,
  "all": 194,
  "8": 27,
  "hall": 4340,
  "dynamic": 2544,
  "bapt": 5115,
  "tropical": 3540,
  "aur": 3254,
  "opport": 6823,
  "enthus": 7581,
  "refu": 5639,
  "dragon": 2576,
  "stable": 4490,
  "andy": 4201,
  "dev": 4423,
  "write": 5843,
  "hairy": 7677,
  "music": 1216,
  "ying": 1077,
  "ountain": 586,
  "swe": 1506,
  "slime": 7418,
  "tablet": 6136,
  "opy": 6371,
  "kit": 6456,
  "method": 6275,
  "frightened": 4244,
  "viewing": 2521,
  "maga": 5785,
  "might": 1175,
  "kale": 6457,
  "eu": 3142,
  "scar": 2730,
  "disgust": 906,
  "calms": 5536,
  "bustling": 3589,
  "thie": 7556,
  "shield": 5470,
  "mention": 7639,
  "stop": 2969,
  "precar": 7650,
  "letters": 3447,
  "bucolic": 7018,
  "uneven": 4501,
  "pract": 3062,
  "won": 468,
  "unconcerned": 7611,
  "ferent": 464,
  "problem": 6412,
  "distinct": 2819,
  "unexpected": 4669,
  "eerie": 2319,
  "gestures": 6614,
  "med": 860,
  "wooden": 3097,
  "religion": 2606,
  "entit": 7616,
  "gnar": 7397,
  "multicolored": 7081,
  "ling": 642,
  "wrinkled": 6025,
  "hide": 2863,
  "sting": 3367,
  "accomplish": 6409,
  "river": 1116,
  "disconcer": 6129,
  "weeds": 7276,
  "mine": 3325,
  "ri": 153,
  "drowning": 5110,
  "ding": 535,
  "dom": 3010,
  "eden": 5650,
  "distracting": 4811,
  "planet": 5580,
  "gay": 7531,
  "complet": 2313,
  "ater": 4347,
  "moustache": 6569,
  "brick": 3745,
  "dress": 588,
  "sad": 258,
  "are": 120,
  "expressing": 5942,
  "abstractness": 5066,
  "orating": 7227,
  "ents": 3208,
  "histor": 2001,
  "power": 899,
  "asleep": 4941,
  "plent": 4497,
  "grapes": 3673,
  "lapping": 4431,
  "gloomy": 1089,
  "assist": 6529,
  "early": 2355,
  "blankness": 7733,
  "tte": 4139,
  "commentary": 7634,
  "guests": 7305,
  "painful": 4050,
  "skillfully": 6815,
  "reflective": 4609,
  "ension": 7935,
  "disturbing": 1393,
  "country": 1336,
  "creature": 1636,
  "ladder": 7080,
  "prec": 2615,
  "mountain": 597,
  "mim": 6458,
  "changes": 7603,
  "cane": 7994,
  "newspaper": 3905,
  "ody": 7636,
  "jo": 394,
  "shap": 5668,
  "dove": 4294,
  "fascinated": 5869,
  "agger": 2551,
  "hor": 515,
  "aling": 3080,
  "pulled": 4319,
  "journey": 2876,
  "kissing": 4401,
  "apper": 6346,
  "vegetation": 5103,
  "peaking": 7946,
  "ister": 2329,
  "showcas": 7303,
  "draw": 448,
  "rious": 2630,
  "coura": 5200,
  "shop": 4233,
  "reason": 1422,
  "veh": 7248,
  "feel": 133,
  "thic": 5769,
  "imagination": 2190,
  "su": 217,
  "aly": 5922,
  "joyous": 3749,
  "clear": 803,
  "imperfect": 6710,
  "graveyard": 7174,
  "sculp": 5212,
  "remor": 7212,
  "abused": 7964,
  "places": 3276,
  "bee": 6684,
  "harves": 3134,
  "sul": 4151,
  "disney": 5404,
  "barely": 2900,
  "jfk": 7193,
  "manip": 7944,
  "defined": 2603,
  "charming": 3867,
  "veying": 7601,
  "pill": 3290,
  "mens": 6732,
  "proportion": 2298,
  "marketplace": 7780,
  "distinguished": 4914,
  "ared": 926,
  "rom": 287,
  "obvious": 1829,
  "different": 484,
  "terrain": 7669,
  "foreign": 4044,
  "musical": 2736,
  "??": 4127,
  "ido": 6665,
  "homeless": 4879,
  "forefront": 5816,
  "ision": 3779,
  "orderly": 4388,
  "irl": 618,
  "rein": 4140,
  "stay": 2908,
  "utter": 5276,
  "phallic": 7038,
  "chopped": 7681,
  "page": 2165,
  "revenge": 6940,
  "knight": 2764,
  "mn": 2266,
  "telling": 2481,
  "gazing": 3933,
  "bags": 7114,
  "ive": 406,
  "voy": 5096,
  "embo": 5969,
  "uncanny": 6443,
  "strength": 2720,
  "stressed": 5040,
  "gently": 3635,
  "biting": 6656,
  "—": 74,
  "desperate": 4725,
  "ch": 143,
  "pper": 2143,
  "extra": 3344,
  "blood": 848,
  "ulated": 6736,
  "ishing": 4299,
  "suck": 7626,
  "wheel": 5102,
  "coat": 2101,
  "stand": 461,
  "lazy": 2984,
  "ach": 388,
  "slumped": 5477,
  "bothered": 5662,
  "wi": 144,
  "curios": 1848,
  "dox": 7629,
  "mischievous": 5017,
  "supper": 5195,
  "float": 6542,
  "museum": 3357,
  "costu": 4205,
  "engaged": 2805,
  "stro": 4204,
  "low": 213,
  "tunnel": 4558,
  "lemonade": 7106,
  "mme": 6920,
  "educ": 7586,
  "crawl": 7383,
  "greater": 7317,
  "swa": 6932,
  "illed": 1168,
  "co": 110,
  "ny": 514,
  "around": 532,
  "tried": 3718,
  "disgusted": 2153,
  "baller": 5437,
  "strong": 1004,
  "sear": 5268,
  "ge": 152,
  "anc": 703,
  "bling": 2632,
  "relig": 2369,
  "gmental": 7888,
  "ec": 4570,
  "aura": 3576,
  "ced": 1798,
  "uninterested": 6502,
  "proportioned": 5450,
  "draws": 2093,
  "added": 4618,
  "particular": 1609,
  "defeat": 6209,
  "worry": 2945,
  "collect": 2619,
  "how": 332,
  "necessarily": 7812,
  "events": 5322,
  "ness": 311,
  "bewil": 7234,
  "shows": 639,
  "some": 182,
  "pondering": 6838,
  "become": 3780,
  "blossoms": 5238,
  "gth": 2470,
  "relaxing": 611,
  "height": 3556,
  "considering": 5227,
  "inity": 5916,
  "afar": 7030,
  "que": 687,
  "solut": 1756,
  "pregn": 4095,
  "lux": 4009,
  "vagu": 6015,
  "sharpness": 7065,
  "longer": 3236,
  "colorless": 5043,
  "ssive": 2994,
  "ky": 1831,
  "sage": 5813,
  "traffic": 7354,
  "explicit": 7727,
  "melancholic": 6391,
  "trail": 4376,
  "rosy": 4209,
  "dried": 5024,
  "shadowy": 3238,
  "faceless": 4962,
  "gives": 490,
  "gly": 7530,
  "sandy": 4984,
  "accompl": 3252,
  "desk": 3271,
  "sn": 3503,
  "path": 1710,
  "liqu": 5508,
  "design": 895,
  "diam": 5968,
  "lict": 2726,
  "cigarette": 4563,
  "prints": 4626,
  "ga": 655,
  "robot": 5936,
  "dock": 5170,
  "inquis": 4280,
  "butt": 2856,
  "chair": 1471,
  "bear": 3554,
  "ese": 1272,
  "ifying": 6991,
  "skills": 6575,
  "ni": 4410,
  "obst": 6787,
  "opard": 5855,
  "intric": 1576,
  "wallpaper": 3628,
  "tw": 1844,
  "uncertain": 5166,
  "ami": 7980,
  "anatomy": 3849,
  "gli": 6911,
  "gue": 3362,
  "anti": 6988,
  "za": 5261,
  "theme": 1903,
  "cal": 281,
  "vibrant": 774,
  "attire": 2731,
  "ones": 666,
  "elic": 2660,
  "spaces": 4598,
  "requ": 5772,
  "patience": 6002,
  "lav": 7280,
  "gency": 6385,
  "gyn": 7701,
  "x": 61,
  "neighbor": 3951,
  "achieve": 5743,
  "hides": 7889,
  "balls": 4622,
  "interests": 7297,
  "innocent": 2192,
  "ator": 2306,
  "connect": 2130,
  "wire": 5390,
  "bye": 5957,
  "ilar": 1477,
  "lay": 1060,
  "monstrous": 7323,
  "pleasure": 3932,
  "mult": 5910,
  "anging": 4361,
  "ubs": 3504,
  "releases": 4560,
  "garbage": 5887,
  "hence": 6914,
  "complicated": 4305,
  "imag": 773,
  "charm": 7955,
  "kaleido": 7164,
  "beck": 7584,
  "routine": 6231,
  "gold": 886,
  "blos": 3832,
  "ben": 2160,
  "et": 449,
  "abra": 7963,
  "clo": 346,
  "heavily": 4878,
  "dama": 5250,
  "chas": 5489,
  "pha": 3256,
  "stimul": 2790,
  "paintbrush": 7600,
  "bet": 659,
  "before": 1286,
  "washed": 2924,
  "pples": 4090,
  "conception": 6702,
  "milk": 4711,
  "acles": 6682,
  "sudden": 6305,
  "drab": 2152,
  "amongst": 3720,
  "ises": 4415,
  "peace": 329,
  "bel": 3111,
  "spooky": 3215,
  "snow": 864,
  "petals": 3359,
  "ried": 1518,
  "papers": 5154,
  "soul": 2215,
  "captured": 1919,
  "ated": 536,
  "dimensions": 6582,
  "iest": 5689,
  "splotch": 6740,
  "passengers": 7493,
  "wound": 3200,
  "subject": 509,
  "commerci": 6650,
  "partner": 6528,
  "rowed": 7084,
  "classic": 2489,
  "depiction": 1148,
  "sof": 5632,
  "fl": 1101,
  "pecially": 1022,
  "range": 3697,
  "descri": 3517,
  "browns": 2013,
  "occasion": 5620,
  "haunting": 3593,
  "artists": 2561,
  "adise": 7604,
  "colo": 122,
  "spanish": 7484,
  "concept": 3372,
  "lence": 2396,
  "z": 63,
  "provides": 2676,
  "heav": 883,
  "madonna": 3686,
  "old": 507,
  "gesture": 3791,
  "shot": 3039,
  "ct": 198,
  "plastic": 7628,
  "bliss": 6296,
  "grassy": 5207,
  "youth": 3232,
  "ile": 326,
  "pillow": 4554,
  "ffs": 7698,
  "sail": 1713,
  "ash": 824,
  "exactly": 2084,
  "ake": 7870,
  "scared": 1474,
  "brighten": 7285,
  "anywhere": 5551,
  "shakes": 7987,
  "ments": 1007,
  "bject": 399,
  "contrasting": 1494,
  "contra": 420,
  "wounds": 6605,
  "vagina": 6590,
  "ets": 5025,
  "makeup": 3262,
  "proper": 2446,
  "colours": 1127,
  "alert": 5777,
  "brilliant": 2789,
  "threat": 2108,
  "engaging": 2901,
  "taking": 1061,
  "gia": 3264,
  "encounter": 6487,
  "impending": 4033,
  "entry": 6711,
  "sa": 501,
  "lines": 427,
  "gone": 2497,
  "process": 3380,
  "interestingly": 7013,
  "brings": 879,
  "had": 1082,
  "corpse": 6776,
  "suffering": 2315,
  "dance": 2201,
  "chose": 4525,
  "plump": 5529,
  "ger": 1260,
  "blonde": 6224,
  "create": 1093,
  "rie": 6289,
  "vel": 969,
  "wonderfully": 4382,
  "tling": 1757,
  "fa": 1139,
  "sullen": 5608,
  "mber": 1344,
  "interested": 1375,
  "gaunt": 6535,
  "fantastical": 5882,
  "awest": 7044,
  "victory": 6192,
  "implies": 4703,
  "motiv": 7258,
  "signif": 2995,
  "unding": 5794,
  "ray": 491,
  "idden": 1916,
  "sne": 3698,
  "adv": 1568,
  "attached": 4675,
  "conf": 1235,
  "slide": 5876,
  "pressing": 1374,
  "portrait": 641,
  "couple": 1142,
  "rugged": 5177,
  "tat": 6265,
  "gry": 712,
  "ulate": 6121,
  "moonlight": 4624,
  "offer": 4965,
  "precious": 5451,
  "veget": 2885,
  "demon": 1366,
  "destruction": 4332,
  "'.": 5355,
  "adults": 3868,
  "pubic": 7788,
  "ceremony": 4638,
  "tracks": 4871,
  "ched": 1503,
  "tribe": 7366,
  "teh": 7308,
  "ffy": 2371,
  "rescue": 7142,
  "trouble": 4059,
  "known": 2261,
  "aded": 7958,
  "crows": 6795,
  "sacred": 5008,
  "bis": 6249,
  "ues": 875,
  "stor": 1070,
  "hurts": 5432,
  "elementary": 6352,
  "waist": 5974,
  "horrible": 3093,
  "finally": 4303,
  "women": 488,
  "patterned": 6768,
  "accentu": 4324,
  "now": 378,
  "circ": 2127,
  "vom": 3918,
  "pine": 6926,
  "pitcher": 6612,
  "burden": 6369,
  "scow": 4832,
  "locks": 7921,
  "ice": 339,
  "bre": 700,
  "history": 1976,
  "admiring": 3769,
  "mono": 2293,
  "watches": 4155,
  "dies": 1294,
  "ech": 7527,
  "glim": 4193,
  "vibes": 4297,
  "queen": 2919,
  "extremely": 1771,
  "book": 846,
  "blotches": 4069,
  "mentally": 6725,
  "drag": 5677,
  "blond": 7134,
  "emotions": 1778,
  "ude": 2097,
  "rests": 7345,
  "humor": 2137,
  "characters": 1400,
  "shady": 7278,
  "soldi": 1572,
  "smaller": 3524,
  "library": 7165,
  "ti": 336,
  "pieces": 1456,
  "rena": 3700,
  "alle": 6675,
  "sneaking": 5885,
  "truck": 7743,
  "ominous": 1298,
  "unnaturally": 7260,
  "frolicking": 7759,
  "arre": 2768,
  "bathed": 5225,
  "fond": 4574,
  "wonderful": 1328,
  "sha": 239,
  "reassuring": 6437,
  "thinks": 3984,
  "scenery": 1537,
  "still": 720,
  "torted": 1686,
  "consid": 2829,
  "lemon": 2750,
  "respect": 1750,
  "grape": 7040,
  "hard": 699,
  "thor": 2693,
  "chee": 1794,
  "disconnected": 5539,
  "loun": 4417,
  "dynam": 2504,
  "circle": 1949,
  "mi": 809,
  "missing": 2094,
  "american": 2438,
  "down": 518,
  "umn": 2354,
  "camera": 4640,
  "killing": 3487,
  "rendition": 4561,
  "chris": 7956,
  "fuzzy": 4084,
  "mind": 256,
  "vered": 1642,
  "clarity": 6340,
  "weirdly": 3880,
  "office": 4775,
  "headpiece": 7306,
  "harder": 7054,
  "maze": 4080,
  "<end>": 3,
  "curious": 760,
  "pas": 4145,
  "unset": 1643,
  "contin": 3744,
  "repul": 5373,
  "splashes": 3021,
  "sketch": 1123,
  "monoch": 3046,
  "muscles": 3137,
  "scheme": 1397,
  "rainbow": 1646,
  "jap": 1535,
  "sell": 6137,
  "revel": 5918,
  "ext": 843,
  "zed": 1292,
  "carved": 4872,
  "finely": 7034,
  "symme": 1987,
  "surround": 870,
  "vibr": 724,
  "sailboats": 3680,
  "suggest": 1495,
  "creeped": 7690,
  "normally": 3952,
  "involved": 3847,
  "eag": 6663,
  "medit": 3527,
  "bs": 1470,
  "sumo": 6718,
  "rip": 6496,
  "dark": 245,
  "noticeable": 7773,
  "deci": 3009,
  "reveals": 7411,
  "eas": 2904,
  "african": 5749,
  "mak": 155,
  "changing": 4846,
  "sacrifice": 4329,
  "otic": 2074,
  "right": 244,
  "robed": 5937,
  "table": 530,
  "joke": 3748,
  "complementary": 6781,
  "stick": 1886,
  "accentuates": 6623,
  "strained": 7932,
  "bal": 1150,
  "authentic": 7864,
  "stood": 6330,
  "gal": 5360,
  "mirroring": 7407,
  "bleeding": 3986,
  "toile": 5146,
  "seriousness": 4789,
  "oked": 2810,
  "conventional": 7503,
  "moment": 1277,
  "gif": 4135,
  "empty": 1238,
  "grays": 3717,
  "lend": 4377,
  "riot": 6291,
  "away": 836,
  "relate": 4173,
  "stripes": 2182,
  "deep": 897,
  "covid": 7230,
  "rise": 2648,
  "ast": 693,
  "flood": 5193,
  "reactions": 7562,
  "pops": 2476,
  "tre": 360,
  "swallow": 5120,
  "nt": 161,
  "forming": 4783,
  "host": 4596,
  "conjures": 6879,
  "describe": 5233,
  "curtain": 2821,
  "sisters": 7797,
  "refreshing": 3768,
  "scattered": 3560,
  "same": 1025,
  "hearts": 5089,
  "chairs": 5857,
  "disappointed": 3594,
  "mor": 905,
  "pical": 2178,
  "talented": 4900,
  "ince": 5770,
  "defi": 7952,
  "eds": 3971,
  "worshi": 4296,
  "sheep": 3743,
  "animal": 606,
  "creative": 2755,
  "playing": 933,
  "awe": 545,
  "pis": 6462,
  "sorrow": 2688,
  "gorgeous": 1486,
  "mob": 5164,
  "everywhere": 2671,
  "tier": 6738,
  "outcome": 7263,
  "beams": 5926,
  "bit": 596,
  "wholes": 7663,
  "ral": 997,
  "tire": 5671,
  "pay": 3924,
  "response": 6416,
  "swal": 4831,
  "money": 2705,
  "sle": 1338,
  "fu": 136,
  "ths": 5263,
  "cart": 5905,
  "pinks": 3130,
  "ornate": 2953,
  "manner": 2961,
  "ret": 7560,
  "ency": 6948,
  "aunt": 5311,
  "prepare": 5589,
  "across": 1632,
  "load": 3823,
  "confusing": 1015,
  "olive": 6461,
  "bount": 5626,
  "main": 1627,
  "grab": 3275,
  "enemy": 5484,
  "marvelous": 7066,
  "juxtaposition": 3684,
  "drooping": 6001,
  "harbor": 2972,
  "batt": 1108,
  "tram": 7353,
  "seen": 1224,
  "com": 240,
  "icon": 6690,
  "lead": 1303,
  "ore": 7541,
  "exer": 6297,
  "richly": 7064,
  "static": 4697,
  "uring": 1448,
  "landscapes": 5895,
  "representing": 3881,
  "hol": 2477,
  "lur": 3324,
  "turtle": 5982,
  "modes": 7254,
  "better": 1809,
  "suits": 6304,
  "mill": 2587,
  "bab": 495,
  "opin": 2783,
  "dd": 1678,
  "tig": 2811,
  "waterway": 7009,
  "container": 6593,
  "furniture": 4736,
  "bat": 6444,
  "ree": 830,
  "seat": 6277,
  "ye": 6471,
  "musicians": 7122,
  "royal": 1604,
  "pitch": 3696,
  "stylized": 4227,
  "intricately": 6809,
  "ק": 71,
  "saying": 2716,
  "hovering": 4954,
  "emotion": 778,
  "ap": 257,
  "ously": 6719,
  "cause": 247,
  "unaware": 6706,
  "panel": 4246,
  "tie": 4579,
  "personality": 3746,
  "countryside": 2284,
  "ading": 2828,
  "marching": 5087,
  "judged": 5445,
  "sty": 544,
  "mus": 1033,
  "action": 1273,
  "engine": 6175,
  "mood": 1599,
  "airy": 5986,
  "cover": 1440,
  "bay": 4737,
  "thousands": 6648,
  "unease": 4502,
  "erect": 7643,
  "roo": 3084,
  "read": 970,
  "industrial": 4559,
  "five": 4483,
  "bust": 2216,
  "blooming": 3993,
  "luscious": 6829,
  "include": 7760,
  "liness": 3564,
  "defe": 3177,
  "racing": 6930,
  "laughing": 2843,
  "brownish": 6342,
  "(": 11,
  "moody": 5216,
  "masterful": 7105,
  "scenic": 5055,
  "portrayed": 1957,
  "significant": 4631,
  "drew": 2866,
  "neutral": 1519,
  "bound": 4926,
  "illumin": 3376,
  "cum": 5183,
  "quely": 7644,
  "presuma": 7123,
  "powers": 7344,
  "asking": 3972,
  "ris": 2661,
  "lone": 1176,
  "yellow": 431,
  "halloween": 5480,
  "ment": 261,
  "festival": 4006,
  "fined": 4231,
  "knowing": 2578,
  "sophistic": 4920,
  "hiking": 5979,
  "zes": 2117,
  "breaks": 6766,
  "prot": 1689,
  "dejected": 7247,
  "ror": 1368,
  "presentation": 5071,
  "build": 602,
  "gaze": 2055,
  "bite": 5488,
  "den": 1962,
  "pronounced": 6534,
  "them": 470,
  "stimulate": 6597,
  "ages": 2596,
  "english": 6901,
  "unpleasant": 2939,
  "reaction": 3077,
  "gravey": 7041,
  "positive": 2507,
  "collar": 3889,
  "tempt": 6604,
  "townspeople": 7462,
  "writing": 2048,
  "arian": 7572,
  "iced": 3702,
  "touched": 5851,
  "was": 413,
  "viewer": 1209,
  "getting": 1162,
  "held": 2655,
  "conqu": 5656,
  "dood": 4429,
  "contents": 5678,
  "ens": 3173,
  "irt": 1460,
  "chan": 5389,
  "prosp": 6523,
  "cab": 2791,
  "cigare": 4331,
  "yr": 7551,
  "lifestyle": 6431,
  "condition": 7772,
  "farmers": 6174,
  "happening": 1174,
  "shaded": 4229,
  "giraffe": 7281,
  "ow": 137,
  "lends": 4694,
  "log": 4416,
  "whil": 5042,
  "angles": 1403,
  "chalk": 7153,
  "pollution": 6040,
  "+": 14,
  "rum": 6750,
  "fireworks": 5993,
  "advantage": 7169,
  ".\"": 3110,
  "document": 7159,
  "indicate": 2996,
  "groups": 6046,
  "silk": 6800,
  "beha": 6282,
  "forboding": 6708,
  "sp": 340,
  "childs": 5175,
  "sleep": 1528,
  "platter": 4854,
  "eagle": 7167,
  "misshapen": 4980,
  "adam": 2982,
  "polluted": 5466,
  "cream": 2732,
  "cartoons": 7378,
  "satisf": 2347,
  "possessed": 5339,
  "aver": 5356,
  "engul": 5717,
  "enjoys": 4869,
  "patriotic": 5892,
  "lying": 1211,
  "ram": 4146,
  "less": 856,
  "wait": 3793,
  "returning": 5503,
  "intellectual": 7851,
  "ening": 715,
  "alized": 5303,
  "arri": 3923,
  "trash": 4779,
  "suff": 2063,
  "suit": 2242,
  "hue": 3692,
  "found": 2114,
  "kill": 1721,
  "mug": 6748,
  "pace": 7896,
  "modern": 1414,
  "acting": 3266,
  "overwhelmed": 3490,
  "ities": 1823,
  "news": 2467,
  "hidden": 1998,
  "john": 5286,
  "cubism": 5453,
  "cub": 2837,
  "ions": 869,
  "bursting": 7071,
  "lowing": 1363,
  "thrown": 2733,
  "lakes": 6514,
  "watched": 4674,
  "ideas": 3885,
  "assuming": 5931,
  "scrat": 3032,
  "smell": 2399,
  "dreaming": 4983,
  "confusion": 1090,
  "bing": 1144,
  "zoo": 5262,
  "there": 235,
  "skyline": 5541,
  "dreams": 4000,
  "splotches": 2917,
  "dande": 7526,
  "travelers": 6183,
  "discern": 4221,
  "inspiration": 3995,
  "world": 842,
  "therefore": 4217,
  "plates": 5948,
  "girls": 1685,
  "zing": 585,
  "oke": 1513,
  "messy": 2106,
  "significance": 3727,
  "is": 84,
  "attractive": 1564,
  "libr": 6483,
  "sleeping": 2155,
  "jelly": 6439,
  "assortment": 5893,
  "ingu": 3549,
  "very": 149,
  "meets": 5003,
  "phen": 6769,
  "change": 2937,
  "reflect": 872,
  "their": 376,
  "opposite": 5097,
  "prince": 5824,
  "famili": 2426,
  "thre": 1884,
  "embarr": 5016,
  "liar": 6482,
  "boldness": 5837,
  "fo": 331,
  "luxu": 4729,
  "revol": 4488,
  "rug": 4100,
  "typical": 2986,
  "teenager": 7461,
  "challen": 5159,
  "tent": 4277,
  "amidst": 5890,
  "boat": 652,
  "welcome": 6816,
  "19th": 7755,
  "apathetic": 7181,
  "case": 2915,
  "terrifying": 2479,
  "sequ": 7568,
  "ory": 4283,
  "trans": 4112,
  "centered": 5069,
  "lost": 1232,
  "pillows": 6419,
  "wishes": 7737,
  "movements": 6550,
  "ferences": 5098,
  "desc": 4365,
  "ilor": 4022,
  "tornado": 5454,
  "clean": 1433,
  "sco": 3547,
  "elephants": 7785,
  "vul": 2906,
  "substance": 4700,
  "springtime": 4796,
  "glit": 7887,
  "turquoise": 7502,
  "anim": 3966,
  "gance": 4650,
  "smir": 3185,
  "edu": 6691,
  "destroyed": 4637,
  "cany": 5958,
  "moder": 1378,
  "weekend": 7467,
  "smiles": 4158,
  "...": 1163,
  "shines": 4541,
  "locked": 6080,
  "mes": 1435,
  "season": 3258,
  "enem": 6679,
  "pull": 3546,
  "bean": 5382,
  "idea": 1526,
  "leaving": 3065,
  "hear": 2230,
  "tur": 815,
  "leaders": 5997,
  "bottle": 3015,
  "intimid": 2568,
  "topless": 5506,
  "pump": 5132,
  "part": 537,
  "hold": 569,
  "humanoid": 5827,
  "metic": 7923,
  "store": 4102,
  "performan": 6520,
  "windy": 4785,
  "busy": 1062,
  "bouquet": 3811,
  "apocalyptic": 7838,
  "pop": 1178,
  "softer": 6883,
  "cold": 1032,
  "abyss": 6649,
  "ashing": 2734,
  "urous": 5663,
  "bris": 7640,
  "rectangles": 3530,
  "people": 231,
  "kite": 7891,
  "mosa": 3975,
  "yearning": 6572,
  "illustration": 3106,
  "dumb": 7525,
  "allic": 6946,
  "blance": 7976,
  "iose": 6259,
  "inner": 4024,
  "sion": 689,
  "repe": 3857,
  "ately": 1804,
  "snu": 6934,
  "saw": 2433,
  "analy": 7211,
  "anges": 1872,
  "grandeur": 5318,
  "fabulous": 7747,
  "clever": 4442,
  "swo": 6931,
  "loves": 4200,
  "chun": 6967,
  "richness": 6365,
  "scope": 4266,
  "tad": 7202,
  "pouring": 5133,
  "bubble": 5235,
  "shapen": 4766,
  "sound": 3199,
  "hues": 2188,
  "owners": 7996,
  "provokes": 7111,
  "mr": 7195,
  "smo": 1311,
  "ette": 1674,
  "beak": 6955,
  "panic": 6179,
  "shi": 775,
  "cute": 1352,
  "listen": 4806,
  "enemies": 6900,
  "know": 497,
  "por": 2905,
  "outlined": 7264,
  "crash": 4874,
  "and": 87,
  "hyp": 6830,
  "eness": 2442,
  "entious": 6506,
  "behold": 4838,
  "outstretched": 7265,
  "haphazard": 3954,
  "kne": 1875,
  "pix": 5578,
  "grows": 7406,
  "enjoy": 547,
  "arches": 5776,
  "husband": 2851,
  "speaks": 3675,
  "waterfall": 4037,
  "allowing": 7574,
  "through": 615,
  "vas": 1155,
  "emb": 4164,
  "tables": 6936,
  "run": 1133,
  "lamp": 5251,
  "gments": 6912,
  "freezing": 6381,
  "mou": 1550,
  "peek": 7433,
  "surroundings": 2820,
  "placid": 4892,
  "long": 505,
  "mustache": 3345,
  "related": 4385,
  "bur": 1371,
  "onlookers": 5117,
  "shovel": 6157,
  "humans": 2283,
  "tech": 1633,
  "objects": 1153,
  "fearsome": 5686,
  "oo": 3695,
  "panting": 7544,
  "melt": 5994,
  "entertainment": 6190,
  "smoke": 1901,
  "note": 3979,
  "atmo": 2075,
  "ula": 7907,
  "cket": 4825,
  "ending": 1792,
  "crit": 7329,
  "pretentious": 6531,
  "sem": 1355,
  "pots": 6992,
  "inspired": 2211,
  "disoriented": 7464,
  "don": 379,
  "inspire": 3066,
  "enment": 7579,
  "disinterested": 6128,
  "board": 2010,
  "tage": 3373,
  "yet": 889,
  "ined": 1698,
  "seeing": 890,
  "slavery": 6014,
  "sadly": 6996,
  "vers": 1709,
  "li": 97,
  "”": 78,
  "understood": 7835,
  "tra": 963,
  "concer": 5792,
  "ay": 166,
  "shading": 1333,
  "lining": 3787,
  "crystal": 5739,
  "vio": 1254,
  "rigid": 5520,
  "separated": 5881,
  "eliness": 2728,
  "hypnot": 7170,
  "alization": 6778,
  "aking": 1942,
  "scold": 7902,
  "solemn": 2386,
  "flame": 6568,
  "crude": 4616,
  "row": 1787,
  "willing": 5830,
  "logy": 4141,
  "norm": 3799,
  "listening": 3804,
  "crus": 6341,
  "skill": 1789,
  ":": 29,
  "embracing": 3762,
  "monument": 7154,
  "code": 7939,
  "adding": 5392,
  "language": 2302,
  "forbidden": 7977,
  "starkness": 5583,
  "dau": 2624,
  "grew": 5402,
  "blush": 5796,
  "princ": 4443,
  "below": 1602,
  "questioning": 6836,
  "energi": 3715,
  "dif": 446,
  "obli": 6786,
  "steal": 6355,
  "ert": 1952,
  "ey": 345,
  "optimistic": 7477,
  "stru": 755,
  "spirit": 1753,
  "be": 113,
  "gs": 1343,
  "amazed": 2434,
  "clutching": 4902,
  "study": 2640,
  "bony": 6657,
  "useless": 6505,
  "ists": 4509,
  "n": 51,
  "comes": 1745,
  "tow": 541,
  "cre": 352,
  "lau": 1069,
  "curiousity": 5074,
  "thinking": 1313,
  "injured": 4014,
  "catho": 4592,
  "pon": 2932,
  "tery": 4677,
  "genuine": 7155,
  "leep": 4937,
  "togetherness": 7019,
  "intertw": 5080,
  "express": 3231,
  "tough": 5711,
  "magical": 2910,
  "holds": 2346,
  "eery": 6451,
  "bending": 4273,
  "overwhel": 2018,
  "bri": 5487,
  "orange": 668,
  "sinking": 6628,
  "tim": 1081,
  "noah": 7969,
  "distinctive": 6400,
  "sagging": 7478,
  "assed": 5156,
  "skirts": 6517,
  "glasses": 3314,
  "hurting": 4982,
  "raffe": 7249,
  "none": 3657,
  "randomness": 5429,
  "ride": 2419,
  "optim": 5320,
  "centaur": 6530,
  "shadowed": 4970,
  "icing": 3204,
  "plane": 3579,
  "date": 4130,
  "futur": 4844,
  "gence": 6664,
  "overhead": 4096,
  "zz": 1509,
  "au": 1227,
  "obes": 6263,
  "bled": 1944,
  "curls": 6543,
  "erie": 2164,
  "ambi": 7981,
  "multitude": 6887,
  "glo": 1981,
  "privacy": 7868,
  "fail": 6361,
  "ethere": 4572,
  "filling": 5728,
  "athe": 5486,
  "sort": 911,
  "dict": 7187,
  "hour": 3599,
  "needing": 7052,
  "cand": 2041,
  "feeding": 3609,
  "itated": 5144,
  "camping": 7820,
  "wre": 3964,
  "eachother": 6441,
  "interpret": 2700,
  "influence": 7471,
  "na": 465,
  "passen": 6220,
  "regardless": 7453,
  "pages": 7591,
  "short": 2667,
  "cast": 1199,
  "winding": 6147,
  "individual": 1662,
  "mal": 1481,
  "army": 4027,
  "peice": 5385,
  "jes": 601,
  "opulent": 7846,
  "silhouette": 4187,
  "matched": 5988,
  "approach": 5327,
  "together": 498,
  "worked": 4514,
  "drinking": 2950,
  "aware": 3998,
  "fool": 7647,
  "situation": 2200,
  "formal": 3994,
  "gau": 7031,
  "pil": 3116,
  "fam": 776,
  "conne": 1888,
  "am": 186,
  "1": 20,
  "lla": 3502,
  "0": 19,
  "personalities": 6038,
  "funny": 614,
  "captures": 2221,
  "mark": 1597,
  "running": 1769,
  "decor": 2150,
  "mouth": 1630,
  "vid": 744,
  "school": 1894,
  "mel": 1284,
  "amuse": 1650,
  "bla": 5940,
  "slave": 4999,
  "rooster": 5229,
  "greenish": 7301,
  "itar": 1924,
  "clas": 5823,
  "skulls": 6004,
  "coastal": 7445,
  "deeply": 3445,
  "everyday": 2280,
  "emerging": 6619,
  "fk": 6910,
  "whis": 6096,
  "winds": 7687,
  "animals": 804,
  "dish": 3156,
  "impression": 1566,
  "nel": 3958,
  "ley": 2324,
  "mirrors": 6186,
  "neglect": 7096,
  "thank": 5829,
  "desper": 3234,
  "leopard": 5924,
  "carnival": 4269,
  "ital": 3120,
  "image": 347,
  "ie": 246,
  "vertical": 2975,
  "inj": 3699,
  "stretching": 6205,
  "sti": 7225,
  "severed": 5646,
  "aw": 896,
  "macab": 6862,
  "blackness": 4958,
  "wealthy": 2888,
  "shiny": 3678,
  ".)": 6904,
  "stories": 2988,
  "waving": 5821,
  "growth": 6007,
  "antly": 5169,
  "likeness": 5510,
  "faint": 3407,
  "graffiti": 4641,
  "crucifixion": 2704,
  "ally": 243,
  "anxiety": 2620,
  "dull": 1076,
  "os": 1424,
  "layer": 6164,
  "lik": 7927,
  "alous": 6907,
  "soft": 764,
  "peci": 820,
  "dressing": 5820,
  "blurred": 3218,
  "downt": 6229,
  "eac": 6066,
  "bores": 5050,
  "capable": 6508,
  "inten": 1402,
  "blooms": 7817,
  "thern": 6712,
  "geous": 1418,
  "greens": 1487,
  "bother": 3468,
  "tro": 2321,
  "outstanding": 7612,
  "hi": 694,
  "belief": 5217,
  "died": 2189,
  "angst": 7286,
  "ron": 5256,
  "leaf": 4029,
  "techno": 5719,
  "ppers": 7620,
  "gical": 2498,
  "aston": 5978,
  "draped": 4960,
  "intricate": 1782,
  "time": 457,
  "warming": 3626,
  "meditative": 5604,
  "peoples": 3980,
  "drif": 6251,
  "90": 7176,
  "expansive": 6417,
  "severe": 4418,
  "hu": 483,
  "tries": 4170,
  "dismal": 4771,
  "ality": 1306,
  "cence": 3222,
  "feels": 480,
  "advice": 7393,
  "alien": 2295,
  "red": 193,
  "arent": 1909,
  "solit": 3082,
  "neigh": 3786,
  "bull": 2175,
  "reading": 1451,
  "engag": 1912,
  "numerous": 6013,
  "uted": 4845,
  "creepy": 841,
  "leisure": 4819,
  "eria": 7216,
  "size": 1705,
  "spear": 4453,
  "cathedral": 4924,
  "concentration": 7825,
  "rats": 7413,
  "sticks": 4115,
  "marker": 7394,
  "occur": 4249,
  "threatening": 2492,
  "tood": 6941,
  "jungle": 5607,
  "itary": 2812,
  "intersting": 7342,
  "wind": 739,
  "violin": 2657,
  "fantasy": 3138,
  "commer": 6117,
  "dapper": 6909,
  "ate": 343,
  "pers": 334,
  "ime": 6455,
  "impossible": 5525,
  "eman": 5359,
  "generic": 5324,
  "loyal": 7150,
  "sal": 3292,
  "unfortun": 5939,
  "dent": 6660,
  "arrogant": 3910,
  "relea": 7561,
  "your": 1182,
  "smud": 3338,
  "lights": 1561,
  "appearing": 3515,
  "totally": 2569,
  "differently": 7309,
  "swirls": 3587,
  "consume": 7968,
  "meaningless": 5850,
  "blueprint": 7997,
  "joy": 460,
  "vie": 534,
  "compar": 3884,
  "sails": 4709,
  "d": 41,
  "despondent": 5348,
  "driving": 5721,
  "burn": 5713,
  "flows": 5808,
  "lea": 770,
  "weight": 2558,
  "abandoned": 2824,
  "grim": 2846,
  "home": 898,
  "napkin": 7430,
  "pressive": 1205,
  "familiar": 2954,
  "elements": 1849,
  "inter": 833,
  "highlights": 2839,
  "stressful": 6407,
  "disgusts": 4234,
  "lia": 7221,
  "remind": 268,
  "showing": 1246,
  "isn": 1388,
  "bygone": 6730,
  "wanna": 6054,
  "facial": 754,
  "energy": 1382,
  "sized": 4767,
  "flattering": 6644,
  "disco": 6316,
  "twisted": 3048,
  "kid": 1107,
  "jazz": 5603,
  "provid": 2310,
  "technical": 7403,
  "ont": 1043,
  "toward": 2244,
  "beat": 2771,
  "fee": 2772,
  "represent": 832,
  "local": 4837,
  "archy": 7381,
  "limbs": 4542,
  "instru": 1551,
  "product": 5730,
  "girl": 624,
  "tragedy": 5123,
  "urally": 4034,
  "grey": 1161,
  "castle": 1867,
  "ied": 1720,
  "igno": 6303,
  "peas": 5044,
  "half": 1438,
  "definition": 3942,
  "lish": 5028,
  "youthful": 7438,
  "mermaid": 5423,
  "chimney": 6238,
  "somebody": 2798,
  "aristocr": 5354,
  "oun": 192,
  "hones": 2880,
  "notes": 3929,
  "complex": 2428,
  "cartoon": 1268,
  "descending": 5613,
  "hip": 5692,
  "toddler": 4564,
  "sar": 6465,
  "samurai": 3251,
  "orch": 6088,
  "nightmares": 6608,
  "nudity": 2409,
  "mass": 3175,
  "beli": 1614,
  "alive": 1857,
  "glass": 1450,
  "climb": 4905,
  "wondering": 1910,
  "jar": 3323,
  "pointy": 6162,
  "arrogance": 7442,
  "day": 383,
  "pes": 389,
  "finding": 5191,
  "company": 2840,
  "equal": 5740,
  "servant": 5006,
  "igh": 2472,
  "perhaps": 1427,
  "sol": 1610,
  "forman": 6504,
  "rat": 2141,
  "joyful": 2835,
  "deter": 2395,
  "vibrate": 6343,
  "upward": 4362,
  "eng": 1515,
  "resur": 6982,
  "mash": 5383,
  "best": 2336,
  "waves": 1341,
  "night": 858,
  "dic": 7878,
  "creeps": 4444,
  "t": 57,
  "breathtaking": 3164,
  "bark": 6062,
  "sug": 813,
  "ception": 2952,
  "mm": 6919,
  "ceive": 6714,
  "religous": 7762,
  "plum": 6511,
  "race": 4075,
  "skelet": 2439,
  "center": 1052,
  "izing": 2881,
  "daughter": 2957,
  "assy": 5817,
  "unsure": 2611,
  "couch": 5306,
  "wilderness": 5616,
  "gather": 1549,
  "valent": 6799,
  "ponder": 6837,
  "hug": 5683,
  "intricacy": 6810,
  "mischie": 4169,
  "contains": 4394,
  "ep": 412,
  "cleaned": 7072,
  "ician": 7235,
  "pol": 3152,
  "overall": 1370,
  "popping": 4510,
  "emphasis": 6021,
  "blouse": 5970,
  "ans": 2015,
  "lean": 2474,
  "statue": 1620,
  "sk": 305,
  "verse": 3370,
  "umpy": 6394,
  "watercolor": 3516,
  "ledge": 3304,
  "jail": 7790,
  "intrigu": 1143,
  "place": 550,
  "ference": 2740,
  "ist": 226,
  "lose": 4933,
  "wander": 6859,
  "underne": 3443,
  "reminded": 3514,
  "halluc": 6625,
  "apocaly": 5750,
  "death": 881,
  "kes": 1125,
  "cloth": 2017,
  "faded": 2739,
  "serv": 2599,
  "major": 4938,
  "choice": 1739,
  "mexi": 7924,
  "poor": 1449,
  "turning": 3189,
  "aristo": 5269,
  "entertaining": 2951,
  "manger": 7243,
  "ashed": 6771,
  "ane": 2548,
  "whiteness": 5752,
  "perfection": 6552,
  "evil": 1245,
  "raising": 4424,
  "idy": 3616,
  "causes": 2573,
  "chal": 5653,
  "hn": 5127,
  "rounded": 4971,
  "istic": 636,
  "brutal": 6045,
  "pleased": 2572,
  "indicative": 7740,
  "morbid": 5563,
  "stage": 3607,
  "cottage": 5011,
  "prai": 7899,
  "obser": 2842,
  "stein": 6161,
  "repose": 7919,
  "executed": 4259,
  "tree": 802,
  "take": 851,
  "excellent": 2903,
  "minutes": 5695,
  "sickly": 3842,
  "pomp": 4216,
  "freed": 3412,
  "scream": 6822,
  "ofy": 3922,
  "gar": 1908,
  "decoration": 7753,
  "king": 369,
  "puzzle": 2643,
  "sil": 1276,
  "dign": 3851,
  "resurrect": 7173,
  "guys": 2482,
  "natural": 1158,
  "thous": 5915,
  "thorns": 6019,
  "mechan": 6479,
  "walking": 1255,
  "ounce": 5052,
  "persons": 3036,
  "lawn": 7635,
  "brush": 948,
  "pattern": 767,
  "meaning": 1287,
  "beside": 3133,
  "doing": 876,
  "tall": 1539,
  "furious": 6963,
  "golden": 1648,
  "resting": 2427,
  "intimidating": 2788,
  "fied": 2353,
  "ernal": 5067,
  "cherub": 3316,
  "ok": 101,
  "reco": 3076,
  "cy": 2360,
  "trunks": 6420,
  "aust": 5903,
  "blan": 2681,
  "orting": 7226,
  "horns": 4866,
  "can": 293,
  "football": 7091,
  "casts": 6364,
  "artic": 6986,
  "overweight": 4515,
  "turqu": 6770,
  "fleeing": 7829,
  "lete": 5781,
  "lonely": 1103,
  "romantic": 2385,
  "noise": 6976,
  "subdu": 3313,
  "ald": 6085,
  "storms": 7362,
  "holy": 1607,
  "intelli": 4265,
  "con": 165,
  "answer": 6044,
  "harmon": 3450,
  "alia": 7350,
  "appo": 2553,
  "warf": 6151,
  "inogen": 7811,
  "peri": 1266,
  "passes": 6176,
  "raised": 3704,
  "bluish": 6430,
  "80": 4821,
  "tions": 4440,
  "randomly": 5568,
  "stack": 5149,
  "unorganized": 6295,
  "branches": 2689,
  "blind": 3401,
  "wrinkles": 4260,
  "horse": 818,
  "depend": 7360,
  "ugly": 1485,
  "ship": 1102,
  "patches": 4894,
  "mixing": 6551,
  "wonders": 5545,
  "rad": 2723,
  "weird": 810,
  "abund": 4288,
  "sparkling": 7126,
  "caring": 3198,
  "airplane": 6155,
  "wet": 3374,
  "jewels": 7441,
  "advan": 6808,
  "remain": 6673,
  "representation": 2485,
  "horror": 2836,
  "camel": 6507,
  "purpose": 2435,
  "bul": 3073,
  "garden": 1431,
  "mouse": 5252,
  "eless": 1755,
  "orthodox": 7866,
  "card": 2455,
  "march": 7720,
  "hael": 7237,
  "(?)": 5023,
  "smudged": 6031,
  "tar": 3855,
  "dep": 1042,
  "psided": 6333,
  "doctor": 5398,
  "here": 477,
  "tainty": 4505,
  "blurry": 2028,
  "conce": 6292,
  "presumably": 7509,
  "hus": 2763,
  "detail": 319,
  "machinery": 7763,
  "regard": 4198,
  "tangled": 6267,
  "calmness": 2064,
  "ith": 3169,
  "grainy": 5458,
  "golds": 7042,
  "lava": 5401,
  "mostly": 1985,
  "cus": 1031,
  "infinite": 7488,
  "actually": 1712,
  "fruit": 1079,
  "ergart": 6273,
  "scribbles": 3388,
  "contour": 4498,
  "ip": 2058,
  "aster": 5297,
  "text": 3257,
  "hours": 4267,
  "cond": 2752,
  "pti": 5912,
  "oft": 729,
  "ensive": 5647,
  "open": 1147,
  "turned": 2333,
  "forgiveness": 5619,
  "edge": 2394,
  "pengu": 7330,
  "ug": 1192,
  "fanc": 6253,
  "resem": 1425,
  "working": 1304,
  "effective": 5852,
  "gall": 4575,
  "eper": 4406,
  "mini": 5417,
  "mson": 6793,
  "onment": 2089,
  "tha": 7555,
  "hou": 3421,
  "toned": 5591,
  "hockey": 6724,
  "century": 3713,
  "arts": 4763,
  "specific": 3195,
  "western": 5121,
  "textured": 4109,
  "placing": 7075,
  "wag": 7549,
  "desolate": 2807,
  "dead": 964,
  "amazing": 698,
  "fisherman": 5611,
  "tip": 7002,
  "rying": 531,
  "ened": 2708,
  "appe": 290,
  "fantastic": 3317,
  "unnerving": 4818,
  "respectful": 4988,
  "kinds": 5181,
  "flaming": 6554,
  "toilet": 5249,
  "lust": 5364,
  "combinations": 5854,
  "mesh": 4619,
  "grat": 6302,
  "ations": 1746,
  "mery": 6921,
  "a": 38,
  "move": 1000,
  "diff": 1873,
  "hilarious": 2387,
  "guard": 4160,
  "expensive": 5524,
  "expression": 363,
  "shy": 5526,
  "children": 924,
  "four": 3287,
  "confetti": 6703,
  "sin": 713,
  "cluster": 6627,
  "active": 3153,
  "group": 1384,
  "worris": 6120,
  "strike": 4108,
  "spots": 2758,
  "ettes": 7014,
  "cle": 555,
  "cheese": 4530,
  "discomfort": 5674,
  "ask": 3150,
  "imagine": 1319,
  "projects": 6840,
  "greek": 3761,
  "achieved": 7450,
  "macabre": 7171,
  "cowering": 6567,
  "she": 236,
  "destroy": 3723,
  "tents": 6266,
  "toys": 4726,
  "sold": 1524,
  "wilting": 7129,
  "ceiling": 3469,
  "mountainside": 7324,
  "ques": 2461,
  "defin": 1406,
  "sunken": 7672,
  "whole": 1274,
  "nauseating": 6869,
  "leap": 6485,
  "excitement": 1016,
  "bug": 5288,
  "hills": 1858,
  "style": 598,
  "muddled": 5809,
  "lonesome": 7300,
  "mour": 2073,
  "marvel": 6796,
  "ha": 117,
  "sor": 1832,
  "consider": 3766,
  "repet": 4078,
  "classical": 3940,
  "spe": 1207,
  "in": 80,
  "possibilities": 4795,
  "der": 283,
  "eving": 4364,
  "summer": 1324,
  "cleaning": 6370,
  "oper": 5131,
  "pled": 4757,
  "passage": 6415,
  "dem": 4943,
  "puffy": 4451,
  "ther": 191,
  "cube": 5971,
  "content": 381,
  "desire": 4772,
  "doodles": 7813,
  "mocking": 7257,
  "meanings": 6149,
  "vomit": 4728,
  "word": 1442,
  "off": 492,
  "depth": 1416,
  "mag": 6956,
  "envision": 6089,
  "cha": 847,
  "ables": 3705,
  "thoughts": 2448,
  "many": 623,
  "paper": 1152,
  "4": 23,
  "prey": 4438,
  "fake": 4614,
  "art": 205,
  "g": 44,
  "upwards": 7000,
  "ustr": 1548,
  "stabbing": 7125,
  "guessing": 5727,
  "navy": 5810,
  "wrong": 2296,
  "crying": 2792,
  "melancho": 2384,
  "zen": 3506,
  "oversized": 6315,
  "stealing": 6357,
  "flatt": 5701,
  "accept": 5380,
  "strand": 6727,
  "bran": 2218,
  "compared": 2105,
  "excited": 759,
  "feat": 6093,
  "donkey": 4038,
  "shocked": 5194,
  "mickey": 7779,
  "needs": 1761,
  "received": 6858,
  "dry": 3285,
  "colouring": 7694,
  "grayish": 7708,
  "example": 4121,
  "motif": 6427,
  "frank": 7688,
  "roll": 1967,
  "cry": 3418,
  "bo": 183,
  "lurking": 3909,
  "procession": 7118,
  "delicious": 3351,
  "oppressive": 5889,
  "er": 88,
  "boats": 1171,
  "sive": 1790,
  "marble": 5208,
  "arity": 5775,
  "ritual": 3721,
  "din": 1595,
  "rose": 3230,
  "techni": 6182,
  "arch": 1283,
  "arous": 3550,
  "chatting": 6884,
  "needed": 4534,
  "afric": 4782,
  "costume": 4335,
  "contemp": 5667,
  "bum": 3877,
  "loneliness": 2756,
  "accep": 4584,
  "ordinary": 2742,
  "strict": 6516,
  "section": 3969,
  "whether": 3906,
  "softness": 3131,
  "scribbling": 6824,
  "oise": 6924,
  "gree": 2269,
  "clothe": 986,
  "cherubic": 7440,
  "sed": 285,
  "variations": 5228,
  "workers": 3987,
  "body": 543,
  "aky": 4446,
  "althy": 1973,
  "evening": 2757,
  "strang": 3438,
  "raw": 4032,
  "kingdom": 5540,
  "charge": 4876,
  "tock": 7567,
  "claustropho": 5352,
  "escape": 3005,
  "meadow": 4645,
  "splatt": 2297,
  "ת": 72,
  "fade": 5569,
  "rub": 3520,
  "gathered": 2126,
  "dirt": 3456,
  "num": 2237,
  "mustard": 5308,
  "posit": 785,
  "formations": 7332,
  "yard": 3003,
  "balanced": 2898,
  "fires": 7678,
  "poll": 3828,
  "opening": 3408,
  "attempting": 5240,
  "disappointing": 5746,
  "gift": 5745,
  "vague": 4253,
  "bub": 3709,
  "blast": 6106,
  "mic": 2959,
  "draft": 6745,
  "frog": 5099,
  "portraits": 3476,
  "an": 82,
  "tops": 4143,
  "wave": 3237,
  "separ": 2767,
  "mesmerizing": 4124,
  "tension": 4535,
  "sym": 935,
  "monkey": 3835,
  "fluffy": 3353,
  "ject": 384,
  "dainty": 5866,
  "curiosity": 1882,
  "liquid": 6639,
  "doesn": 721,
  "dol": 4855,
  "opened": 5846,
  "ignoring": 5972,
  "murdered": 5595,
  "contemplate": 7752,
  "je": 2342,
  "origin": 2977,
  "transparent": 6855,
  "church": 1534,
  "beasts": 7113,
  "jagged": 3166,
  "lovingly": 4713,
  "moved": 3706,
  "secre": 1983,
  "days": 1601,
  "sensation": 4816,
  "inducing": 7455,
  "harp": 7364,
  "otherworldly": 5058,
  "pole": 4765,
  "ads": 5391,
  "filter": 7792,
  "zy": 1039,
  "corners": 5425,
  "onlook": 4656,
  "un": 173,
  "wra": 2588,
  "gruesome": 6243,
  "forced": 2941,
  "ric": 1011,
  "distressing": 5878,
  "peeking": 4122,
  "wol": 3926,
  "rhyth": 7823,
  "iot": 7191,
  "..": 552,
  "themed": 7917,
  "neg": 2243,
  "brand": 5533,
  "eaten": 4245,
  "pres": 3545,
  "rushed": 7016,
  "lighthe": 5101,
  "ern": 565,
  "complements": 7352,
  "giant": 1462,
  "mess": 1045,
  "roots": 6026,
  "lounging": 5019,
  "m": 50,
  "done": 705,
  "planning": 5438,
  "ned": 1410,
  "lavender": 6244,
  "ify": 3871,
  "feeling": 354,
  "erous": 4934,
  "hilar": 2286,
  "hips": 5980,
  "cradling": 7485,
  "pane": 7082,
  "alco": 5923,
  "pointill": 5201,
  "le": 105,
  "pleading": 4087,
  "lear": 2418,
  "organization": 4312,
  "portrayal": 3309,
  "stal": 1523,
  "stiff": 5270,
  "which": 385,
  "ground": 296,
  "crime": 6827,
  "ero": 5773,
  "costum": 5648,
  "only": 908,
  "cardboard": 6392,
  "aband": 2591,
  "op": 1436,
  "square": 1183,
  "raining": 5299,
  "anybody": 7313,
  "belly": 4398,
  "fash": 2402,
  "exper": 7978,
  "imposing": 3151,
  "comical": 1928,
  "rif": 1516,
  "ms": 1151,
  "amor": 5394,
  "fact": 1464,
  "alarming": 7224,
  "fails": 7710,
  "compli": 2258,
  "provided": 7417,
  "pearls": 7804,
  "fra": 1154,
  "wards": 3397,
  "ils": 2680,
  "hunt": 2505,
  "somber": 1711,
  "battlefield": 7061,
  "terri": 4300,
  "anything": 923,
  "bustle": 4250,
  "warning": 6539,
  "perple": 4097,
  "slender": 5754,
  "homely": 7045,
  "gave": 3753,
  "join": 5176,
  "friendship": 5718,
  "guitar": 2067,
  "disappointment": 7454,
  "madness": 7086,
  "rocks": 1582,
  "ail": 6906,
  "commercial": 7853,
  "fal": 6252,
  "land": 551,
  "ale": 648,
  "where": 604,
  "appeared": 6999,
  "slic": 6466,
  "jel": 5764,
  "reap": 4932,
  "us": 242,
  "also": 561,
  "colour": 816,
  "conscious": 6101,
  "majesty": 4176,
  "stylish": 7675,
  "garish": 6819,
  "balcon": 5570,
  "starry": 7769,
  "ske": 2087,
  "shoulder": 2949,
  "depress": 6696,
  "non": 2473,
  "ony": 2030,
  "erity": 7565,
  "',": 4567,
  "studies": 7709,
  "pture": 849,
  "royalty": 2703,
  "studio": 7863,
  "emphasizes": 6022,
  "completed": 4692,
  "taste": 2684,
  "cubes": 5412,
  "indeed": 6893,
  "up": 312,
  "spoon": 6798,
  "far": 1434,
  "worse": 5534,
  "nostalgic": 2193,
  "oh": 3959,
  "kind": 542,
  "inery": 7557,
  "tasty": 7623,
  "dream": 1421,
  "monsters": 4104,
  "osite": 5093,
  "wanting": 3750,
  "hits": 5026,
  "ching": 745,
  "duck": 4242,
  "circus": 2971,
  "violent": 2146,
  "elling": 3126,
  "turban": 7340,
  "nip": 6261,
  "vulnerable": 4473,
  "promise": 6833,
  "motion": 675,
  "dece": 4665,
  "itarian": 7087,
  "architect": 5442,
  "brave": 4551,
  "fruits": 2509,
  "scenario": 6440,
  "ladies": 1841,
  "nest": 5253,
  "smart": 3747,
  "black": 344,
  "drinks": 5443,
  "dru": 3500,
  "billowing": 6207,
  "docu": 5949,
  "vide": 2199,
  "bows": 5307,
  "habit": 4840,
  "omen": 4577,
  "unfriendly": 6105,
  "conv": 4758,
  "scen": 270,
  "clock": 5057,
  "acc": 4030,
  "interpretation": 3807,
  "freaky": 5872,
  "audience": 3676,
  "radiates": 6602,
  "passion": 2412,
  "hunter": 5597,
  "toy": 3398,
  "ity": 337,
  "zard": 2979,
  "issance": 3759,
  "cr": 665,
  "moss": 6978,
  "bowls": 7355,
  "tribal": 6359,
  "impressive": 1326,
  "cares": 5203,
  "slanted": 6009,
  "changed": 5934,
  "butterfly": 3908,
  "monu": 5688,
  "community": 2873,
  "spot": 2184,
  "cat": 936,
  "innocence": 3281,
  "minimalist": 4010,
  "walk": 1463,
  "bap": 4405,
  "kim": 4136,
  "churches": 6807,
  "bears": 4285,
  "trapped": 2779,
  "def": 4942,
  "gossi": 5397,
  "astounding": 6052,
  "drips": 7750,
  "blank": 1461,
  "deco": 7596,
  "tric": 1625,
  "triumph": 7507,
  "full": 956,
  "rules": 6848,
  "invoke": 3526,
  "scientific": 6422,
  "track": 7321,
  "stee": 6782,
  "jumping": 5860,
  "storm": 1230,
  "realism": 2104,
  "mend": 7287,
  "ss": 521,
  "illusion": 3090,
  "excites": 3567,
  "familiarity": 7778,
  "connected": 3105,
  "drawings": 3060,
  "prayer": 3018,
  "pictures": 1445,
  "even": 559,
  "inappropriate": 6473,
  "p": 53,
  "anci": 1852,
  "serene": 949,
  "grin": 4357,
  "phy": 2948,
  "tors": 6344,
  "volcano": 4007,
  "pedestal": 7495,
  "nie": 7892,
  "shel": 3614,
  "deta": 277,
  "met": 4142,
  "tend": 4746,
  "uity": 7204,
  "individuals": 3020,
  "crooked": 4459,
  "reds": 1373,
  "ries": 1665,
  "sters": 3368,
  "supposed": 1180,
  "bricks": 5340,
  "illicit": 7594,
  "carrying": 1825,
  "drown": 3892,
  "high": 901,
  "extravagant": 7855,
  "myst": 2026,
  "haven": 5928,
  "smirk": 4012,
  "crucifix": 2358,
  "statues": 3636,
  "already": 3462,
  "re": 83,
  "holiday": 5338,
  "feed": 4422,
  "lam": 3852,
  "flowers": 510,
  "wa": 599,
  "orgy": 4284,
  "gathering": 1837,
  "ak": 788,
  "were": 982,
  "chin": 2076,
  "aes": 3320,
  "imal": 571,
  "thetic": 2748,
  "repulsive": 7830,
  "frown": 3383,
  "classy": 5710,
  "fant": 2224,
  "melting": 3244,
  "vacant": 6187,
  "upright": 7288,
  "beach": 929,
  "shower": 4773,
  "fron": 5558,
  "clergy": 7492,
  "creativity": 4064,
  "worn": 3087,
  "recently": 6233,
  "threw": 5864,
  "balancing": 6792,
  "managed": 7945,
  "70s": 5902,
  "melon": 5037,
  "gard": 1290,
  "unless": 6104,
  "timeless": 7665,
  "everything": 893,
  "bone": 5757,
  "suming": 4613,
  "tizing": 7292,
  "ro": 154,
  "dripping": 3584,
  "luminous": 6918,
  "side": 466,
  "sketches": 4236,
  "rule": 7664,
  "send": 7010,
  "eyed": 5803,
  "ight": 450,
  "head": 462,
  "mut": 1018,
  "\\": 35,
  "bore": 7979,
  "conflict": 2870,
  "visited": 6351,
  "out": 176,
  "otes": 6806,
  "umbrellas": 4904,
  "damaged": 6635,
  "ama": 610,
  "tered": 2968,
  "ack": 181,
  "tons": 7546,
  "banana": 6388,
  "heartwarming": 6561,
  "ases": 3660,
  "18": 5756,
  "stern": 1975,
  "seren": 2557,
  "scene": 291,
  "lu": 2456,
  "sla": 2365,
  "ballo": 3575,
  "blue": 297,
  "ruck": 7015,
  "mund": 4409,
  "ו": 70,
  "radiant": 6844,
  "pal": 1187,
  "cage": 5395,
  "mankind": 7242,
  "cir": 1104,
  "exam": 2964,
  "potentially": 6617,
  "intere": 365,
  "broad": 4241,
  "bac": 7182,
  "they": 229,
  "materials": 7436,
  "prof": 2234,
  "sole": 2204,
  "rage": 3557,
  "curly": 4447,
  "piled": 7543,
  "neighborhood": 4814,
  "butts": 5945,
  "homey": 4788,
  "sport": 7293,
  "mellow": 3484,
  "childish": 2985,
  "miles": 6006,
  "himself": 1808,
  "interact": 5832,
  "target": 6218,
  "patiently": 6223,
  "cabb": 5452,
  "fellow": 3691,
  "likely": 2827,
  "aren": 2197,
  "spoiled": 7722,
  "hazy": 4144,
  "perspective": 1677,
  "raft": 7605,
  "fate": 3914,
  "ath": 645,
  "approaches": 7828,
  "tu": 3145,
  "....": 3625,
  "apparently": 6213,
  "ll": 996,
  "to": 95,
  "ruff": 4774,
  "rural": 3778,
  "edgy": 6959,
  "double": 4911,
  "barren": 3099,
  "invig": 7337,
  "roofs": 5594,
  "status": 4452,
  "eating": 2285,
  "matic": 1931,
  "cudd": 4678,
  "wasn": 4040,
  "business": 2803,
  "apple": 2668,
  "disappoint": 4255,
  "owl": 5651,
  "mild": 3289,
  "baby": 593,
  "reality": 3751,
  "illing": 3473,
  "slightly": 1376,
  "contact": 6307,
  "jewelry": 4556,
  "ancing": 4526,
  "plac": 1531,
  "dominate": 6398,
  "va": 4196,
  "late": 3853,
  "pair": 1833,
  "emp": 783,
  "sweet": 1752,
  "distract": 2777,
  "smoky": 7012,
  "string": 3982,
  "goat": 4214,
  "uses": 1380,
  "cow": 1482,
  "myself": 2002,
  "l": 49,
  "stains": 6196,
  "invigorating": 7862,
  "squares": 2080,
  "sombre": 7460,
  "scor": 6981,
  "ran": 6074,
  "throwing": 4907,
  "distant": 3013,
  "huge": 1690,
  "series": 4875,
  "south": 6812,
  "dishes": 7654,
  "piz": 6667,
  "cooking": 5381,
  "kn": 1502,
  "festi": 2194,
  "asing": 4842,
  "icked": 4754,
  "physical": 5456,
  "sam": 2662,
  "tiny": 1933,
  "screen": 3282,
  "discover": 6317,
  "screaming": 5448,
  "mas": 2239,
  "trunk": 6871,
  "regal": 1836,
  "suggested": 7695,
  "stars": 2727,
  "tured": 7625,
  "scares": 3647,
  "exp": 1300,
  "chest": 2617,
  "responsi": 7132,
  "architecture": 2014,
  "ten": 1262,
  "privac": 7703,
  "blend": 1206,
  "aroused": 4067,
  "import": 967,
  "iness": 746,
  "jumbled": 3193,
  "hh": 5909,
  "fighting": 1639,
  "mundane": 4734,
  "leading": 2804,
  "turbu": 7693,
  "probably": 1453,
  "exposing": 6107,
  "rai": 2912,
  "producing": 7425,
  "mesmer": 3639,
  "exposed": 3178,
  "painting": 151,
  "serving": 5825,
  "idence": 2815,
  "horses": 1364,
  "fin": 731,
  "arrangements": 7757,
  "modesty": 7861,
  "healthy": 2962,
  "'": 10,
  "pt": 1228,
  "armour": 7660,
  "leaves": 983,
  "brook": 7376,
  "script": 7815,
  "lands": 5294,
  "illi": 2666,
  "closing": 7004,
  "poison": 5399,
  "senses": 4516,
  "spider": 5020,
  "irregular": 5521,
  "humorous": 2623,
  "indul": 6704,
  "cared": 7185,
  "spl": 1165,
  "clou": 685,
  "pow": 859,
  "ce": 196,
  "noticed": 4858,
  "carefully": 4533,
  "wizard": 5518,
  "impressively": 6413,
  "squiggles": 4468,
  "dominates": 6399,
  "pose": 992,
  "splash": 1920,
  "boxes": 3679,
  "helpless": 4304,
  "comically": 6721,
  "friendly": 2314,
  "divided": 6425,
  "colonial": 7152,
  "exquis": 3179,
  "living": 1885,
  "upbeat": 5282,
  "geometry": 4457,
  "ady": 472,
  "genu": 5724,
  "nearly": 4792,
  "ashes": 5077,
  "stares": 4989,
  "bench": 4057,
  "forlorn": 4354,
  "starving": 7103,
  "se": 96,
  "letting": 5842,
  "portra": 620,
  "windows": 2449,
  "ol": 519,
  "ne": 260,
  "geome": 1473,
  "itali": 6081,
  "narr": 5629,
  "shr": 4762,
  "inspires": 2699,
  "chase": 6541,
  "xi": 7550,
  "stu": 1035,
  "fear": 577,
  "attle": 5802,
  "depths": 6805,
  "horrific": 5685,
  "pool": 3086,
  "skating": 7999,
  "graphic": 2737,
  "wide": 2326,
  "blessing": 4063,
  "remark": 4199,
  "qua": 2517,
  "stup": 4750,
  "pudd": 5702,
  "entertained": 6011,
  "berries": 4976,
  "prostitute": 7858,
  "makes": 158,
  "feature": 3369,
  "push": 3459,
  "remote": 7920,
  "graphy": 4702,
  "layout": 4111,
  "fine": 1799,
  "important": 1100,
  "prominent": 3950,
  "esque": 2664,
  "cloudy": 2802,
  "wl": 4412,
  "00": 3391,
  "guards": 6752,
  "striking": 1828,
  "apo": 4822,
  "dy": 418,
  "influ": 5032,
  "select": 5507,
  "that": 167,
  "majes": 1623,
  "bacteria": 7498,
  "promin": 3726,
  "casually": 6588,
  "ket": 677,
  "armor": 3127,
  "hotel": 7749,
  "gowns": 7112,
  "experiment": 6382,
  "supernatural": 5585,
  "items": 1847,
  "privile": 6200,
  "bron": 6997,
  "stability": 7931,
  "streaks": 3241,
  "gang": 6069,
  "concerning": 7742,
  "contem": 2046,
  "ali": 940,
  "appealing": 1342,
  "birth": 2468,
  "painters": 7599,
  "masks": 5331,
  "yo": 5914,
  "juicy": 6188,
  "vain": 7206,
  "ich": 353,
  "ironic": 7962,
  "h": 45,
  "tool": 5682,
  "arr": 1214,
  "portal": 5805,
  "lock": 5375,
  "visit": 2181,
  "itude": 2980,
  "omb": 4600,
  "ke": 99,
  "gn": 1649,
  "being": 407,
  "soc": 2679,
  "bro": 1259,
  "carry": 4045,
  "eur": 4571,
  "pregnant": 4404,
  "car": 605,
  "successful": 6863,
  "argument": 6631,
  "able": 395,
  "amusing": 735,
  "prom": 2626,
  "wist": 5637,
  "yelling": 6938,
  "legs": 1897,
  "ific": 1766,
  "minimal": 2508,
  "england": 7390,
  "finger": 2621,
  "occup": 6194,
  "scient": 4671,
  "dip": 7020,
  "muddy": 3729,
  "sag": 5368,
  "porno": 6404,
  "ssing": 7316,
  "clinging": 7833,
  "flower": 1314,
  "secrets": 4898,
  "middle": 772,
  "landscap": 5122,
  "llas": 4881,
  "snack": 7121,
  "etched": 6321,
  "otherwise": 2575,
  "resign": 4213,
  "ink": 262,
  "skeletal": 6894,
  "dreamlike": 5319,
  "satin": 5996,
  "combine": 5427,
  "ishment": 3988,
  "dying": 1428,
  "smells": 5875,
  "ght": 157,
  "ripples": 5519,
  "essed": 5034,
  "carpet": 4679,
  "shell": 4951,
  "angels": 863,
  "parent": 2744,
  "curving": 7347,
  "road": 1704,
  "reaper": 5478,
  "cello": 7458,
  "cherubs": 3643,
  "vern": 6098,
  "ape": 725,
  "hosp": 6723,
  "dr": 1385,
  "pillar": 5463,
  "lacking": 3014,
  "sketching": 4110,
  "getic": 3341,
  "angular": 3058,
  "fere": 444,
  "tle": 400,
  "unnatural": 2592,
  "collected": 6595,
  "sical": 1580,
  "rel": 1546,
  "port": 375,
  "aggress": 2946,
  "obese": 7162,
  "simpl": 1658,
  "animated": 5239,
  "psychedelic": 5353,
  "ige": 2341,
  "mystical": 4712,
  "hopeful": 2869,
  "official": 7156,
  "smokes": 7659,
  "somehow": 2460,
  "lip": 4748,
  "ather": 1615,
  "pyramid": 6039,
  "leis": 4661,
  "ande": 6477,
  "chocol": 5690,
  "blocking": 5552,
  "silky": 7380,
  "tes": 3365,
  "ng": 5766,
  "inno": 1659,
  "reser": 7268,
  "clam": 7680,
  "camer": 4338,
  "adds": 1468,
  "plus": 2424,
  "hungry": 2675,
  "glorious": 4992,
  "depictions": 4791,
  "gross": 1692,
  "watching": 1312,
  "crowded": 2844,
  "posed": 1856,
  "unrealistic": 4590,
  "seriously": 3887,
  "success": 4268,
  "traged": 4977,
  "ild": 265,
  "banner": 6821,
  "unicorn": 7501,
  "student": 5109,
  "shack": 6715,
  "pier": 3043,
  "bearing": 5041,
  "assa": 7951,
  "xed": 3736,
  "annoys": 5446,
  "groo": 6913,
  "pp": 204,
  "tortured": 3541,
  "staircase": 5601,
  "bought": 7873,
  "gest": 6135,
  "consoling": 7496,
  "folks": 4706,
  "worship": 3436,
  "idenced": 7986,
  "psy": 3670,
  "reli": 658,
  "happiness": 1391,
  "proud": 1911,
  "ons": 1389,
  "not": 224,
  "large": 784,
  "moses": 5793,
  "tures": 6987,
  "whel": 1887,
  "ught": 1862,
  "grayscale": 5841,
  "fit": 1253,
  "holding": 644,
  "overgrown": 7006,
  "hoo": 6513,
  "city": 925,
  "slice": 5100,
  "warm": 575,
  "vac": 1982,
  "farming": 5213,
  "paintings": 1159,
  "fields": 2702,
  "rial": 3740,
  "appreci": 1797,
  "net": 3873,
  "finished": 1489,
  "matching": 5082,
  "wes": 4835,
  "ton": 2226,
  "ertain": 1396,
  "judge": 3898,
  "ense": 5150,
  "freedom": 3455,
  "sea": 995,
  "indu": 4289,
  "brought": 4360,
  "symbolizes": 3805,
  "reminder": 3981,
  "leaning": 2741,
  "worldly": 3572,
  "feather": 2795,
  "stillness": 4527,
  "tern": 3989,
  "hope": 1170,
  "nearby": 4793,
  "structures": 3348,
  "medieval": 3253,
  "really": 341,
  "younger": 3158,
  "catching": 2523,
  "view": 584,
  "mathem": 6092,
  "meant": 2608,
  "pack": 4411,
  "frozen": 4463,
  "mous": 3363,
  "crowds": 5707,
  "enjoyment": 4367,
  "intentional": 4469,
  "<start>": 2,
  "licit": 5295,
  "att": 310,
  "without": 1299,
  "rodden": 7606,
  "mount": 6072,
  "hy": 2471,
  "quick": 2713,
  "rest": 878,
  "arms": 1562,
  "sided": 7741,
  "eye": 707,
  "elect": 4482,
  "gr": 211,
  "lifes": 5214,
  "expecting": 6585,
  "historic": 3681,
  "ropes": 7960,
  "shelter": 6611,
  "stri": 912,
  "comed": 6488,
  "ly": 142,
  "experi": 1899,
  "quilt": 7398,
  "gallery": 6225,
  "snd": 7795,
  "sch": 3426,
  "contemplative": 3585,
  "ption": 5255,
  "interrupted": 6226,
  "ster": 887,
  "boulders": 7839,
  "depicts": 1476,
  "perspect": 1629,
  "skies": 2330,
  "furrowed": 7400,
  "happen": 1146,
  "apprehen": 5579,
  "pending": 3381,
  "langu": 2236,
  "source": 4330,
  "bil": 3072,
  "partially": 5064,
  "ato": 2749,
  "souls": 4313,
  "iction": 5275,
  "ing": 85,
  "beauty": 1013,
  "wheat": 6284,
  "gum": 6322,
  "determin": 2823,
  "mortality": 7452,
  "robe": 1703,
  "uni": 2133,
  "tele": 5289,
  "vent": 5913,
  "memories": 2927,
  "quickly": 4184,
  "heat": 4756,
  "gant": 1613,
  "bleak": 2577,
  "tale": 3460,
  "stance": 2149,
  "abundance": 5747,
  "bare": 1612,
  "palette": 1972,
  "michael": 7431,
  "regre": 4025,
  "chill": 4667,
  "sinister": 2580,
  "entering": 6110,
  "interpreted": 7843,
  "aced": 4420,
  "aming": 3207,
  "organ": 1694,
  "boob": 4212,
  "demonstr": 4888,
  "staring": 1567,
  "bush": 4224,
  "sunday": 5814,
  "scenes": 2425,
  "box": 1628,
  "elated": 7578,
  "play": 494,
  "bend": 6908,
  "acked": 1984,
  "sailors": 7131,
  "rings": 3915,
  "split": 6166,
  "congr": 6973,
  "knew": 4194,
  "alright": 6086,
  "dest": 2535,
  "elicit": 4809,
  "underwear": 6763,
  "wil": 4076,
  "vage": 7910,
  "snap": 6669,
  "tex": 959,
  "kin": 3815,
  "towards": 1480,
  "portray": 1094,
  "demonic": 3638,
  "sign": 1210,
  "chool": 1834,
  "reaches": 5858,
  "grou": 4853,
  "mock": 7255,
  "contentment": 909,
  "popular": 6556,
  "worrisome": 6245,
  "amate": 5051,
  "andro": 7214,
  "ench": 4752,
  "80s": 4925,
  "civi": 5063,
  "morning": 2034,
  "irritated": 3415,
  "romance": 5219,
  "shade": 1878,
  "mysterious": 1605,
  "sheet": 3263,
  "stolen": 7314,
  "poking": 7198,
  "fles": 3286,
  "whites": 3259,
  "weapon": 2929,
  "overcast": 5538,
  "wee": 4764,
  "rustic": 4321,
  "press": 280,
  "ubby": 3536,
  "gas": 6255,
  "sloppy": 3646,
  "paradise": 7730,
  "creation": 4094,
  "closed": 2635,
  "backwards": 5800,
  "delight": 3030,
  "member": 2725,
  "uous": 2747,
  "cool": 801,
  "jacket": 3139,
  "jumps": 6378,
  "lettering": 6847,
  "used": 437,
  "aged": 3379,
  "pumpkin": 6428,
  "buttocks": 6509,
  "celebrating": 4114,
  "thanks": 4682,
  "agony": 4366,
  "amid": 4428,
  "fully": 1603,
  "decay": 4179,
  "framing": 3633,
  "ively": 2706,
  "17": 7516,
  "expect": 2277,
  "courtyard": 6826,
  "inst": 3658,
  "gress": 2361,
  "ortho": 7577,
  "praising": 6929,
  "alongside": 5305,
  "pear": 3865,
  "because": 252,
  "bowing": 4048,
  "attitude": 4433,
  "hen": 4072,
  "harvesting": 6845,
  "end": 653,
  "eventually": 6574,
  "making": 834,
  "comfortably": 6008,
  "ski": 4956,
  "uated": 7205,
  "!!": 3360,
  "overly": 3270,
  "fading": 4390,
  "threatened": 7093,
  "intro": 7239,
  "ste": 999,
  "haps": 1426,
  "may": 643,
  "impressed": 2213,
  "signed": 6559,
  "chilly": 7957,
  "stun": 1896,
  "proport": 1443,
  "cig": 3774,
  "pur": 737,
  "tum": 5371,
  "isha": 3548,
  "great": 525,
  "festive": 3000,
  "stripe": 4448,
  "boys": 3067,
  "shes": 2380,
  "guide": 6751,
  "cheek": 5581,
  "movi": 6102,
  "bottles": 5300,
  "rusty": 7419,
  "drive": 5586,
  "magazine": 6239,
  "triangles": 4886,
  "hand": 582,
  "indo": 7253,
  "flat": 2780,
  "dad": 4339,
  "refresh": 3406,
  "aut": 269,
  "cot": 3006,
  "screams": 5726,
  "imply": 5856,
  "goodbye": 7311,
  "progress": 4517,
  "wig": 4208,
  "ouring": 4606,
  "ex": 177,
  "certainly": 5725,
  "knife": 2787,
  "lord": 3583,
  "ko": 5765,
  "confu": 401,
  "fasc": 1943,
  "happens": 4379,
  "fe": 115,
  "resigned": 5241,
  "moon": 1744,
  "ruined": 5287,
  "pasture": 6163,
  "favorite": 1959,
  "pre": 355,
  "eggs": 3724,
  "wrest": 4836,
  "commandments": 6600,
  "handing": 7322,
  "horseback": 5831,
  "coffee": 3219,
  "castic": 7716,
  "realized": 6028,
  "third": 5137,
  "value": 5209,
  "intru": 7240,
  "ughty": 5220,
  "pulls": 6214,
  "var": 1063,
  "shimmer": 5944,
  "antique": 6113,
  "uniform": 2999,
  "nur": 4341,
  "chuck": 4031,
  "confident": 1859,
  "nicely": 1430,
  "seductive": 4557,
  "share": 3829,
  "ceremon": 4015,
  "wit": 3396,
  "else": 1360,
  "upside": 3299,
  "magaz": 5901,
  "specifically": 4549,
  "god": 1166,
  "favor": 1869,
  "purity": 4681,
  "vaguely": 6889,
  "hang": 1337,
  "impat": 7388,
  "rout": 4931,
  "flu": 2070,
  "banks": 7094,
  "nun": 3423,
  "nour": 6666,
  "ars": 1140,
  "bars": 3654,
  "uneasy": 1926,
  "lift": 6944,
  "version": 3124,
  "tom": 880,
  "it": 91,
  "position": 946,
  "distur": 1244,
  "seemed": 4668,
  "unforgiving": 7850,
  "stache": 6484,
  "air": 867,
  "muscle": 5723,
  "diverse": 6758,
  "after": 1058,
  "killer": 5218,
  "licity": 1447,
  "ph": 793,
  "brow": 2669,
  "av": 674,
  "foc": 2308,
  "è": 66,
  "polar": 7633,
  "sculpted": 7143,
  "dense": 5867,
  "tomato": 5697,
  "curves": 2639,
  "bir": 1030,
  "coal": 4585,
  "ck": 451,
  "atory": 4717,
  "violence": 2782,
  "visually": 2564,
  "medium": 4462,
  "ble": 414,
  "aside": 5787,
  "layers": 2897,
  "having": 696,
  "mistake": 6783,
  "ssi": 1136,
  "pictured": 3872,
  "pears": 5152,
  "kimono": 4915,
  "movies": 6242,
  "pun": 2765,
  "lig": 7926,
  "perched": 5962,
  "highlighting": 6775,
  "composed": 4430,
  "evokes": 1490,
  "heaven": 1239,
  "asc": 1742,
  "personally": 5960,
  "reverent": 5722,
  "unlike": 7972,
  "enticing": 6111,
  "define": 7597,
  "instill": 5138,
  "dri": 1989,
  "kenned": 6788,
  "values": 5314,
  "cartoony": 7379,
  "cise": 5760,
  "defeated": 4262,
  "agram": 5679,
  "butter": 3033,
  "hearing": 7246,
  "speci": 1923,
  "fist": 6068,
  "thanksgiving": 7465,
  "cative": 4975,
  "gradient": 4555,
  "jovial": 5405,
  "hate": 2131,
  "restful": 6156,
  "scroll": 4426,
  "experien": 3136,
  "gre": 263,
  "dra": 373,
  "ult": 1322,
  "bodies": 1340,
  "idd": 663,
  "purplish": 7686,
  "fun": 362,
  "absence": 6972,
  "hunting": 4393,
  "gart": 6256,
  "eping": 4599,
  "ped": 1137,
  "overdone": 6741,
  "realize": 4399,
  "war": 831,
  "pho": 576,
  "sexually": 5573,
  "glows": 5447,
  "alone": 1315,
  "detached": 7472,
  "misplaced": 7358,
  "united": 7610,
  "connot": 7967,
  "pir": 5254,
  "shiel": 4167,
  "lacks": 1917,
  "haphazardly": 7449,
  "terrible": 2860,
  "under": 619,
  "decision": 6189,
  "rable": 6495,
  "orig": 2826,
  "comprehend": 7847,
  "elephant": 3542,
  "levels": 5323,
  "thru": 4077,
  "properly": 5223,
  "expected": 3645,
  "lamb": 5237,
  "treasure": 7007,
  "rendering": 3712,
  "fashioned": 5004,
  "ar": 98,
  "key": 1728,
  "cla": 2762,
  "relaxed": 708,
  "trees": 513,
  "monks": 6334,
  "oney": 7619,
  "fan": 1458,
  "tic": 634,
  "frames": 5704,
  "amuses": 2913,
  "within": 1547,
  "riding": 2166,
  "wardrobe": 7715,
  "exploring": 5215,
  "reclining": 6423,
  "melted": 5315,
  "physically": 5894,
  "indist": 4500,
  "lively": 1845,
  "fold": 2256,
  "nasty": 4602,
  "monk": 4103,
  "porch": 6403,
  "usion": 2614,
  "wistful": 6055,
  "genitalia": 7456,
  "noble": 3297,
  "propaganda": 6897,
  "situ": 2112,
  "ta": 206,
  "crosses": 3841,
  "eat": 1640,
  "chubby": 3611,
  "angling": 6731,
  "pushing": 5012,
  "ung": 7971,
  "washing": 3245,
  "abundant": 6864,
  "flock": 5987,
  "bring": 1118,
  "crazy": 2227,
  "near": 1267,
  "bons": 5627,
  "tin": 1802,
  "sensu": 2652,
  "fence": 3113,
  "ili": 1963,
  "goofy": 4293,
  "victo": 3902,
  "admire": 3650,
  "<pad>": 0,
  "rifying": 2191,
  "dignity": 6615,
  "goes": 2423,
  "alluring": 4761,
  "awk": 2212,
  "lightness": 4434,
  "tape": 7270,
  "bride": 6447,
  "stunning": 1945,
  "sple": 6075,
  "tapestry": 6436,
  "ddled": 3843,
  "feminine": 2875,
  "sublime": 6802,
  "arriving": 7448,
  "stupid": 4923,
  "nudes": 4877,
  "distingu": 3833,
  "pasto": 4351,
  "globe": 7409,
  "tile": 6076,
  "kiss": 3600,
  "splashing": 7746,
  "bene": 3901,
  "piles": 7781,
  "straw": 4538,
  "shopping": 5838,
  "wrink": 3068,
  "awkward": 2223,
  "centric": 6761,
  "pr": 646,
  "usually": 2786,
  "distraught": 5185,
  "shimmering": 7158,
  "things": 789,
  "feet": 1702,
  "types": 3620,
  "classroom": 7724,
  "til": 2441,
  "worlds": 5834,
  "aesthetic": 3417,
  "nat": 958,
  "showed": 7302,
  "suggesting": 3305,
  "soci": 2352,
  "dotted": 6016,
  "shut": 5943,
  "oc": 2186,
  "blacks": 3377,
  "const": 5522,
  "once": 2343,
  "disappo": 2636,
  "stature": 5377,
  "females": 4286,
  "unappealing": 2940,
  "mach": 2389,
  "ed": 121,
  "pastel": 1533,
  "distinguish": 7446,
  "barn": 3577,
  "decent": 4944,
  "beaten": 6203,
  "let": 1047,
  "tones": 913,
  "blues": 1026,
  "spears": 7371,
  "driver": 6662,
  "dun": 6065,
  "incredibly": 2429,
  "oming": 2536,
  "cohes": 5784,
  "line": 862,
  "ire": 1191,
  "piercing": 4396,
  "masculine": 4565,
  "bus": 915,
  "blen": 950,
  "bby": 5758,
  "oon": 7196,
  "belongs": 4903,
  "artwork": 1160,
  "deadly": 7706,
  "fashionable": 6831,
  "ites": 1904,
  "any": 504,
  "ford": 6980,
  "fire": 1185,
  "pen": 676,
  "transition": 6168,
  "eling": 2253,
  "chained": 6772,
  "pants": 3854,
  "ban": 2121,
  "exhi": 5941,
  "tot": 2532,
  "mountains": 894,
  "tail": 4150,
  "gers": 4134,
  "jum": 1741,
  "els": 2132,
  "sity": 3819,
  "col": 1130,
  "mushroom": 4334,
  "watering": 7656,
  "cap": 1644,
  "assem": 7595,
  "rabbit": 4730,
  "schemes": 7069,
  "uing": 7548,
  "unfor": 6501,
  "steam": 6549,
  "struck": 5192,
  "dav": 5763,
  "enjoyable": 2715,
  "sexy": 3534,
  "fright": 1621,
  "failed": 6362,
  "lily": 6943,
  "ancho": 2251,
  "suspect": 7274,
  "ically": 2061,
  "ac": 109,
  "famous": 3837,
  "piano": 3453,
  "desp": 1667,
  "chicken": 2430,
  "battle": 1201,
  "reverence": 2926,
  "ant": 214,
  "ima": 274,
  "our": 691,
  "silly": 1775,
  "perception": 6131,
  "aci": 6681,
  "provocative": 6888,
  "chim": 5788,
  "match": 2246,
  "salt": 6030,
  "top": 714,
  "desert": 2462,
  "flight": 5908,
  "placement": 2892,
  "staff": 5379,
  "anyone": 2463,
  "nose": 2053,
  "positioned": 3794,
  "drink": 1860,
  "treat": 5961,
  "spid": 4437,
  ",": 15,
  "bucket": 6755,
  "energetic": 3528,
  "didnt": 7063,
  "ren": 574,
  "ium": 7533,
  "disarray": 5675,
  "deb": 6287,
  "pher": 3053,
  "afterno": 2450,
  "farmer": 4539,
  "novel": 5047,
  "oy": 7895,
  "masterpiece": 6202,
  "ess": 208,
  "gonna": 4625,
  "becomes": 6686,
  "stret": 2896,
  "suicide": 7985,
  "pless": 3180,
  "lots": 1316,
  "jaw": 5362,
  "prep": 2118,
  "dge": 6448,
  "indust": 3467,
  "today": 3328,
  "grandfather": 6562,
  "ghter": 2503,
  "evidence": 7657,
  "interrup": 4608,
  "les": 573,
  "camp": 4129,
  "warri": 2047,
  "kening": 7573,
  "domes": 4508,
  "primitive": 5609,
  "wishing": 7077,
  "various": 1619,
  "mar": 1247,
  "grabbing": 5335,
  "features": 1361,
  "comfor": 592,
  "then": 1234,
  "understanding": 4604,
  "those": 980,
  "isolated": 3451,
  "ered": 1616,
  "context": 2832,
  "shawl": 6720,
  "sens": 4039,
  "10": 6061,
  "health": 4940,
  "serious": 1091,
  "mystery": 2543,
  "ho": 241,
  "fitting": 7721,
  "sque": 6933,
  "100": 6248,
  "cotton": 5457,
  "cult": 6659,
  "secret": 2437,
  "grotesque": 3109,
  "field": 1200,
  "relationship": 4633,
  "ired": 1545,
  "occas": 5449,
  "toes": 5145,
  "conversation": 3050,
  "meeting": 2848,
  "woman": 185,
  "wast": 5554,
  "wo": 156,
  "tacky": 7906,
  "err": 7215,
  "contract": 6308,
  "jester": 5070,
  "aqua": 7520,
  "cloak": 4093,
  "glow": 2148,
  "stit": 4749,
  "ded": 4019,
  "looks": 119,
  "means": 2172,
  "appropriate": 4190,
  "men": 302,
  "punished": 6397,
  "strings": 5956,
  "midst": 4547,
  "bot": 840,
  "elev": 5304,
  "exude": 7614,
  "postures": 4985,
  "gray": 1003,
  "probab": 1446,
  "asymme": 7053,
  "potato": 7405,
  "breaking": 3038,
  "lime": 4281,
  "pable": 4663,
  "beaut": 273,
  "ambiguous": 4189,
  "grid": 5361,
  "tress": 7905,
  "candy": 3352,
  "skull": 1732,
  "birthday": 6591,
  "buildings": 1112,
  "absur": 4287,
  "secur": 6942,
  "hill": 1169,
  "exploding": 6178,
  "tit": 4745,
  "least": 2694,
  "complete": 1956,
  "outlining": 7613,
  "sophisticated": 5350,
  "nice": 410,
  "pets": 5151,
  "limited": 4052,
  "eleph": 3159,
  "clust": 4605,
  "smooth": 2453,
  "affect": 3063,
  "about": 320,
  "bree": 3240,
  "signify": 5334,
  "invol": 3274,
  "immen": 4760,
  "ager": 3668,
  "extended": 7696,
  "slum": 4716,
  "math": 5273,
  "goods": 7310,
  "puppy": 5703,
  "reets": 3095,
  "ices": 2751,
  "di": 517,
  "clowns": 4803,
  "utilized": 6429,
  "anced": 2537,
  "madon": 3608,
  "pla": 5947,
  "sepia": 5147,
  "laundry": 6059,
  "thick": 2304,
  "lect": 709,
  "cu": 564,
  "ev": 372,
  "contorted": 4848,
  "lol": 5641,
  "curve": 6158,
  "dust": 4020,
  "gri": 1585,
  "summers": 6789,
  "vastness": 4998,
  "uts": 4495,
  "veled": 5932,
  "shadows": 1027,
  "bowed": 5566,
  "tears": 4041,
  "ache": 2406,
  "2": 21,
  "ber": 953,
  "models": 7107,
  "lions": 4349,
  "pounce": 6463,
  "varying": 4333,
  "choices": 2893,
  "ming": 1522,
  "most": 430,
  "east": 3361,
  "lified": 6083,
  "versus": 5786,
  "upset": 1978,
  "drying": 7879,
  "sat": 1288,
  "limin": 7928,
  "disfigured": 4959,
  "standing": 916,
  "brown": 688,
  "burning": 3216,
  "burdened": 6171,
  "burst": 4701,
  "asks": 5157,
  "wear": 2593,
  "terribly": 6622,
  "celebr": 1826,
  "bey": 2610,
  "r": 55,
  "illustr": 2291,
  "ut": 140,
  "ising": 1701,
  "jesus": 704,
  "sli": 2405,
  "lized": 3606,
  "interesting": 428,
  "disgusting": 1718,
  "activities": 3732,
  "pretty": 682,
  "always": 934,
  "mid": 2303,
  "plain": 1141,
  "-": 16,
  "doubt": 6216,
  "witch": 3461,
  "born": 2970,
  "survi": 4369,
  "puzzling": 7745,
  "gic": 1521,
  "colle": 5084,
  "appear": 318,
  "gown": 3144,
  "scious": 4504,
  "marilyn": 7476,
  "enh": 4751,
  "erup": 5505,
  "gun": 3143,
  "im": 178,
  "swimming": 3596,
  "cowboy": 6566,
  "endless": 4166,
  "satis": 1763,
  "gile": 7638,
  "see": 159,
  "produce": 4808,
  "shining": 2156,
  "quaint": 2849,
  "sist": 3601,
  "pering": 7658,
  "ridic": 3042,
  "[": 34,
  "lighter": 3155,
  "portrays": 3017,
  "fres": 7528,
  "mush": 4159,
  "cli": 2057,
  "void": 2687,
  "tast": 2422,
  "transp": 3637,
  "spir": 1525,
  "painted": 711,
  "slo": 2556,
  "putting": 2210,
  "focusing": 6197,
  "siblings": 7291,
  "linework": 5696,
  "watch": 1993,
  "concerned": 2300,
  "just": 278,
  "ation": 342,
  "gloves": 7410,
  "alley": 6676,
  "actions": 3154,
  "degree": 7953,
  "scale": 2290,
  "tranquility": 3894,
  "lier": 5774,
  "ank": 1194,
  "whats": 3663,
  "beneath": 4016,
  "nipples": 6626,
  "aspect": 2444,
  "attempt": 3619,
  "tub": 5259,
  "mot": 5048,
  "respected": 6180,
  "coloured": 7587,
  "incomplete": 2907,
  "communic": 4116,
  "scowl": 6630,
  "intention": 3176,
  "neon": 3265,
  "speaking": 5430,
  "luck": 6199,
  "envelo": 4662,
  "esome": 1693,
  "borders": 6336,
  "ving": 411,
  "technique": 2083,
  "satisfaction": 5329,
  "wreck": 5112,
  "warmth": 2245,
  "correct": 5699,
  "posing": 1350,
  "umin": 2861,
  "wel": 1803,
  "monochrome": 4906,
  "heartbreaking": 7382,
  "ships": 1810,
  "infin": 5917,
  "giggle": 4916,
  "terrified": 6222,
  "blings": 6979,
  "metal": 2936,
  "atical": 7218,
  "kings": 6318,
  "gor": 1395,
  "bill": 7521,
  "fi": 572,
  "juxta": 3001,
  "whilst": 5124,
  "turns": 4683,
  "ters": 2649,
  "female": 1356,
  "anger": 918,
  "fluid": 4460,
  "ze": 749,
  "icle": 6094,
  "mashed": 6492,
  "transport": 6410,
  "waits": 5555,
  "asy": 1086,
  "protect": 1892,
  "plag": 7275,
  "bless": 3510,
  "ancient": 1874,
  "tyard": 6742,
  "save": 4161,
  "goats": 7624,
  "ele": 943,
  "obscure": 6629,
  "simply": 2220,
  "break": 2331,
  "convention": 6874,
  "b": 39,
  "scare": 2612,
  "wise": 1814,
  "caricature": 5617,
  "color": 125,
  "det": 5045,
  "forcing": 7262,
  "russian": 6438,
  "anno": 1635,
  "lied": 4203,
  "smirking": 6406,
  "peacful": 6036,
  "understand": 1195,
  "want": 479,
  "bank": 4068,
  "bem": 6685,
  "passed": 3296,
  "caught": 2421,
  "however": 1929,
  "passing": 4309,
  "opp": 2225,
  "absolut": 1806,
  "retro": 6475,
  "loving": 2029,
  "sadness": 681,
  "pointillism": 5482,
  "or": 106,
  "strikes": 3754,
  "judging": 3899,
  "figures": 554,
  "cling": 5414,
  "hut": 6257,
  "f": 43,
  "japan": 1543,
  "so": 129,
  "depict": 2012,
  "torn": 2864,
  "ivory": 7055,
  "wand": 3965,
  "experienced": 5735,
  "heads": 1938,
  "mission": 4237,
  "pointing": 3243,
  "arrows": 3644,
  "if": 222,
  "reg": 1383,
  "ably": 3783,
  "stre": 944,
  "holiness": 5532,
  "precise": 4254,
  "ibly": 2375,
  "own": 295,
  "what": 216,
  "priest": 3242,
  "sy": 780,
  "ouses": 1738,
  "necess": 4359,
  "conso": 6500,
  "designs": 2990,
  "hint": 2403,
  "perse": 6747,
  "unimpressed": 7974,
  "hollywood": 7100,
  "greenery": 3519,
  "fad": 2122,
  "pin": 3544,
  "octop": 7414,
  "cked": 2317,
  "worth": 4513,
  "sticking": 4491,
  "cray": 4824,
  "divid": 4867,
  "weathered": 6230,
  "appreciation": 6005,
  "affection": 5459,
  "destination": 7101,
  "conta": 6701,
  "squ": 951,
  "char": 798,
  "believe": 2107,
  "ong": 671,
  "loose": 4346,
  "bt": 5624,
  "hints": 4805,
  "try": 1354,
  "pat": 1589,
  "artistry": 7307,
  "ft": 686,
  "winter": 1540,
  "idyllic": 3912,
  "gment": 4192,
  "gloo": 1087,
  "rit": 1922,
  "flee": 5343,
  "huts": 7890,
  "pit": 5494,
  "happ": 272,
  "closely": 4308,
  "gle": 4407,
  "cheer": 1584,
  "fix": 4523,
  "sink": 4653,
  "columns": 4065,
  "susp": 5665,
  "sugges": 828,
  "massive": 3149,
  "sen": 380,
  "el": 107,
  "dolls": 6843,
  "completely": 2373,
  "atic": 2883,
  "pray": 1231,
  "devotion": 6632,
  "partial": 7674,
  "french": 4328,
  "lor": 1946,
  "mary": 1208,
  "border": 3303,
  "dir": 2264,
  "scribble": 6012,
  "contours": 6868,
  "crum": 4981,
  "tor": 726,
  "devilish": 7415,
  "bl": 174,
  "sent": 630,
  "christmas": 2582,
  "clue": 4371,
  "earlier": 7036,
  "garb": 3844,
  "brut": 4295,
  "shadowing": 3239,
  "magn": 3054,
  "peculiar": 7172,
  "model": 3494,
  "despond": 4797,
  "superi": 7984,
  "coast": 3701,
  "conditions": 6395,
  "sadd": 4511,
  "ides": 3181,
  "hunched": 4125,
  "tru": 1813,
  "inty": 3463,
  "sides": 2759,
  "jackson": 6872,
  "ort": 307,
  "island": 2960,
  "miserable": 4475,
  "answers": 6621,
  "meal": 2531,
  "curvy": 5302,
  "nes": 3777,
  "gl": 954,
  "worst": 6726,
  "umb": 4967,
  "usual": 2056,
  "chick": 7602,
  "ition": 1417,
  "ither": 1308,
  "ker": 5363,
  "scrib": 2233,
  "swallowed": 6234,
  "questions": 4812,
  "interest": 366,
  "arming": 3339,
  "learn": 3683,
  "pathway": 5859,
  "bubbles": 6857,
  "erotic": 3079,
  "blocky": 4005,
  "fil": 3458,
  "laying": 1795,
  "satisfying": 2760,
  "teaching": 5408,
  "decorated": 3900,
  "olden": 5411,
  "ress": 233,
  "rock": 1587,
  "rep": 7559,
  "stopped": 6756,
  "uma": 6078,
  "bottom": 993,
  "deceased": 5118,
  "arily": 5376,
  "frustration": 4997,
  "put": 779,
  "explore": 3102,
  "blosso": 3953,
  "forth": 5659,
  "ה": 69,
  "likes": 3860,
  "expanse": 7133,
  "visiting": 4787,
  "sh": 197,
  "slen": 5633,
  "use": 179,
  "unt": 1581,
  "tive": 3300,
  "heard": 5387,
  "prefer": 5959,
  "sche": 1345,
  "fox": 5283,
  "curled": 5562,
  "stormy": 3346,
  "team": 5965,
  "gate": 4741,
  "asso": 3825,
  "shock": 7346,
  "commun": 2072,
  "hot": 1977,
  "throne": 3568,
  "hopes": 7279,
  "winged": 4461,
  "vis": 882,
  "light": 322,
  "centre": 6139,
  "closeness": 5575,
  "jor": 4651,
  "bond": 4738,
  "stra": 1466,
  "victim": 4546,
  "cut": 844,
  "suggests": 1500,
  "uminous": 6204,
  "fountain": 4649,
  "ere": 282,
  "begin": 2443,
  "discussion": 5332,
  "commands": 5333,
  "boring": 723,
  "band": 1960,
  "wis": 3505,
  "welcoming": 2974,
  "mul": 1641,
  "forgotten": 4635,
  "tick": 7328,
  "pride": 3213,
  "vey": 1280,
  "christ": 1019,
  "cheeky": 5582,
  "make": 234,
  "ix": 2235,
  "self": 656,
  "immedi": 3261,
  "clashing": 6339,
  "paths": 6813,
  "scra": 3333,
  "elvis": 7228,
  "order": 1664,
  "comforting": 1499,
  "wh": 124,
  "looking": 276,
  "sill": 7200,
  "tray": 5258,
  "equ": 3457,
  "ultim": 5056,
  "hunch": 3814,
  "shelf": 5465,
  "relative": 5436,
  "humanity": 4373,
  "apprehensive": 6641,
  "?": 33,
  "enchanting": 6873,
  "grazing": 5418,
  "coloring": 1423,
  "*": 13,
  "trad": 2597,
  "ware": 5135,
  "vere": 4085,
  "crad": 5691,
  "reflects": 3307,
  "evoked": 6319,
  "wears": 4358,
  "losing": 4655,
  "studi": 7356,
  "ptical": 4051,
  "tradition": 2808,
  "meh": 5920,
  "signific": 2781,
  "searching": 5483,
  "stacked": 4583,
  "comforted": 5186,
  "sunset": 1310,
  "males": 3756,
  "sketched": 5428,
  "attention": 1122,
  "poss": 3665,
  "lips": 2006,
  "ided": 3057,
  "terms": 5548,
  "interaction": 5079,
  "patch": 3350,
  "si": 316,
  "godly": 7368,
  "fect": 672,
  "blown": 6620,
  "liage": 3122,
  "walkway": 7387,
  "rh": 5366,
  "instantly": 7799,
  "forehead": 3991,
  "rear": 5264,
  "priests": 7351,
  "viewers": 7025,
  "ruins": 3621,
  "fort": 1876,
  "certainty": 4550,
  "walked": 7334,
  "paris": 4384,
  "combination": 1392,
  "voyage": 7475,
  "foreground": 1351,
  "villagers": 6037,
  "accident": 4474,
  "fiel": 1037,
  "engage": 4753,
  "coff": 7184,
  "rolling": 2113,
  "embarrassed": 6232,
  "anx": 1536,
  "realistic": 822,
  "set": 453,
  "sunrise": 3061,
  "ek": 3775,
  "male": 1071,
  "berry": 6547,
  "skele": 6387,
  "reali": 3147,
  "impressionistic": 5094,
  "diamond": 7842,
  "exc": 374,
  "acky": 6108,
  "folds": 3591,
  "dual": 5906,
  "horizon": 2050,
  "gain": 7886,
  "indic": 1760,
  "brightness": 2032,
  "nam": 2363,
  "ul": 314,
  "trun": 4603,
  "forest": 1188,
  "did": 1213,
  "picasso": 3827,
  "struggling": 3539,
  "leave": 2483,
  "give": 640,
  "casting": 5706,
  "bold": 884,
  "felt": 2263,
  "tastes": 7421,
  "rowing": 6814,
  "yes": 5499,
  "sition": 5543,
  "depending": 6962,
  "appeal": 1181,
  "cluttered": 3389,
  "generates": 7401,
  "mercy": 5422,
  "chaotic": 1401,
  "fro": 2320,
  "grand": 1379,
  "peak": 5930,
  "int": 118,
  "itive": 2665,
  "pover": 6115,
  "everybody": 3789,
  "curi": 657,
  "doo": 6990,
  "game": 2282,
  "mighty": 5848,
  "passionate": 4548,
  "shame": 4153,
  "bigger": 3273,
  "musc": 1994,
  "ached": 3518,
  "swirling": 3802,
  "shooting": 4271,
  "cloaked": 5804,
  "imagining": 5559,
  "cattle": 6064,
  "shepherd": 7841,
  "item": 3928,
  "inc": 1270,
  "fierce": 3771,
  "pipes": 6570,
  "arched": 6801,
  "surrounded": 1557,
  "intrigued": 1608,
  "jolly": 5807,
  "learned": 7420,
  "skeleton": 2528,
  "exercise": 6653,
  "ina": 3737,
  "on": 89,
  "evocative": 7473,
  "tem": 3186,
  "ds": 408,
  "weap": 2206,
  "drops": 5434,
  "ival": 3631,
  "iddle": 768,
  "cram": 5998,
  "counter": 4450,
  "based": 2853,
  "worms": 7641,
  "imed": 7190,
  "brother": 5088,
  "lice": 6279,
  "beer": 6954,
  "cloud": 2078,
  "bic": 5625,
  "clay": 5296,
  "future": 2773,
  "illustrated": 6195,
  "ide": 939,
  "waiting": 1281,
  "hum": 3669,
  "aggressive": 3250,
  "roman": 1729,
  "bedroom": 4238,
  "west": 5031,
  "sus": 3471,
  "symbolic": 3311,
  "vic": 2163,
  "forces": 3869,
  "diagram": 7021,
  "gogh": 5946,
  "unner": 4149,
  "aerial": 7872,
  "tranquil": 1770,
  "stuck": 2841,
  "horn": 5967,
  "blobs": 3522,
  "elder": 3202,
  "iron": 6497,
  "}": 65,
  "similar": 2171,
  "absorbed": 6646,
  "mote": 6293,
  "atmosphere": 2139,
  "sensual": 2877,
  "strip": 4690,
  "heavy": 1779,
  "job": 2560,
  "swi": 1579,
  "got": 1408,
  "sickness": 7073,
  "ction": 1737,
  "guy": 733,
  "above": 1048,
  "venice": 5572,
  "environment": 2140,
  "geor": 5277,
  "inves": 6939,
  "ultimately": 6049,
  "blon": 4480,
  "archway": 6169,
  "osed": 1156,
  "glued": 7048,
  "holi": 3513,
  "dirty": 2316,
  "adorable": 3246,
  "cul": 1830,
  "bu": 471,
  "silence": 7290,
  "sme": 1843,
  "scenar": 5799,
  "rhino": 7146,
  "ely": 368,
  "ub": 1861,
  "knot": 7536,
  "tour": 3659,
  "higher": 4687,
  "compelling": 5197,
  "supp": 892,
  "ind": 171,
  "beating": 7232,
  "doll": 3011,
  "cou": 985,
  "pretending": 7028,
  "starring": 7104,
  "devo": 4945,
  "crete": 4156,
  "thouse": 3118,
  "mu": 432,
  "ion": 147,
  "served": 7032,
  "selling": 7024,
  "cil": 2217,
  "offset": 5410,
  "practically": 7435,
  "finish": 4784,
  "quietly": 4696,
  "surreal": 2562,
  "bunch": 1377,
  "inct": 2305,
  "paralle": 7385,
  "between": 800,
  "shaped": 2025,
  "raught": 5160,
  "\",": 7175,
  "reads": 5565,
  "angry": 787,
  "literal": 7299,
  "vase": 1723,
  "ard": 328,
  "elongated": 5247,
  "decap": 6494,
  "ot": 1465,
  "har": 1110,
  "6": 25,
  "excitment": 6519,
  "bloated": 7319,
  "complimentary": 4901,
  "kindergarten": 7494,
  "flies": 5628,
  "aces": 3203,
  "infant": 3738,
  "period": 2081,
  "cheap": 6347,
  "ished": 1120,
  "harmony": 3489,
  "waking": 6140,
  "fac": 421,
  "almost": 516,
  "rac": 6464,
  "shapes": 436,
  "phor": 5495,
  "arro": 3366,
  "education": 7500,
  "ful": 164,
  "texture": 979,
  "stances": 5780,
  "straight": 1719,
  "profile": 3491,
  "cture": 1084,
  "),": 4647,
  "vary": 3820,
  "worries": 6515,
  "sect": 3121,
  "upsetting": 4092,
  "itment": 5644,
  "rocky": 3641,
  "sheets": 5400,
  "ance": 512,
  "sl": 2123,
  "reminds": 325,
  "protection": 4800,
  "bushes": 4520,
  "unity": 5165,
  "ian": 960,
  "bored": 752,
  "colic": 6951,
  "kis": 3776,
  "her": 190,
  "creases": 7295,
  "abuse": 6499,
  "lie": 5038,
  "determined": 3765,
  "bidden": 7522,
  "included": 4996,
  "smudges": 5336,
  "islands": 6841,
  "intest": 7241,
  "ctic": 5664,
  "naturally": 4235,
  "soon": 2571,
  "photos": 3714,
  "chores": 4873,
  "creatures": 2207,
  "nobody": 4949,
  "elicits": 5007,
  "ial": 629,
  "chaos": 1820,
  "fer": 3255,
  "ono": 3921,
  "rolled": 6000,
  "provide": 2967,
  "disorient": 4676,
  "paining": 5204,
  "whatever": 2198,
  "hun": 1951,
  "ripe": 5161,
  "sarcastic": 7849,
  "ur": 195,
  "perfectly": 1918,
  "oe": 7894,
  "teal": 4225,
  "throughout": 1980,
  "label": 6414,
  "pile": 2854,
  "act": 267,
  "seaside": 3588,
  "ifies": 7631,
  "shirt": 2091,
  "oppress": 4181,
  "mir": 1558,
  "ill": 313,
  "perplexed": 5344,
  "dig": 4021,
  "snowy": 2618,
  "dancers": 5708,
  "splattering": 7097,
  "angu": 1865,
  "fearful": 1488,
  "recognize": 5231,
  "ould": 289,
  "laughter": 7361,
  "puzzled": 3582,
  "portraying": 4378,
  "confuses": 3405,
  "tran": 1237,
  "brilliantly": 7428,
  "develo": 7598,
  "samu": 3165,
  "positions": 3935,
  "decipher": 4326,
  "gged": 3446,
  "pub": 3214,
  "repeated": 5606,
  "entire": 2077,
  "fits": 2793,
  "moil": 5657,
  "something": 317,
  "swir": 2157,
  "decided": 4117,
  "assort": 5068,
  "underwhel": 6141,
  "handsome": 3834,
  "unders": 5440,
  "sight": 1289,
  "necklace": 4895,
  "okes": 622,
  "generally": 4314,
  "pastoral": 4478,
  "mourning": 2658,
  "ner": 807,
  "ats": 3029,
  "isolation": 4720,
  "exhibit": 7489,
  "tan": 2499,
  "ir": 160,
  "gloom": 4056,
  "lover": 3822,
  "lich": 7222,
  "oky": 2813,
  "tho": 2500,
  "entr": 4291,
  "area": 1405,
  "connection": 4799,
  "wisp": 7913,
  "bli": 2339,
  "upon": 1969,
  "level": 1735,
  "feared": 6688,
  "visual": 3212,
  "explo": 1588,
  "garments": 4544,
  "dinner": 2738,
  "demonstrates": 7469,
  "cru": 1190,
  "candle": 3945,
  "blow": 4128,
  "dogs": 2638,
  "uncomfortable": 1222,
  "unique": 1261,
  "picturesque": 5716,
  "ention": 971,
  "wrestling": 6877,
  "facing": 3340,
  "mythical": 5472,
  "plea": 7966,
  "contemplating": 4178,
  "softly": 6148,
  "we": 221,
  "filled": 1699,
  "lic": 583,
  "ia": 3393,
  "squiggly": 5230,
  "multiple": 2228,
  "mountainous": 7026,
  "crow": 1203,
  "speck": 7062,
  "ulous": 2530,
  "elaborate": 4126,
  "excess": 6518,
  "scribbled": 5328,
  "eyes": 434,
  "resh": 1591,
  "ning": 616,
  "surprising": 5002,
  "claws": 6834,
  "arrange": 2259,
  "reflections": 3211,
  "meet": 3859,
  "activ": 3437,
  "present": 669,
  "adventure": 1932,
  "mourn": 5588,
  "fiery": 5184,
  "seph": 6278,
  "base": 3653,
  "leader": 3312,
  "grandiose": 6804,
  "drum": 7794,
  "skilled": 5172,
  "sw": 2933,
  "prophe": 7666,
  "ase": 941,
  "such": 717,
  "soldiers": 2214,
  "whit": 5515,
  "spying": 7294,
  "bonding": 6408,
  "meld": 6082,
  "clothing": 888,
  "ah": 2388,
  "pointless": 4610,
  "zone": 7552,
  "yourself": 5992,
  "took": 1935,
  "artif": 7622,
  "cit": 7183,
  "going": 419,
  "weapons": 3760,
  "essence": 5919,
  "grace": 2943,
  "glad": 5840,
  "acceptable": 7463,
  "given": 1767,
  "swirl": 6191,
  "polit": 3434,
  "iring": 1064,
  "starts": 5577,
  "sketchy": 6358,
  "inside": 1249,
  "beige": 2475,
  "vs": 4279,
  "common": 2944,
  "jun": 3957,
  "isto": 5266,
  "opera": 6634,
  "buried": 5547,
  "greatly": 4776,
  "cep": 2254,
  "determine": 5729,
  "inhuman": 7558,
  "belong": 2709,
  "repeating": 6616,
  "min": 823,
  "marily": 5312,
  "ass": 568,
  "yuck": 6472,
  "symmetry": 2605,
  "gir": 7885,
  "melancholy": 2646,
  "blacked": 7261,
  "lantern": 5248,
  "revealing": 7751,
  "ws": 3919,
  "crayons": 7468,
  "sick": 1455,
  "maiden": 5600,
  "troubles": 7423,
  "haze": 7238,
  "overwhelming": 2822,
  "highlight": 3480,
  "desolation": 7426,
  "cook": 5509,
  "dened": 3722,
  "arranged": 3939,
  "receiving": 5015,
  "initially": 6637,
  "ased": 1510,
  "kinda": 2209,
  "bulls": 6193,
  "poster": 4152,
  "awestruck": 7506,
  "suffered": 5621,
  "archite": 1835,
  "lent": 1404,
  "sash": 7201,
  "punishment": 5880,
  "theyre": 7632,
  "fre": 2161,
  "v": 59,
  "hideous": 6598,
  "nia": 7893,
  "wr": 1055,
  "intertwined": 6633,
  "accent": 2678,
  "bers": 3025,
  "abo": 1006,
  "sum": 1114,
  "cant": 2374,
  "you": 324,
  "wilder": 4621,
  "approaching": 4458,
  "pursed": 6146,
  "as": 134,
  "circumstances": 7491,
  "christian": 3096,
  "juxtaposed": 6842,
  "weigh": 5950,
  "abstract": 563,
  "outing": 5660,
  "thro": 7207,
  "patchwork": 5737,
  "sometimes": 3662,
  "movement": 1198,
  "hillside": 5206,
  "cing": 2040,
  "abs": 5790,
  "recognizable": 5349,
  "brushes": 5839,
  "odds": 5281,
  "ducks": 5210,
  "vast": 2351,
  "victorian": 4642,
  "invokes": 2672,
  "whoever": 4865,
  "chosen": 3879,
  "fascin": 2049,
  "pristine": 5975,
  "detailed": 799,
  "san": 3961,
  "geometrical": 6173,
  "rific": 4890,
  "surprised": 4058,
  "mension": 2111,
  "aftermath": 6784,
  "cert": 7876,
  "lifeless": 2785,
  "lightly": 7001,
  "unic": 6705,
  "hit": 2958,
  "exhausted": 4636,
  "gid": 4484,
  "young": 678,
  "velous": 6965,
  "slay": 6668,
  "tiles": 4719,
  "canvas": 1212,
  "bomb": 7483,
  "evoke": 1915,
  "ken": 1098,
  "reveal": 5444,
  "video": 3946,
  "causing": 5280,
  "silhouettes": 7796,
  "america": 4802,
  "strands": 6998,
  "charging": 7039,
  "fru": 931,
  "focus": 1411,
  "af": 650,
  "hopeless": 4123,
  "confined": 7608,
  "myster": 1583,
  "communicate": 5744,
  "colon": 5514,
  "bom": 5661,
  "saint": 2987,
  "ures": 4352,
  "renaissance": 3813,
  "disjointed": 2878,
  "sewing": 6481,
  "hust": 4485,
  "plotting": 4919,
  "human": 736,
  "shroud": 6875,
  "gifts": 7130,
  "zig": 7553,
  "enced": 5925,
  "sailor": 4162,
  "brushstrokes": 2685,
  "mothers": 4781,
  "stud": 3574,
  "unattractive": 4088,
  "wife": 2550,
  "scape": 734,
  "opu": 6264,
  "birds": 1256,
  "7": 26,
  "elderly": 3597,
  "from": 300,
  "grass": 1177,
  "dim": 3690
}